#version: 0.2
Ġ t
h e
Ġ a
i n
e r
o n
Ġt he
r e
a n
Ġ o
a t
e n
e d
Ġ s
o r
i s
a l
e s
Ġ w
i t
a r
Ġo f
n d
Ġ c
Ġ in
Ġ f
Ġ b
i c
Ġ p
a s
in g
Ġa nd
i on
r o
l e
Ġt o
Ġ m
Ġ S
Ġ d
o u
Ġ A
Ġ C
en t
i l
Ġ h
Ġ T
Ġ 1
s t
o m
e l
Ġ (
a m
o l
Ġ re
Ġ M
c t
Ġ B
Ġ l
a d
u r
e t
Ġ n
c h
at ion
Ġ P
i v
Ġt h
Ġ e
er s
Ġ 2
i g
u s
l y
i d
Ġ H
o t
Ġ I
i r
Ġw as
c e
i m
Ġf or
Ġ R
Ġ on
Ġ1 9
a y
t er
Ġ is
Ġ g
u t
Ġ D
Ġa s
ĠT he
o w
r a
Ġ L
is t
Ġ F
it h
Ġb e
u n
Ġ G
0 0
Ġ N
e m
Ġs t
u l
t h
Ġ W
he r
an d
Ġw ith
Ġb y
â Ģ
Ġa l
Ġ E
u m
o s
a g
v er
Ġ J
' s
ro m
a c
o p
Ġa n
Ġc on
es t
Ġw h
r i
Ġa t
âĢ ĵ
Ġ O
o d
Ġth at
Ġf rom
o c
Ġ v
Ġ "
i an
e c
a b
a v
a in
i es
Ġ he
it y
Ġp ro
al l
re s
i f
Ġc om
Ġ K
at e
Ġ it
u p
ar t
e w
or t
i a
Ġ U
il l
b er
u d
ar d
Ġd e
Ġo r
ig h
u b
ic h
Ġ2 00
a k
ĠS t
1 9
a p
m ent
o re
l d
Ġa re
i p
Ġp l
q u
e ar
an t
Ġh is
es s
at ed
is h
Ġ r
T he
ĠI n
o v
Ġe x
iv e
ar y
i al
g e
Ġ2 0
n t
en d
m er
Ġs e
o g
ĠC h
Ġc h
u g
ou r
as t
s e
on g
er e
in e
el l
u st
Ġ V
u nd
ct ion
am e
or d
k s
ic al
u c
s o
u re
o st
Ġ âĢĵ
f er
Ġw ere
r an
) ,
Ġwh ich
Ġ le
i re
e p
Ġs p
t her
e ct
igh t
u e
Ġal so
ter n
r it
Ġcom p
i e
Ġs h
p p
r y
c es
a re
f f
c l
Ġ y
Ġ k
ou s
ĠU n
ation s
as s
it ion
ig n
r ic
Ġ un
Ġ Ċ
Ġ20 1
Ġ us
ĠH e
Ġn ot
m an
av e
ir st
ag e
Ġa r
id e
Ġ19 9
l and
i z
t s
ac k
Ġc l
Ġh ad
or y
p er
om e
Ġh as
on d
Ġpl ay
ou nt
er v
Ġcon t
he d
Ġin t
or k
an g
n g
p ort
Ġt e
at er
Ġre s
ic an
Ġw he
ow n
Ġ 3
ation al
Ġf irst
o k
ic e
f ter
i b
en ce
Ġit s
ul t
ĠA l
Ġ Y
Ġ1 8
am p
a ch
e y
Ġa d
Ġ ro
ĠT h
t e
ion s
Ġthe ir
re e
w o
I n
Ġp art
p h
en s
im e
ĠI t
at es
or n
) .
Ġa b
p t
Ġa c
e g
p l
ou nd
r u
Ġb ut
o ol
al ly
it ed
ou t
cl ud
Ġh ave
Ġwh o
ĠA r
o ver
mer ican
ar k
Ġon e
l ow
Ġ j
i k
ou ld
Ġa pp
or s
a ct
a ce
a w
Ġm an
ug h
2 0
Ġp er
Ġy ear
at h
it e
ub l
i le
ent s
il d
Ġre c
l es
Ġth is
Ġbe c
f or
res s
Ġin clud
Ġd is
e e
ur ing
w n
iv ers
Ġo ther
Ġa g
u ch
ad e
il m
Ġ19 8
en ces
Ġ en
g h
Ġt wo
Ġs c
Ġbe en
v el
on s
ch ool
ĠN ew
ol d
ab le
e b
o b
el y
as ed
o y
Ġ her
Ġ im
e op
em ber
Ġ 4
o in
is s
in d
a il
Ġd es
s s
i ed
ing s
ĠM ar
al s
Ġcom m
w e
re d
w ard
i o
Ġ -
ic s
Ġa fter
ur n
Ġ Ġ
eop le
t ed
R e
ĠC om
p e
an ce
h ip
o ot
ur y
o od
or ld
Ġ19 7
w ay
Ġo ver
Ġc an
r on
ou gh
ĠA merican
Ġint o
Ġn ew
r al
Ġthe y
f t
Ġ up
fer ences
an s
Ġal l
as e
t on
Ġe v
Ġ 5
ou th
is hed
Ġof f
a h
Ġo ut
n e
re at
d u
Â ł
Ġ ra
Ġg ro
r am
le ct
is ion
ol og
o h
ran s
b all
g an
e x
Ġt ra
Ġa ct
2 00
re n
Ġp re
d er
Ġ und
ro ugh
Ġf ilm
oc k
Ġat t
d uc
Re ferences
on e
Ġc ol
ri b
os e
i ous
c ess
Ġcon s
Ġt ime
am es
Ġs erv
in al
ĠD e
or th
e ver
Ġc ent
Ġl in
1 8
ic t
ĠC ol
Ġk n
Ġb et
Ġre g
c he
ĠL e
en er
Ġfor m
Ġl oc
in s
Ġ19 6
ist s
ivers ity
Ġm ore
ic k
ĠS h
Ġp ol
ak e
it ies
Ġund er
Ġw ork
for m
Ġs ec
ul ar
Ġc o
i x
in ce
Ġm ost
Ġwhe n
ot h
ĠUn ited
at t
we en
Ġw ould
Ġp r
Ġs y
Ġb u
Ġh im
Ġin d
Ġus ed
r ad
a us
al e
a z
Ġre l
Ġon ly
as on
ĠP ro
i el
c ent
Ġm e
Ġ 6
l ish
l l
ĠS p
u al
ol low
Ġ est
Ġas s
Ġs ub
Ġp ubl
a j
E x
Ġs up
if e
Ġbet ween
an n
Ġp eople
ou n
Ġ Z
Ġyear s
ĠE ng
ĠA n
Ġd uring
ĠC on
Ġs he
id ent
ĠS c
e at
Ġs uch
over n
em b
tern al
i et
ĠI nd
il y
in n
Ġb o
c ed
Ġe ar
i er
Ġre t
c k
is m
Ġin ter
Ġwhe re
Ġst ud
at ive
if ic
Ġn um
us ic
Ġag ain
Ġ qu
t en
ĠC l
ĠO r
Ġd ec
Ġf ound
Ġth rough
Ġre m
er ies
ĠTh is
ĠUn iversity
b um
at ing
Ġs o
e v
Ġth an
er m
oot ball
er man
ar s
Ġte am
Ġab out
Ġthe re
res ent
an y
Ġa m
Ġthe m
" .
Ġt rans
f ore
Ġth ree
ro und
Ġ 7
er n
Ġlin ks
le y
Ġs ome
a ir
ar g
ist ory
ra ph
c c
Ġd ist
he n
Ġ19 4
oh n
" ,
Ã ©
Ġde f
Ġp op
Ġ19 5
Ġre le
Ex ternal
as h
Ġl ater
Ġf ollow
Ġ end
Ġkn own
ĠB rit
Ġsp ec
Ġpro v
Ġthe n
os s
p r
Ġs chool
Ġp h
ire ct
vel op
j ect
o ber
Ġm ov
ow er
Ġ ed
u res
Ġs et
ment s
ĠSt ates
ag ue
iv er
en n
19 9
Ġc all
st em
Ġw rit
| |
Ġs ing
iel d
er t
el s
ion al
Ġin v
Ġm ade
i am
Ġal bum
m p
u ro
ĠA s
an k
ers on
. "
it s
p en
ĠA ust
Ġ ent
ik e
ĠI s
em ent
Ġsec ond
Ġrec ord
ĠC an
Ġbec ame
Ġ 8
Ġar t
Ġbe ing
ĠB l
is e
Ġf l
Ġb l
ou se
Ġex p
Ġm od
et h
Ġm on
in a
Ġd o
ĠW orld
Ġ1 7
in es
us s
iv ed
Ġin c
Ġw ell
Ġac c
Ġman y
ĠW ar
v e
ay s
Ġest ab
le v
i ew
Ġm ay
ĠJ ohn
Ġc ount
ver y
st it
ow ever
c y
ur ch
ut ion
ĠA t
i um
00 0
Ġgro up
a x
Ġ1 0
Ġinclud ing
ĠF ran
ot her
ĠG erman
Ġ Q
og raph
ĠCom m
on t
ar l
y s
ction s
r ist
Ġor ig
Ġse ason
ĠF or
Ġle ad
Ġ 9
ĠN o
Ġf our
Ġad d
ian s
Ġ200 6
ur al
Ġch ar
r id
Ġf am
Ġwh ile
Ġn o
Ġh igh
ĠA d
u es
ut e
Ċ Ċ
t il
Ġm ed
Ġs ur
Ġde velop
Ġs eries
el f
Ġ1 5
ric t
le t
Ġs ign
ĠS chool
ra ct
Ġo per
Ġd if
Ġm ain
tern ational
ire d
ĠP h
ĠN ational
Ġ1 6
Ġb oth
Ġnum ber
l ed
Ġo wn
s on
un e
iv ing
ep t
ce pt
at her
Ġsy stem
ĠBrit ish
i ent
t y
Ġbe fore
ut h
Ġn ame
b y
ĠC ount
Ġg ener
Ġb ro
Ġg overn
iz ed
g ram
Ġre p
m y
Ġsh ow
Ġc ar
Ġ19 3
ir d
u ally
Ġagain st
s p
Ġd irect
Ġm in
am ed
Ġun til
Ġv ar
Ġe m
ot t
ĠS outh
Ġc ap
olog y
ĠR eg
ĠO n
im es
ant s
he s
Ġ .
Ġex t
ĠS he
Ġse ver
ul l
ĠJ an
a i
oc i
2 1
aj or
Ġplay ers
Ġs ong
aus e
a u
er ed
Ġg u
Ġb ack
ĠP l
Ġf ootball
ĠY ork
iv es
Ġs m
v ed
en g
Ġc re
Ġo b
Ġf in
Ġus e
ĠM ay
Ġcall ed
ĠAust ral
k e
duc ed
ain ed
Ġ ||
Ġare a
a id
ag es
Ġm usic
le ge
Ġoff ic
Ġn e
Ġpol it
Ġpro du
20 1
are d
Ġ &
ĠCan ad
ro ss
Ġb as
ib le
ar m
is ter
ĠE uro
ul ation
r and
th s
Ġdes ign
ru ct
ic a
Ġfor mer
Ġbu ild
om an
os ed
ic ip
19 8
i or
il ity
r is
Ġst ate
t he
Ġde ath
f l
u ary
emb ers
ĠC ent
ĠA m
amp ions
v ent
t ing
et s
Ġthe se
Ġf eat
f ul
ĠN orth
ial ly
Ġl ong
Ġde p
en e
ug ust
Ġg ame
y l
in c
Ġd r
Ġo pen
Ġcont in
ĠW h
Ġin st
an ge
om en
Ġim p
Ġg o
Ġear ly
ĠM an
c on
iss ion
Ġr un
Ġsever al
b orn
Ġs ame
ical ly
âĢ Ķ
r ing
it al
re t
os ition
ic es
Ġa ir
Ġ1 2
o ok
ĠI I
is c
ang u
Ġan y
et er
ĠG e
Ġs uc
ist or
ĠJ u
Ġb el
ak ing
ĠT e
on y
ĠB ro
ov e
ĠK ing
Ġpro gram
Ġe ff
ĠEuro pe
Ġrele ased
a e
ĠA ss
Ġ '
ain s
Ġcent ury
Ġw ill
re nt
Ġc are
ro p
Ġdis c
v en
ĠN ov
lev ision
Ġst ation
Ġan n
Ġs im
ĠC ity
ĠC ar
ward s
Ġchar act
ĠEng lish
p or
ept ember
Ġplay ed
ĠMar ch
Ġl ife
ct ober
Ġpubl ic
Ġs ince
Ġc ur
n er
ĠP r
ĠB ar
oin t
1 7
Ġe lect
ĠR e
ĠC al
ĠLe ague
Ġc ity
Ġor gan
Ġst art
am b
il t
C h
ĠCh rist
id ed
ĠA ugust
a f
st er
ĠA f
Ġ200 5
o x
ch n
Ġn ear
ĠCount y
m ber
il it
Ġw on
l ished
u ed
S t
Ġm ar
Ġp res
Ġret urn
an c
Ġre ce
le x
Ġe le
ĠAl l
S ee
f ess
19 7
ĠG u
or m
Ġm at
Ġw e
Ġsup port
ĠE d
Ġres p
at or
1 0
s h
ure d
al es
pr il
ĠB e
c om
Ġo cc
Ġb ir
ĠThe y
l ing
Ġdes c
is ed
y n
ce mber
m in
h am
Ċ Ġ
Ġcomm un
A merican
Ġhe ad
Ġsm all
end ed
Ġfollow ing
ĠJan uary
ri ed
i ence
an e
od e
Ġ1 4
al ity
b le
Ġm ajor
Ġp ass
Ġw orld
ĠP ol
Ġl and
Ġe ach
Ġcl ass
y p
Ġb and
Ġdif fer
z e
Ġt erm
Ġm et
Ġ1 3
Ġto wn
ill ion
Ġgovern ment
al th
Ġb ased
ĠS eptember
Ġal ong
Ġt r
t le
ight s
ograph y
Ġbe gan
2 2
ĠO ctober
ĠU S
Ã ¡
Ġv ers
ren ch
re en
he m
in ed
O n
Ġg ames
ĠJ une
cent ury
ro w
ĠR ep
Ġfam ily
Ġ200 0
ar ge
ord s
Ġm embers
iv al
Ġl aw
Ġch ild
Ġd id
g y
av ing
Ġc ould
ĠJu ly
ap an
Ġpl ace
t o
ĠW ill
Ġre v
ampions hip
ĠW est
ĠE x
ĠSt ate
ĠS e
Ġ200 4
Ġcl ub
Ġ1 1
at ic
k et
Ġestab lished
un g
eb ru
ebru ary
Ġp rom
. .
ĠC o
Ġen g
ĠA pril
or ks
Ġapp ear
Ġst r
ac ed
at ure
ĠDe cember
iet y
Ġn amed
as ter
at s
es e
ĠA b
Ġsuc cess
ro l
il le
id es
ĠH owever
ard s
s ide
ĠNov ember
Ġplay er
Ġcon st
ĠOr der
ĠA fter
Ġt it
qu e
uc k
ĠA nd
Ġa round
Ġre f
ĠH igh
i od
Ġn ow
Ġp erson
ĠĠ ĠĠ
Ġp ar
re w
uth or
Ġy ou
th ough
re m
us e
p le
ĠM c
ĠF l
1 6
es tern
ĠCol lege
ĠH ar
if ied
Ġcons id
iv ision
1 5
Ġh ome
Ġsing le
Ġw ar
ĠM in
er y
Ġle g
r ation
m ed
in ess
ĠGe or
Ġ200 3
id d
Ġb us
ear ch
s c
ĠR ec
19 6
Ġloc al
Ġl ist
o ad
f ord
Ġe p
Ġbec ause
ly mp
ord ing
Ġ200 7
Ġman ag
Ġl arg
Ã ¼
ĠĊ ĠĊ
a ur
ur g
at ely
ri es
Ġre st
a ugh
Ġd ue
al d
our n
oun c
ent ly
om in
ĠF ebruary
Ġl ast
ad em
Ġp o
Ġn ational
Ġcare er
ĠH is
ĠF rench
ĠCom p
Ġhe ld
iv ely
at a
Ġl arge
Ġcomp et
Ġinclud e
our t
a im
Ġ200 1
Ġpop ulation
Ġte levision
Ġs k
Ġre qu
ĠP art
u k
Ġp ower
Ġl ine
y le
Ġo ld
um an
ubl ic
Ġloc ated
ĠP ar
ff ic
ĠJ apan
Ġre fer
iz ation
che s
Ġal low
ĠS y
g ed
rid ge
Ġs oc
Ġs l
Ġd et
ond on
ĠA ir
A l
Ġst and
ĠA ng
Ġm en
d ay
Ġres ult
ore d
um b
2 3
Ġv ill
1 3
ĠS w
Ġor der
Ġ ,
Ġdiffer ent
iv en
Ġbu ilt
att le
ilit ary
con om
Ġapp ro
Ġto ok
Ġ if
ĠP ark
ĠAf ric
Ġh istory
Ġof ten
Ġle ft
Ġcomp any
v ers
ĠD av
a ul
Ġp resent
od y
ex t
op h
ed er
is on
in k
her n
Ġre port
Ġm ark
Ġhe l
Ġpubl ished
ĠS ec
Ġwith in
angu age
d om
an a
ĠE l
Ġsh ort
Ġl it
1 2
o o
Ġ200 8
Ġfilm s
Ġm ember
Ġt rad
Ġev ent
Ġd own
l ine
ak es
ie f
ur ther
n ess
p ar
ra ft
Ġinc re
Ġper iod
Ġ201 0
Ġc amp
p ed
l er
T h
Ġn orth
ĠB r
ĠR uss
ĠA ct
ĠH er
u f
ĠC up
Ġre pl
ort hern
re et
ition al
ĠL ondon
Ġ X
um ent
ad io
Ġl ike
5 0
v es
Ġ199 9
ing ton
Ġinclud ed
Ġcount ry
Ġa v
al k
Ġe qu
Ġcharact er
Ġf inal
Ġf ive
Ġdesc rib
o on
Ġd em
Ġc or
un icip
Ġst ill
ĠM ed
Ġs ix
p s
ect ed
Ġ200 2
ĠS oc
Ġd ay
Ġed uc
l in
1 4
en cy
ide o
t t
Ġorig inal
ĠWill iam
Ġw ater
om b
Ġn on
m s
Ġcomm on
ĠThe re
ol l
Ġth ough
Ġ $
es p
Ġ200 9
ep end
oci ation
Ġs aid
Ġ very
land s
ĠM e
Ġc ult
Ġad v
in o
ĠS up
on es
Ġcomp le
Ġj ust
inn ing
Ġbir ths
ĠE n
n ing
ĠT r
ounc il
ar a
ac es
i us
in t
s k
H e
ĠIt al
il ar
Ġto p
ĠC or
Ġ201 1
Ġan other
ition s
Ġev en
v ious
Ġim port
Ġam ong
e al
Ġbo ok
et her
ĠA g
Ġj oin
Ġth ose
Ġ19 0
Ġth ird
Ġl ed
ĠPh il
Ġeff ect
Ġserv ed
Ġk ill
ĠO lymp
Ġcur rent
Ġo pp
ĠCanad a
ĠEng land
Ġa uthor
Ġp oss
if orn
t al
c ast
ur s
ru ction
Ġv al
Ġv is
Ġh and
Ġs outh
ul ations
re st
Ġw omen
Ġde b
ug g
Ġ3 0
Ġrep resent
Ġorig in
Ġrece ived
H istory
ĠG l
Ġbuild ing
as es
t ain
ĠCh urch
Ġar ch
ĠD ist
ol ution
Ġex amp
Ġpro fess
Ġ199 8
al t
ut ed
al f
Ġserv ice
Ġ19 2
Ġst at
iforn ia
ĠIn ternational
Ġa ff
Ġc r
Ġc rit
n a
er ing
iz e
. ,
op s
Ġex per
ĠE ast
ain t
Ġs old
Ġis s
Ġf ield
or ies
Ġl a
Ġp ort
om et
ener al
ĠA c
Ġre ad
Ġper form
ĠM ich
re ad
ĠM on
Ġle vel
ee k
e f
Ġl ate
ĠS ch
ĠR iver
Ġm uch
Ġpro cess
Ġex pl
ra in
o le
ĠAustral ia
ber t
w ork
Ġvers ion
Ġbe g
Ġp osition
it ar
ri pt
as tern
Ġb orn
Ġte chn
ri end
um n
19 4
Ġh istor
ĠCal ifornia
ĠInd ian
ol ic
Ġf ac
re g
Ġcon c
en se
Ġ201 2
y m
Ġf ore
Ġan t
our s
Ġf un
Ġf re
ĠS an
oy al
Ġd ied
os p
ĠB er
Ġch ang
Ġep is
um mer
Ġm ag
Ġp ost
Ġp at
Ġwh at
ĠCh ampionship
Ġs on
iv il
Ġ2 5
Ġchild ren
and er
âĢ Ļ
Ġm ake
g es
a el
Ġact iv
ĠAr t
Ġestab lish
Ġb est
ĠA mer
Ġus ing
pl oy
Ġs it
Ġpro duced
Ã Ń
ro up
Ġinv ol
le ction
ĠN or
ĠP res
o f
form ation
Ġpart ic
Ġ18 9
Ġt urn
Ġw in
ir c
Ġ 0
k a
Ġpro t
Ġpop ular
ĠH ouse
19 5
Ġc ame
Ġf act
fl u
b o
c o
Ġc over
Ġm illion
Ã ¶
Ġn ov
ĠY ou
B C
Ġvar ious
ree k
Ġbec ome
ĠR oman
Ġra il
a ff
e h
c hed
Ġ2 4
Ġpro p
ĠA nt
Ġs ide
ĠB y
le ar
am a
e ed
Ġmov ed
ther n
Ġro le
Ġt em
ra g
ot e
ot s
Ġbus iness
ĠO ne
Ġgener al
ĠT ur
Ġint ro
Ġ el
Ġg iven
r ay
ĠP ort
Ġst ruct
Ġs ite
Ġin ternational
Ġspec ies
he l
ir on
use um
Ġh ost
Ġpre vious
n ey
ĠH ol
ou thern
ac ks
av y
ap p
ĠP er
Ġeng ine
e ad
ĠEurope an
oun ced
Ã ³
Ġg reat
Ġsim ilar
Ġd el
A n
ĠB o
us h
ĠA ward
Ġs w
olog ical
am ent
for man
C om
ap e
m it
Ġf ew
ent ion
Ġ Ã
Ġdist rict
Ġm ale
ĠB el
Ġwrit ten
art ment
ĠCh ar
Ġ201 3
Ġh ouse
Ġpro ject
Ġw ay
ĠThe se
i ber
A r
o ff
Ġe very
ab or
Ġprodu ction
iv id
ĠR es
ĠAustral ian
Ġe conom
Ġ199 0
Ġin it
Ġvill age
ro te
ĠR ed
Ġcl aim
du ct
ron t
1 1
Ġ201 4
m ing
Ġpr im
ic o
Ġreg ion
Ġh aving
Ġcom b
Ġexamp le
u el
Ġw eb
ĠDav id
U n
19 3
Ġh ig
Ġtit le
ĠDist rict
Ġdevelop ment
Ġm unicip
Ġstud ents
Ġg l
se qu
her s
ĠPart y
Ġt er
ri an
l i
Ġoffic ial
Ġm ult
Ġconsid ered
Ġh owever
A m
ĠB ra
Ġare as
an ish
y d
ĠAr my
Ġb re
ĠAmer ica
Ġm ilitary
Ġsh ip
an ces
e an
s elf
min ist
Ġt imes
ort s
ot es
ĠB as
ĠS m
im ent
ĠGerman y
et t
Ġf ather
og n
ak en
Ġcre ated
Ġco ach
ur b
in ation
Ġtra in
ĠInd ia
ĠD ivision
Ġin f
Ġv ol
Ġpolit ical
Ġ18 8
Ġ198 0
Ġpro duc
ac hed
ĠSt reet
| -
Ġl im
ĠQ u
Ġbe h
op e
Ġs ol
Ġw orks
Ġcon f
u le
ĠE m
ĠUn ion
ar ch
at ors
Ġyou ng
Ġs ent
Ġn ext
m en
ĠL a
Ġbro ad
ĠR ober
g er
Ġt w
Ġspec ial
est s
ic ian
Ġne ed
Ġt ake
Ġw ent
Ġcont rol
Ġg en
ag o
Ġt yp
Ġwith out
f ield
Ġst yle
es c
ĠQ ue
l ess
ourn al
ra b
Ġt ri
re am
idd le
Ġ201 5
Ġopen ed
ict ion
ĠGeor ge
Ġto tal
ĠR oad
Ġ ident
Ġatt em
it or
ĠM or
r ated
ĠV al
ĠL ou
ĠKing dom
Ġind ust
Ġgroup s
ĠR ich
ĠFran ce
Ġp ri
v an
Ġp oint
ir l
s ite
Ġmod ern
er b
Ġ2 3
Ġin flu
it ect
Ġa ge
Ġ201 6
ĠD ep
Ġl anguage
our ces
ar n
ket ball
ra w
l ic
h a
' t
i ers
ain ing
Ġp ract
Ġ2 1
it her
ĠCl ub
Ġse e
Ġv ideo
ĠRec ords
i ol
ic le
ĠC ath
er a
ab ly
ĠCanad ian
ĠPro v
o e
ĠAss ociation
Ġh uman
Ġimport ant
o or
ĠG overn
Ġann ounced
u ter
Ġr ight
ra ck
ĠC ouncil
A s
ĠBl ack
Ġcommun ity
ĠH all
ĠR ev
Ġa ut
Ġp e
Ġg r
Ġc aus
ec ut
Ġpro per
ĠP al
ĠW hen
n ow
Ġw rote
v ille
x t
y pe
est ed
Ġl ess
Ä ±
Ġd est
Ġdescrib ed
ĠP aul
lect ed
Ġpartic ular
at ter
Ġper forman
Ġv oc
ĠJ ames
Ġro ad
Ġa ward
cc ording
Ġcon d
Ġdevelop ed
Ġre al
b or
ĠD r
e ared
ap t
c er
P eople
ric k
ell ow
ut es
Ġ2 2
ĠJ ew
Ġf ull
P ro
eb all
Ġst ory
is ing
id ence
Ġcontin ued
m ost
od es
Ġh alf
Ġg rad
Ġatt ack
u ation
ac y
m a
Ġschool s
Ġr ul
w h
ert ain
ĠF ootball
Ġstart ed
ĠSc ott
Ġv iew
stit ute
Ġ2 7
it z
Ġre n
ĠD uring
st on
us ed
wo od
Ġreturn ed
ar i
Ġ [
ĠTh om
ĠChrist ian
3 0
Ġ18 6
id s
u it
Ġ2 6
ĠS erv
Ġind epend
Ġgu itar
et work
Ġp oin
Ġof fer
ĠG eneral
il i
ĠR oyal
Ġd iv
ĠReg ulations
Ġ201 7
Ġle ague
Ġ âĢ
Ġev ents
A fter
way s
d e
fer ence
ist an
Ġ199 7
Ġex ist
pl ay
he re
Ġb ody
ra p
Ġan im
u ff
Ġm ater
Ġst ations
v al
Ġdo es
ud d
eth od
ist ic
re land
ific ation
ĠM ag
ber g
ĠA lex
an ies
ens ive
at ural
Ġrel ations
end ing
Ġgro w
Ġform ed
y ing
ill s
Ġind ivid
ap er
Ġh old
Ġ201 8
Ġro und
Ġ18 7
Ġ199 6
il es
ul ts
Ġc ase
ĠM al
Ġf ind
it ive
Ġl ow
c raft
are nt
Ġse par
r as
ĠSt ud
Ġapp eared
Ġd ays
r ight
Ġ2 8
Ġ z
Ġalbum s
Ġadd ition
Ġb i
ĠG reat
Ġ1 00
ĠM art
Ġm y
y ear
Ġserv ices
Ġf urther
Ġrel ig
port s
Ġph ys
ĠP ress
) :
ar ly
h ib
ib r
Ġal though
Ġro ck
Ġf riend
ĠPres ident
= "
ash ington
ct or
Ġdeath s
w are
Ġm er
Ġsh ould
ip p
g round
ish ing
ĠAr ch
ell s
Ġother s
le g
ĠW estern
ro ll
Ġav ail
arl iam
ĠP at
ent ial
Ġtra ck
C A
Ġc ross
Ġl ost
Ġ197 0
ĠI reland
Ġsur v
em ents
Ġfound ed
v iew
ĠM y
Ġeduc ation
v iron
2 5
ĠT rans
Ġbel ie
a ut
Ġl ive
m e
Ġg ood
ock ey
Ġch urch
Ġe ast
arliam ent
ĠW ith
ĠR ail
ĠM usic
at ch
Ġbro ther
ĠC ro
Ġgro und
Ġpr iv
ĠJ os
Ġf e
ĠS k
Ġ âĢĶ
ad es
Ġl ight
n el
c ks
ĠB ay
o ks
Ġ ide
ĠTur k
Ġn ever
Ġh on
ĠS l
im ately
Ġrecord ed
Ġstr ong
Ġjoin ed
ĠM ex
adem y
Ġf em
ate g
Ġhim self
i j
Ġpres ident
Ġd er
ĠL aw
Ġsoc ial
ĠT V
ĠU K
ar ies
ĠC ourt
y a
ĠF irst
Ġ et
ac hes
Ġs qu
i en
Ġwork ed
Ġteam s
ab ility
Ġt en
Ġm aking
ĠK h
Ġ20 19
Ġ199 5
ĠAng el
ific ant
m on
Ġsong s
Ġlarg est
Ġf ail
E ng
Ġan al
ĠP ri
Ġnov el
at in
Ġmater ial
ep h
b urg
Ġin s
Ġm id
ĠV ir
ĠComm un
Ġ199 4
ĠZ eal
Ġde v
ĠIs land
Ġv ict
Ġr adio
du ction
g in
ĠH en
ov iet
ĠCent ral
Ġdirect or
Ġmar ried
om s
Ġbec om
it ing
il ities
id a
in ter
ers hip
Ġm ust
Ġele ction
ĠZeal and
s erv
2 4
ĠCath olic
I t
ĠCh ina
Ġrele ase
el t
ĠComp any
Ġw est
ĠS al
Ġweb site
Ġm ot
w rit
oin ted
ul a
Ġavail able
ĠW ashington
is l
Ġ20 20
us ical
ud e
Ġepis ode
e le
p ro
Ġt ro
Ġ( )
e in
Ġres earch
end ment
Ġrec ogn
ĠM ary
ant ed
Ġac ross
Ġre d
ĠB est
o res
um p
Ġpro ble
l im
ign ed
it te
ĠC he
at re
Ġsign ificant
Ġd oc
mp ire
ĠD em
ĠT ra
ĠCon t
Ġprodu ct
ĠMich ael
Ġfollow ed
Ġhel p
s y
ce ed
Ġass oci
Ġb ar
ĠD on
ĠSoc iety
Ġpoin ts
ol it
all s
and ing
Ġ199 2
ĠOlymp ics
g en
Ġst ar
Ġem ploy
Ġpart icip
Ġpart y
o ice
Ġinv est
Ġc irc
ĠS en
ĠLou is
as ons
viron ment
augh ter
i que
Ġto g
ĠJapan ese
r d
ĠRober t
ic les
ĠL ist
Ġw eek
Ġf ree
b our
Ġcol l
ĠAfric an
L iving
Ġh ow
ri a
ĠG roup
Ġse en
c ient
Ġcomple ted
Ġf ire
ĠT ex
Ġtog ether
it ch
Ġde g
m ar
Ġd i
Ġus ually
Ġc ast
Ġs ugg
ĠG r
ĠRep ublic
Ġm iss
Ġst ates
Ġ2 9
ĠD ay
Ġt aken
ĠG od
um e
Ġmod el
P l
umn i
ĠA pp
Ġla un
Ġass ist
un k
ot ed
t ime
ol f
Ġbl ack
Ġlit er
ĠC ap
Ġprofess ional
Ġ /
Ġf und
at ory
ou l
ran ch
ak er
Ġmark et
Ġar r
4 0
ĠChar les
ĠS am
Ġac cess
f ic
ĠR h
Ġ196 0
ro y
ĠM ark
Ġsuccess ful
e ep
ĠY ear
Ġme an
u ild
ĠM ount
ĠI r
Ġad minist
Ġs ound
a ign
ut ions
I I
ĠS im
Ġattem pt
c le
ĠM ac
c ial
ĠCent er
Ġon ce
Ġl ab
Ġk ing
Ġe ither
Ġph ot
i qu
inc ip
Ġk ey
Ġfor ces
Ġin formation
Ġpl an
eder al
Ġsp ace
th let
est ival
nd er
Ġcont rib
i ation
Ġc ost
Ġpolit ician
Ġac qu
ann el
Ġrev iew
ec k
Ġme et
ĠSc ot
ĠFran c
az ine
Ġinclud es
Ġthrough out
ĠB en
ough t
Ġ199 3
Ġtrans l
av es
Ġ #
Ġcount ries
Ġconst ruction
Ġoff ice
Ġ199 1
ĠV ict
Ġplay ing
Ġw ife
un t
Ġreport ed
he st
ar ian
Ġorigin ally
r or
F or
o ch
Ġcomp anies
Ġto ur
Ġcont ract
Ġt reat
ver t
Ġag re
ell ing
ĠAc ademy
r ig
Ġfeat ures
ĠFran k
b e
Ġen c
Ġmat ch
Ġ( "
er ous
ish op
Ġw id
ĠW il
ĠG ames
ĠAfric a
ines e
l or
ĠM er
Ġent ire
Ġcons ist
w est
Ġ5 0
ĠG old
ĠN e
ĠT er
g ress
Ġt re
oc r
ar th
ecut ive
Ġkill ed
ĠP eter
cept ion
ul ated
ĠS ome
Ġstud y
Ġp ress
duc ation
Ġa way
F L
Ġab ove
ch ie
Ġwork ing
Ġintro duced
Ġar g
ĠB ill
Ġm other
ĠW e
Ġ20 21
F ilm
Ġp ark
ĠIn ter
ĠA p
Ġmon ths
T V
N ew
Ġimp ro
Ġdeb ut
on st
Ġg et
f ace
ow s
ĠM et
Ġapp ointed
he ad
Ġreg ular
Ġp ut
ol k
en c
Ġa ver
our ce
Ġra ce
Ġm ix
ot a
ĠS ing
ĠThom as
T reat
S h
ĠCol umb
omet imes
ĠTex as
al ign
D e
Ġestablish ments
ord er
al a
ap s
Ġrem ained
âĢ Ŀ
Ġh ous
Ġarch itect
ĠC ong
and ed
ĠItal ian
A t
re l
oy s
im ate
Ġmed al
ĠG reen
em or
Ġpart s
Ġe ight
em s
r up
Ġr ange
id ing
Ġsign ed
re y
Ġf ight
ĠS oviet
g o
Ġt est
ed y
ist ry
ĠF rom
it er
r im
Ċ ĠĊ
ĠG rand
as ing
Ġbo oks
Ġg old
ĠIn stitute
Ġd ou
c her
ĠT own
ĠRuss ian
Ġperforman ce
Ġc ivil
, "
Ġcap t
ĠMin ister
Ġm ount
Ġperform ed
ĠG reek
m b
air s
ĠM useum
ur ity
ĠT or
Ġle ast
Ġbroad cast
Ġv iol
ĠG o
C l
ĠB ut
ĠT om
Ġbas ketball
as k
" )
Ġrepl aced
Ġfun ction
Ġch ange
Ġm ethod
Ġ =
Ġelect ed
Ġf oc
stit ution
Ġc our
itte e
ic ago
u x
Ġsystem s
on a
Ġdesign ed
Ġf ig
ar ily
le ment
if f
ant a
Ġm ass
ĠRich ard
os ing
u z
ec ially
i os
it es
ect s
Ġs er
ĠV ol
ĠSp anish
Ġcon duct
Ġevent ually
ĠM iss
ach ing
Ġdisc over
ĠF in
Ġcon n
Ġshow s
N A
Ġst ri
Ġre b
ĠM ad
ĠH am
Ġob ject
. )
Ġ ill
ĠA rab
Ġr ights
ĠSec ond
ro ad
ĠB C
Ġc op
Ġfeat ured
l am
Ġp ast
Ġup on
ĠP et
Ġsub ject
Treat ies
id ents
ĠF ore
ad ium
Ġcharact ers
ĠF ilm
en a
Ġocc ur
Ġfootball er
ĠL eg
med i
Ġs il
e es
Ġlead ing
ĠD an
ĠE mpire
v ing
ĠO ther
esp ecially
ĠM el
ĠM us
Ġexp ress
Ġf ront
Ġdec l
Ġa ud
at ives
Ġc y
Ġfre qu
Ġd am
Ġse ven
Ġg ave
2 8
ĠDep artment
un s
ri al
h ood
ĠB ur
S p
Ġab le
Ġ4 0
rough t
ĠL os
Ġh it
Ġsub sequ
Ġp red
ut ch
p ly
Ġ20 22
Ġ198 9
ic ated
W h
and s
Ġs ch
Ġp ur
Ġr ather
Ġ198 8
Ġsing er
Ġt rib
Ġp ot
ra el
Ġresp ons
ic y
2 7
Ġ198 6
et ic
ug by
S c
at al
ĠR ock
s el
The re
ĠI m
ĠH istory
Ġp ain
an ks
Ġin j
Ġl ower
ag ed
ĠK n
or al
ĠT o
Ġcom mer
Ġj ud
2 6
er gy
Ġd ata
k m
ent al
Ġr ank
ĠM ont
p ts
um ents
Ġc ourt
Ġcent ral
uf act
ĠR ob
Ġme as
ĠVict or
ĠFl or
ic ro
ĠP enn
it t
Ġdirect ed
Ġposs ible
Ġt ype
ĠB ow
Ġcl ose
Ġter rit
ĠPl ay
ĠVir gin
Ġbuild ings
ch an
ĠWh ite
S A
ĠL ake
Th is
h i
emb ly
as c
ens ion
Ġmult ip
Ġhe alth
ĠM ur
ers ey
Ġair craft
Ġcap ital
Ġs em
Ġacc ount
ibr ary
Ġcult ure
Ġh ard
Ġinvol ved
ĠSm ith
u ated
Ġst age
Ġh om
.. .
i res
augh t
Ġcamp aign
l ike
ĠK ore
ut ure
ĠCar ol
Ġ3 1
ĠBro wn
ĠCh inese
2 9
Ġprov ided
he t
ĠH ill
Ġinst ead
om m
Ġpriv ate
b on
Ġvoc als
b l
ĠAt l
Ġocc up
Ġal umni
o id
Ġc he
Ġph il
ĠHen ry
Ġadd ed
ad a
e ated
Ġob serv
ĠWh ile
Ġal most
6 0
Ä ģ
ĠD es
end s
s hip
Ġrail way
ĠCh icago
Ġw inn
k n
z il
Ġc al
Ġf av
ĠI ts
19 0
ĠA ccording
200 0
Ġb attle
Ġfor ce
ĠâĢ ľ
a ction
ĠS qu
Ġd aughter
Ġcon v
Ġresp ect
op er
Ġits elf
is es
Ġcrit ic
Ġpro te
Ġn atural
Ġv ia
ĠSup er
Ġ198 5
Ġappro x
an i
Ġf ar
Ġ especially
Ġwh ite
Ġact ress
Ġmunicip ality
Ġ Â
o z
Ġs aw
) ;
ĠAngel es
Ġa chie
Ġne igh
Ġl ik
ar ter
ĠH istor
Ġj ournal
A d
Ġwh ose
Ġco ast
b ack
Ġbo ard
Ġ198 4
Ġa p
Ġto urn
Ġkn ow
Ġcent er
por ary
os aur
Ġtrain ing
ĠN orthern
ĠP e
200 6
ĠJ ust
Ġ18 5
Ġtrans fer
Ġfin ished
ĠFor ce
ĠCl ass
Ġact or
ab it
Ġcol lege
Ġprov ide
ec ess
Ġ198 7
Ġf low
ffic ial
Ġres ults
k ed
E arly
Ġr iver
Ġreg ard
Ġv ir
ĠGeor g
Ġart ists
Ġcomp lex
in ary
os es
ol a
Ġac cept
Ġwrit er
Ġ197 9
Ġis land
ĠServ ice
osp ital
Ġmanag er
cl us
ĠĠĠĠ ĠĠĠĠ
eng th
b ased
Ġre ached
ĠM ass
Ġs ometimes
Ġinter est
C on
Ġgener ally
Ġstand ard
Ġaver age
Ġb rought
Ġpl aces
av al
ing u
in i
ad o
Ġme ans
Ġdist rib
oo ks
Ġc ertain
ĠJ un
Ġpl aced
Ġse ction
is ions
n y
at ers
Ġs outhern
ele b
ĠC ons
Ġo pt
Ġmov ement
ĠO ld
Ġst re
i ences
ult ure
Ġpr incip
Ġf all
y r
Ġp ers
Ġl oss
ĠItal y
Ġsc ient
art s
Ġv eh
Ġout side
ĠC amp
Ġa ction
vent ion
Ġn etwork
er o
Ġim m
ĠS ir
Ġbir th
Ġchang ed
8 0
Ġn eg
e ction
Ġn orthern
Ġwrit ers
Ã §
sy ch
Ġdis p
Ġstruct ure
ist ics
Ġth us
angu ages
ĠG ra
ĠC ast
oun ter
Ġun its
Ġ198 2
Ġ195 0
ay ing
Ġtra vel
ant ic
bo ard
n ed
Ġd ram
Ġn ight
rem e
b ers
Ġ198 3
Ġmed ia
l ier
Ġw ord
B A
S I
end er
Ġallow ed
Ġpr ison
ĠPar is
Ġch ampionship
Ġw ind
Ġsp e
Ġsup er
Ġc ut
il s
Ġhig her
Ġg e
ĠAn n
Ġdoc ument
en ced
Ġsch ol
Ġd en
L ist
Ġf ood
Ġacc ording
Am endment
st ra
ĠComm ission
I nd
all ed
Ġc reat
Ġcl osed
ĠD el
ran g
Ġt ax
Ġtrad itional
D uring
Ġab s
ĠS aint
ript ion
Ġdet erm
b it
Ġcurrent ly
as ion
ĠBrit ain
en ed
Ġsp orts
Ġman ufact
Ġproduc er
ĠD en
Ġaward ed
Ġindust ry
Ġb ank
Ã ¤
ĠM od
Ġthe ory
ĠMex ico
Ġb ase
Ġm usical
Ġus es
ult ural
ĠFlor ida
ĠHe alth
ĠSt ar
ĠM il
Ġse x
yl van
Ġst ated
Ġsc ience
Ġ :
ro s
et te
ĠP arliament
b ur
Ġ esc
Eng lish
Ġpl ann
Ġso ft
Ġindepend ent
P h
Ġp urch
Ġf arm
ib ility
w ell
Ġdec ided
kn own
Ġ197 6
G e
ch ange
y e
ĠW ales
ur a
Ġcl os
Ġdef eated
w er
n es
T e
Ġrelations hip
ell ed
18 9
ĠSt ev
us p
ent h
Ġ18 4
Ġtrans port
Ġprim ary
ig an
Ġde al
Ġr ad
ĠJ ersey
Ġread ing
ĠD is
Ġpol ice
i ents
Ġlead er
Ġ er
Ġset tle
Ġgo al
it a
Ġpl ant
200 5
N otes
ĠE ducation
ĠO l
Ġoper ations
ic ation
ĠC arl
Ġ198 1
Ġrel ated
Ġar my
ĠD irect
ĠAl though
ĠColumb ia
Ġc red
Ġrequ ired
t a
ĠGovern ment
Ġrem ov
adem ic
ollow ing
he ast
Ġs elf
Ġm ur
Ġst aff
Ġfour th
Ġqu est
Ġnew sp
Ġfem ale
Ġh or
ĠF re
ĠT wo
Ġb all
Ġe ver
Ġbeg inning
erv e
ĠS eries
k y
Ġar m
Ġto wards
Ġconc ern
Ġw inning
Ġs en
Ġmin or
Ġbeh ind
ĠE v
Ġassoci ated
ĠM a
Ġprevious ly
h old
ak istan
Ġto o
ĠM ill
ĠB attle
fic ult
Ġrun s
os oph
ĠScot land
ly ing
n ot
Ġcol on
Ġdef eat
ĠIs rael
Ġrelig ious
ĠO per
Ġb ur
it iz
Ġen ergy
Ġad op
ĠB ook
ĠO ff
ĠJ im
Ġtr ade
anc ial
ĠL ove
Ġcommer cial
Ġcompet ition
Ġro ute
Ġen vironment
ĠD o
ĠM ost
ĠSw ed
am s
Ġst op
Ġdest roy
Ġhig hest
Ġindivid ual
Ġte xt
ĠL and
m ark
an o
Ġinst r
R A
Ġ eth
at o
g l
ĠE r
Ġlit tle
Ġcomple te
Ġw ood
ĠI ll
ĠAl b
ĠĊ Ċ
a res
Ġl o
ĠIr ish
m ond
ul f
ĠCong ress
Ġ197 2
Ġeconom ic
Ġterm s
Ġdif ficult
ĠA v
Ġrem ains
ĠP an
Ġg ra
ylvan ia
Ġn uc
Ġear lier
Ġf if
ĠS un
d en
ĠW inter
ĠE arth
Ġqu al
Ġc ou
Å į
ĠBra zil
om p
Ġb ass
in ct
Ġc hem
Ġwrit ing
ĠP ublic
ok e
ĠII I
7 0
Ġloc ation
Ġadd itional
om a
Ġle t
Ġl iving
Ġ197 8
r ate
Ġed ition
Ġal tern
Ġd ivision
Ġor d
Ġh um
ĠJew ish
F A
Ġapp lic
ĠB ig
er ry
ĠMart in
am ily
Ġend ed
read y
u als
Ġthough t
Ġlim ited
Ġperson al
pp ed
O ther
ar io
Ġre ve
h ire
Ġs af
ĠB ul
Ġact ive
Ġn ames
Ġcom e
3 5
ian t
ol s
if y
ĠProv ince
Ġsur round
ĠB ob
Ġpre m
Ġsc reen
Ġform s
Ġsp eed
Ġn ar
Ġbo x
w ith
b and
Ġ ver
ĠA wards
ĠS ummer
Ġso on
Ġan cient
ĠD u
Ġr ate
ĠC amb
Ġcol lection
e ff
Ġrefer red
Ġcent re
Ġincre ased
Ġmag azine
Ġst e
Ġapprox imately
Ġtourn ament
Ġpro b
ac ing
Ġpo et
ĠTe chn
ĠH ow
f it
ĠRuss ia
Ġwh om
Ġcomp let
Ġp arent
it ors
Ġl anguages
Ġ197 4
Ġc eleb
ĠJ ack
or por
ĠD ou
Ġs at
Ġd ig
ĠC D
Ġart ist
az z
ĠSp ec
r ast
Ġ197 5
ĠT ro
ĠIn c
Ġmov e
Ġcomp os
Ġk eep
ys is
Ġcaus ed
Ġun it
Ġf uture
Ġl ook
Ġc lear
ĠT imes
Ġown ed
Ġdeg ree
Ġconst ruct
if t
Ġmost ly
r ative
Ġm ention
Ġc ell
ĠAl bert
l o
at form
Ġbre ak
ĠR ou
uf fer
Ġs ize
ĠJos eph
Ġc and
ĠC ur
ĠR adio
ĠSc ience
Ġe mer
Ġse asons
ĠAr ts
Ġg rand
ĠL atin
ir it
ill a
Ġfore st
ĠPort ug
Ġse qu
ar ing
Ġchang es
Ġper cent
k ins
Ġmean ing
Ġcont ains
ĠF ort
ad el
ĠP re
Ġsh ot
Ġs ummer
Ġn omin
ĠBro ad
i Ä
it tle
ĠF red
i h
ĠAs ia
Ġint eg
Ġm ission
Ġnum erous
Ġ197 7
ĠVal ley
ven ue
ĠO ut
Ġset t
om er
ĠP ac
isc o
z a
c ing
Ġbas eball
Ġmajor ity
ĠVirgin ia
Ġs um
ĠM r
Ġpri or
ĠThe atre
Ġt aking
is ation
Ġev idence
ĠS outhern
Ġlong er
at ively
ĠU p
ĠScott ish
Ġcon stit
ĠS er
ĠE astern
ĠF estival
k ing
ĠL ife
u an
Ġstud io
ĠDem ocr
) )
ur ies
u a
st anding
or ing
Ġc ases
Ġp ay
ir m
ro wn
Ġl ack
ar ia
s ylvania
Ġsp ort
ad y
Ġparticular ly
Ġpur p
al ed
Ġh ockey
Ġtem per
Ġal ready
Ġbel ow
ĠS il
c a
ĠSp ain
ĠSe a
Ġmunicip al
Ġp en
ĠYou ng
ret ary
Ġsc ored
Ġnum bers
Ġ196 8
Ġam ount
Ã³ n
ov ers
Ġequ ip
Ġd om
ob al
ĠD utch
Ġb att
b ury
t ies
Ġant i
ĠT im
ri ef
Ġlarg er
Ġele ments
Ġw estern
ian a
ĠW ood
Ġmon ey
re ater
Ġmultip le
ĠM iddle
ans as
ĠIs lam
Ġinvest ig
Ġd raw
ĠF ound
Ġto day
ul es
ric ket
ĠC am
k i
Ġnot ed
Ġ197 1
B l
ĠChampionship s
ĠM o
ĠP akistan
Ġconsid er
cent er
Ġb ridge
Ġspec ific
Ġcomp uter
ĠDe f
ip l
a ud
ong s
Ġb ig
Ġopen ing
il ed
Ġpract ice
ĠS ur
Ġn orm
as y
ĠN avy
C an
C ol
iz ing
Ġl og
inc ial
200 4
Ġ196 9
w in
k en
Ġstud ies
ĠH aw
ĠComm ittee
Ġs u
ĠL ab
ry ing
Ġest im
ĠSy stem
al i
Ġm ach
Ġfam ous
Ġiss ues
um s
ĠO h
Ġc ities
Ġsepar ate
Ġs om
Ġind ic
Ġprogram s
Ġr an
ĠB re
ut y
er em
ig r
Ġun ivers
urb an
Ġ ens
Ġappear ance
Ġm em
oc al
ost on
Ġ197 3
Ġl ength
em porary
ĠRail way
ian ce
Ġv en
Ġleg al
Ġrun ning
i ro
P erson
ic ians
Ġl ived
u ge
id er
Ã ¨
Ġorgan ization
Ġs uffer
Ġs usp
Ġs ource
Ġlist ed
ĠT our
p ut
Ġc ust
Ġlin es
Ġappear s
3 3
Ġ ice
ĠPenn sylvania
ĠS ince
ĠSoc ial
Ġbet ter
ĠA re
Ġstat us
Ġb ound
Ġd ed
Ġim medi
Ġsp ent
Ġd ate
Ġprom ot
ĠS at
iz ations
Ġe lev
Ġ194 5
b ra
on se
m ission
Ġ20 23
Ġthem sel
Ġthemsel ves
Ġd u
ĠNew s
Ġoper ated
Ġfeat ure
gy pt
Ġbecom ing
Ġdis e
ĠK ent
and a
d is
et y
ĠAlex ander
Ġbelie ved
c el
l a
ĠOlymp ic
J ohn
Ġin sp
Ġstud ent
Ġfore ign
ĠR os
bur gh
res p
ĠD i
Ġact ors
Ġrem ain
us es
200 7
he im
Ġsur face
ĠC ivil
ĠU nder
ĠB ank
ĠM ah
Ġ6 0
s en
ĠS ub
ak ers
Ġg irl
ĠTh at
Ġth reat
h ouse
Ġun ion
ĠL iber
ĠMus lim
ĠQue en
Ġactiv ities
st ein
ĠL ord
w an
is k
ear s
it ation
ip s
Ġatt ended
in als
ri f
Ġiss ue
om y
ĠH ot
ĠAss embly
Ġex hib
o ir
p ing
Ġin stit
Ġg ive
Ġvict ory
at i
Ġd on
Ġ ess
ĠS ar
Ġfor ced
ĠJ ud
ed s
t ained
mit ted
ĠO x
ard en
m m
ĠH el
amp ion
ri age
Ġf a
Ġdisc uss
Ġ196 7
e en
ird s
C C
ĠCarol ina
ĠL ong
Ġ196 4
ĠP rem
ĠL ee
Ġext ended
ĠG al
r ich
Ġinflu ence
ĠI f
T A
Ġrequ ire
i ography
Ġm ight
200 3
Ġpass ed
ay er
um ber
Ġcol le
3 9
Ġnew s
Ġme chan
Ġmon th
ĠS und
ian o
le vel
Ġw ide
velop ment
7 5
A ll
Ġb ene
Ġproper ty
B S
Ġvar iety
ic ations
Ġal ways
che ster
ĠC ub
Ġincre ase
an ced
ens us
ĠM id
m un
Ġmur der
ĠS ol
led ge
ĠTe am
Ġa st
Ġann ual
w a
ĠM any
ĠC r
all ery
ad ron
3 4
Ġclub s
ĠH on
ĠB udd
Ġcomm and
b ed
Ġ196 6
ĠT ri
Ġdes p
ell a
Ġrepresent ed
Com p
Ġcour se
Ġo il
Ġch ief
ĠK ar
g ent
Ġ194 0
Ġin h
esp ite
ay a
Ġse a
ect ive
Ġd omin
18 8
ĠPri ze
at ri
Ġe astern
Ġse at
Ġf le
Ġval ue
Ġpl atform
Ġinit ially
Ġw ords
i as
ĠC ross
Ġex c
l it
Ġw oman
3 8
Ġrec ent
ubl ican
Ġlaun ched
ax im
Ġsh own
Ġ193 0
aw a
Ġinter view
Ġcand id
Ġd ire
ac her
ee ks
Ġbl ock
ad d
ĠBl ue
w ar
Ġh ot
le ft
Ġsing les
Ġprop osed
Ġcre ate
Ġtrad ition
ric ts
ĠG en
ĠJ o
Ġmet al
A ust
p ress
Ġsupport ed
9 0
Ġtra cks
writ er
ĠM en
ĠM ot
Ġdou ble
in em
ĠEd ward
Ġent ered
Ġl atter
Ã ¸
Ġqu ick
Ġdec ision
ĠA z
ĠB or
200 2
Ġhistor ical
m ore
adel ph
3 6
in ent
am m
un c
Ġst ep
ig a
st ate
Ġr ule
in et
ĠB us
Å Ł
Ġoffer ed
w ide
ĠR o
ound s
d own
Ġstruct ures
4 5
Ġ |
ĠTurk ey
ĠE gypt
ĠT ime
ab les
Ġt akes
Ġtro ops
ĠM u
Ġproble ms
ĠB ab
ult y
ĠG ood
3 7
c ol
ĠM os
Ġepis odes
Ġ196 5
Ġcond itions
adelph ia
Ġm akes
rup t
Film s
un n
or a
on ic
Ġcontin u
Ġb rand
ze ch
Å ¡
ect or
ĠBel g
am in
ĠB oston
ak a
Ġpre vent
sh ire
p re
ris on
ir a
Ġdet ail
ron ic
Ġan g
R ec
ir ing
ri z
M ed
Ġclaim ed
200 1
st ant
Ġn ecess
Ġmain ly
ĠF our
v a
Ġl ic
Ġc itiz
ĠG ar
ĠN ot
ĠL u
Ġcar ried
Ġl ove
y an
ist ers
Ġlik ely
n am
ĠL ine
Ġrem aining
Ġ i
ro vers
ail y
Ġgrow th
Ġle aving
ĠBo ard
t ra
Ġh ours
ĠW ind
ig er
Ġn ine
ph y
ĠC ard
ĠB BC
B rit
ag n
Ġm iddle
S P
Ġn ature
Ġmanag ement
ĠFranc isco
Ġun iversity
Ġtechn ology
ĠO tt
el a
Ġar rest
ĠM ore
ĠRes earch
Ġc ause
Ġincre asing
emor ial
Ġo p
are er
ĠC a
Ġ19 20
Ġpol icy
Ġdirect ly
Ġresp onse
ow ers
it ude
Ġb rief
Ġcomm ission
ous ly
Ġproduct s
ap ers
Ġeffect s
Ġoffic er
k o
Ġd yn
Ġhe avy
Ġf ederal
Ġp it
199 0
Ġbl ood
Ġleg isl
Ġs ources
Ġnear ly
ĠT re
Ġcom ment
is her
Ġhe re
Ġal ign
ĠEng ine
Ġse lected
A R
Ġrecord s
Ġf oot
Ġd one
ĠE lect
b re
ĠW omen
ĠRou te
et ts
iÄ ĩ
ĠJ ones
Ġwhe ther
Ġex cept
Ġsubsequ ently
olog ist
Ġcol lect
ist ance
Ġdis s
Ġover all
ĠL im
4 7
Ġs ister
per or
ain e
Ġco aches
Ġre ason
Ġj ob
ino is
Ġb omb
Ġt arg
ĠCo ast
ĠJ r
Ġcon fl
ort un
E R
ĠJ ul
ron ze
ĠPr ince
ĠBer lin
ic ted
ĠW all
is hes
ĠPac ific
Ġp il
og rap
Ġad j
yd ro
ĠF er
Ġlab el
ĠH a
Ġdiscover ed
ĠM at
Ġsy mb
ĠCon ference
ĠW al
ĠS I
Ġw eeks
Ġc ateg
te xt
hen s
Ġacqu ired
Ġrul es
Ġlevel s
ĠGeorg ia
ĠCh arl
ĠPro fess
Ġsc ore
Ġprov ides
F urther
ĠThe ir
ĠCh ief
Ġfail ed
ors hip
Ġfor t
ĠIs lands
ĠMc C
ĠMich igan
Ġ3 5
Ġfin ancial
ob ile
M ar
n ic
u ate
ast ic
ĠN ight
Ġcons ists
ĠS o
201 0
Ġaut om
ĠDe v
v ement
on ia
199 9
W ith
g ing
200 8
ĠW ay
ĠAr m
Ġed itor
ĠĊĠĊ ĠĊĠĊ
ĠT w
che n
b s
ĠU r
ĠOh io
ur t
Ġag ric
Ġcre w
Ġde ep
ĠComm on
Ġcommon ly
ĠM ajor
Ġprodu ce
ĠV er
N o
ĠM att
" |
Ġret ired
ach us
eng er
Ġdiv ided
Ġserv ing
Ġgo als
ou d
ĠO f
et ro
N ot
Ġprim arily
il ly
ran ge
Ġform at
Ġtyp es
Ġp sych
Ġpo or
y er
erv ation
Ġ196 3
3 1
art ers
ĠN A
Ġcon cept
ĠI ran
Ġp os
Ġturn ed
I A
Ġmov ie
Ġdesp ite
ĠU l
ĠSt ep
Ġs al
Ġcult ural
Ġwho le
Ġaff ili
il ies
Ġfin ally
F rom
j a
ad ian
ĠAr men
Ġsoft ware
ĠUn ivers
ĠA k
ĠC orn
Ġprogram ming
te en
Ġpresent ed
ĠB ridge
Ġrecord ing
T rans
Ġgo ing
acks on
t rack
Ġ era
ell ig
resp ond
ĠB ern
ess ion
ĠCon f
Ġtyp ically
ĠW eb
Ġm useum
Ġun c
Ġr ugby
ĠSh ow
ĠK e
Ġd ro
ĠB al
ol is
Ġpl ans
Ġsold iers
Ġwe ap
ĠP eople
Ġac ademic
ĠB and
Ġoper ation
ce an
Ġas p
Ġ196 2
9 5
ĠJohn son
Ġlaw s
im al
Ġmed ical
ĠR el
ĠB oy
w eg
Ġdef in
ĠPhil adelphia
um ed
Ġin n
Ġb order
ĠO ver
ĠCh ild
ill ed
Ġcommun ities
Ġbeh av
Ġb ring
Ġsoc iety
por ation
Ġwid ely
ĠCon n
ĠOx ford
ĠL ibrary
ac ity
amb ig
hem at
ĠSpec ial
i y
Ġproble m
ĠIll inois
L e
Brit ish
Ġcon ver
Ġterrit ory
che stra
el d
ĠG irl
W hen
al le
Ġ ult
Ġc ode
a ult
Ġbe at
if orm
ĠL ater
Ġdis play
3 2
Ġapp l
enc ies
achus etts
w w
Ġmin utes
ĠUS A
ĠAd d
ĠPol ish
Ġinit ial
Ġch all
ĠB ang
Ġk ind
Ġc ouncil
ĠJew s
n o
Ġcom edy
ĠD ie
ric e
ĠC y
und red
l av
or g
Ġdr ug
ab eth
ĠH ung
Ġen ough
ie ce
ou ra
Ġsen ior
Ġt able
enn is
ĠP ers
l ight
Ġc ard
Ġart icle
Ġr at
ĠJust ice
Ġstart ing
Ġsmall er
uild ing
Ġrespons ible
Ġplay s
Ġv oice
ĠS ports
ĠT em
f ect
Ġc at
ĠG ame
pt ion
m ir
Ġ194 4
I s
ĠEn ter
eder ation
Ġch annel
C O
Ġon line
Ġsil ver
Ġide a
ĠR ay
ul pt
cl es
ĠJ ac
Ġde ad
Ġcomp osed
ĠB et
nt ario
ĠGovern or
ĠL uc
Ġp ath
Ġship s
M usic
ran ce
Ġro om
ĠCent re
Ġphys ical
st r
18 6
ĠO k
Ġ â
ĠB ell
ul ly
Ġhel ped
Ġhous es
ĠE nd
Ġcon cent
Ġnewsp aper
Ġexper ience
or ph
ĠW ater
Ġch arg
Ġbas is
ĠB ir
Un ited
ĠH uman
Ġch air
Ġ Å
ĠIn t
5 5
ic ks
ĠR ome
ĠL ittle
th ur
4 8
Ġb r
man n
Ġdep art
ambig uation
Ġren amed
ĠT op
roll ed
Ġliter ature
Ġd ra
S e
a is
200 9
Ġbecom es
Ġsh oot
cl ass
ĠO s
ur d
oc ks
av en
Ġpl ants
ant ry
ĠWilliam s
form ed
Ġoffic ers
N ational
ol i
ĠW ild
Ġimp lement
Ġint ended
Ġcomm it
ĠSy d
Ġhigh ly
bour ne
ĠL ew
igh ter
Ġfoc us
ĠA venue
Ġra p
Ġqu arter
ĠCor ps
ĠVictor ia
L A
Ġcoll abor
Ġpe ak
Ġra ised
ĠH or
ak h
ĠV an
Ġsuc ceed
iv ity
Ġinc orpor
Ġmention ed
9 9
th ing
pl ace
Ġnear by
Ġb ranch
en ant
M an
Ġreg ional
ĠJ ournal
P op
Ġab ility
Ġcontin ue
g et
199 8
p resent
le m
ĠSt an
ĠB at
199 7
I D
Ġd ial
Ġsit es
Ġ195 8
ĠP o
ĠG ree
ar ry
ĠBas eball
C areer
ag h
Ġmat ches
ĠMass achusetts
dis ambiguation
Ġadd ress
osoph y
Ġassist ant
Ġschol ars
ĠV iet
Ġmod els
Ġle arn
Ġcover ed
ol es
Ġreg ions
Ġconstruct ed
Ġcol or
ĠJ oe
uck y
Ġg as
ĠG h
ad or
Ġ194 8
Ã¡ n
Ġv on
Ġremov ed
ĠS a
ĠR og
ĠB oth
ĠJ ackson
Ġrepl ace
y t
ĠAs h
d a
Ġc ars
Ġg od
Ġcont rovers
ĠPol and
e z
ans ion
ing er
ĠAnd rew
ĠNor way
Ġdes cent
ĊĊ Ġ
Ġmanag ed
ro g
im b
for ce
Ġup per
orn ing
ĠD ec
ri er
Ġf ace
wh ich
Ġhost ed
O r
it age
ĠÂ £
Ġdire ction
ub e
Ġle ave
Ġbel ong
Ġo x
18 7
A ccording
Ġsh are
Ġ196 1
Ġelect ric
Ġlarg ely
Ġneigh bor
Ġstud ied
Ġfeat uring
ĠRev olution
ent y
ĠO ntario
Ġappear ances
Ġcon ne
Ġmeet ing
w ick
ĠS and
ib li
Ġ )
ĠM ov
Ġestim ated
Ġindivid uals
ĠSyd ney
Ġs low
Ġsc hed
ĠS ev
Ġpro gress
id ae
ag on
Ġst ories
ĠJun ior
Ġpre c
Ġ8 0
du ce
op her
ĠSt ation
Ġtreat ment
Ġfig ure
Ġele ment
Ġadop ted
ĠT od
od ies
Ġ195 9
ol ved
Ġfac ilities
es h
Ġhe art
ĠJ eff
ont o
Ġpot ential
Ġn ative
N ov
us c
Ġdel iver
ed om
Ġcor respond
Ġquest ion
ĠK ong
M A
ĠP ower
Ġg ot
Ġpr in
Ġas ked
Ġch art
Ġdram a
Ġp aint
ĠC at
Ġst adium
ĠO pen
olit an
Ġnot able
p art
Ġcomb ined
ĠC reek
Ġ195 6
r ical
ĠC zech
ĠTh ree
Ġperson nel
Ġwork ers
5 00
Ġsettle ment
4 4
Ġo ur
ol n
Ġn ation
oc ated
Ġserv e
en es
Ġpres ence
ĠIn f
Ġst ay
Ġparent s
ĠH ind
pe ed
Ġ ut
weg ian
Ġcom es
se e
Ġre pe
Ġlet ter
Aust ral
Ġh ap
S he
Ġplann ed
ĠK ir
Ġy et
Ġprov ince
ĠF ar
tern et
ord in
b ro
ĠB on
Ġoper ating
Ġanal ysis
Ġin side
ri e
ĠCh ap
ĠRep ublican
ĠOr gan
Ġw anted
Ġold er
Ġp ick
ĠP op
Ġthere fore
sk i
Ġeconom y
ĠK enn
g u
ĠE ll
ĠM ike
Ġass ociation
ĠOff ice
Ġcomp ared
Ġvers ions
Ġiss ued
Ġadminist ration
ĠSt r
iz es
Ġdestroy ed
ĠE p
ĠP en
Ġdist inct
ĠFore st
Ġp aper
Ġm aster
un ct
l anguage
ag ing
Ġbl ue
y ric
est ab
ĠKore a
Ġl if
st one
ib ly
ĠU k
198 0
ether lands
Ġdem onst
an cy
Ġc oin
ag er
Ġto ld
ĠFound ation
ĠB h
Ġsp lit
Ġlead ers
ĠM ir
Ġsec urity
Ġ +
on ed
Ġra re
n s
Ġstre ng
Ġcount y
Ġmusic ians
O ne
if ying
D on
og ue
clud ing
Ġquick ly
Ġ194 2
th rop
per ial
av a
ĠHigh way
Ġar ms
Ġsc ene
or ter
Ġc ounter
ic ine
Ġcap acity
Ġ195 7
Ġoffic ially
Ġequip ment
ĠA h
199 6
ĠA ut
itz er
ĠI ra
or ation
Ġa wards
Ġfl ight
i ated
Ġded icated
W orld
Ġ194 3
ĠN ations
ĠTr ust
M embers
Ġst ore
in ity
Ġam b
Ġorgan izations
Ġpro f
act er
Ġs ens
al ion
Ġs ac
ĠDirect or
v in
Ġ194 7
ĠB a
ig en
ĠM P
Ġac id
ĠT am
ix ed
ĠSup reme
ĠHe ad
Ġfif th
he w
Ġactiv ity
or ado
Ġmar riage
Ġdise ase
Ġc orn
Ġneed ed
Ġ urban
ed d
v is
ress ion
Ġg un
ĠP ubl
Ã ±
R ail
m et
Ġs amp
ĠĠ Ġ
Ġp al
Ġd og
ĠCro at
y th
ĠS erb
ĠN FL
un ction
Ġst ra
ins on
Ġindust rial
Ġex ecutive
Ġfam ilies
ĠL es
re ct
Ġv an
ĠPro t
Ġimp act
Ġalong side
199 5
Ġnuc lear
ĠPro gram
ĠHistor ic
Ġhon or
Ġc erem
ĠB ol
Ġg reater
Ġprob ably
F C
Ã¼ r
Ġl ay
ĠJ ean
Ġres idents
ĠCamb ridge
ĠF ield
ĠPrem ier
ar p
Ġd ark
inc oln
ur ches
Ġe c
y al
Ġwith d
201 1
ul s
ic ed
Ġvar i
i i
Ġdist ance
Ġc ells
us band
Ġresult ing
Ġ193 9
Ġinstr ument
Ġp age
Ġcont act
Ġen em
H L
Ġex ec
Ġext ra
B y
ĠO b
ec ause
Ġet c
Ġd ance
Ġpart ies
Ġpe ace
Ġfriend s
m as
ot ic
ect ing
M en
ĠP ost
Ġcitiz ens
ĠL ight
ĠN az
G erman
ict ional
ĠA D
ĠB att
ĠH al
ĠCount ry
Ġ18 0
Ġt ree
Ġs earch
y o
ĠB os
Ġinstit utions
4 6
Ġear ned
Ġcan not
ĠR aj
v est
ast y
Ġsc ulpt
Ġimmedi ately
ĠWil son
ag ement
Ġill ust
V D
M ay
Ġarr ived
ĠCommun ity
Ġb al
Ġ194 6
Ġth ous
ĠH ome
ĠJ es
ĠDe velopment
Ġre ach
Ġrespect ively
Ġg reen
ĠO fficial
Ġrec over
Ġsecond ary
201 2
Ġ5 00
ĠDemocr atic
on ents
un a
ĠT ay
em an
il ation
ĠAl f
ĠR od
ĠF ox
ie ut
l ers
il ton
ut s
ĠF amily
Ġpat tern
ĠE st
Ġun s
Ġtarg et
Ġs n
ĠK en
ĠQue ens
Ġ195 5
I S
Ġatt ract
Ġa im
Ġresult ed
m ad
Ġp ra
Ġg raph
Ġmount ain
ĠStev e
pp er
d am
l og
Ġc le
Ġdist ricts
Ġdef ined
Ġpar ish
rest ling
Ġper man
Ġcent uries
ĠN etherlands
Ġorder ed
Ġchar ge
Ġa thlet
ap ed
Ġh undred
ĠTurk ish
ĠC op
ĠAr gent
Ġfav or
er c
Ġexp anded
E S
Ġo vers
im in
ĠCor poration
Ġcal c
1 00
ĠE arl
Ġact ually
iz abeth
ĠAn other
A C
Ã £
ren ce
5 6
Ġth ink
ues e
y g
u ct
Ġcre ation
b a
ĠMan chester
Ġprofess or
ĠH ockey
Ġtra ins
ĠR am
Ġtransfer red
p ass
Ġprom inent
E C
Ġg iving
ĠF ederal
Ġele ctions
ĠIndian a
est ic
oll o
ĠAl so
A c
ent ed
Ġh ospital
gh an
' ,
Ġl ives
Ġg rew
Ġ7 0
ĠReg ion
Ġtown s
k er
Ġpart n
Ġanim als
w orth
Ġre duced
Ġsp read
on ent
Ġ194 1
Ġwinn ers
ĠB ad
N e
Ġf ast
Ġfollow s
Ġsp irit
ĠT al
it led
Ġf ish
Ġproper ties
Ġaccept ed
Ġpos itive
Ġtr ue
c est
Ġp an
ĠLew is
ĠW ork
ĠJ on
eth ing
C y
G eneral
P r
w ater
Ġpurch ased
Ġ ĠĊ
ar on
oot h
se y
Ġatt end
rop olitan
5 4
ĠF ollowing
Ġ195 3
al o
Ġagre ed
Ġw ins
Ġconduct ed
Ġveh icles
us ion
im a
ĠAir port
Ġmix ed
ĠF ame
Ġcontin ues
Ġmedal ists
il a
Ġmin ister
ĠT ony
Ġident ified
Ġ195 2
Ġexper iment
ion e
sk y
Ġsol o
Ġagre ement
ĠBul g
os is
ap h
ĠB alt
ĠA thlet
Ġpress ure
ograph ic
ĠSt at
Ġw alk
ee ch
en ge
Ġ Î
Ġmag n
ron e
Ġsugg ested
Ġdecl ared
Ġwinn er
in ing
it ness
ĠA st
ut ing
Ġrel atively
ibli ography
inn es
Ġmem ory
ĠB ah
Ġqu ality
Ġ195 4
Ġtit les
Ġmov ing
Ġs aying
Ġp p
Ġm ess
Ġb ott
Ġcond ition
om ers
Ġcont emporary
Ġf ellow
ĠReg iment
A nd
Ġform ation
Ġ Ð
O lymp
Ġopp ortun
Ġmot or
ol id
qu arters
ĠFor m
ĠPr ime
ĠPhil ipp
5 8
ĠD espite
Ġsy n
i ary
Ġf ell
Person al
Ġappro ach
199 4
m iss
Ġh ydro
Ġproject s
Ġab and
Ġh usband
Ġh op
A A
Ġterm in
m es
ĠAnt on
riz ona
j i
ĠS anta
oc ese
innes ota
Ġy outh
al ing
ĠPro ject
ĠSec retary
ieut enant
v ey
Ġent er
Ġass igned
w ing
4 9
Ġp ict
Ġv ote
Ġdep artment
Ġmark ed
ĠC as
ĠBar on
Ġmiss ing
ab b
Ġse g
ific ations
ou red
Ġatt acks
Ġconfl ict
Ġclass ical
ĠW at
igh th
Ġ9 0
Ġeff orts
Ġcont ain
Ġknow ledge
Ġrec ently
Ġoccur red
7 8
Ġnov els
Ġprom oted
ĠC O
Ġexp ansion
Ġallow s
Ġf ully
ĠR em
Ġfe el
7 6
ĠN etwork
Ġp urs
Ġn et
Ġformer ly
Ġcamp us
ĠU t
Ġhe av
Ġsem i
Can adian
b ec
Ġte le
ound ed
Ġc ricket
Ġsurround ing
we alth
er al
ĠF air
ĠAs ian
Ġl ies
Ġm icro
Ġtra ffic
ĠIra q
Ġser ious
am ber
Ġwe ight
B e
ig ration
enn ess
Ġown er
ĠS her
Ġ ir
Ġ194 9
ov a
Ġ3 6
Ġreve aled
U S
P olit
Ġthe ater
Ġ3 2
H is
Ġj oint
en ing
Ġh ar
ang a
ĠTor onto
ole c
ĠInd epend
Ġra in
iqu es
ism s
out heast
ĠMar ine
en z
Ġsub s
ĠHol y
ĠE conom
Ġallow ing
ĠGu ard
Ġ Ä
Ġt im
om ic
Ġoff ers
r ade
tt ers
ang es
4 2
Ġatt ention
Ġv ac
% )
ĠL ady
n ce
clud ed
os h
Å Ĥ
Ġch ap
i at
ĠC E
Ġvill ages
ĠB all
ist ed
Ġs ales
ut ional
Ġem b
ĠMed ia
Ġbeg ins
O S
Ġmethod s
ĠBr ig
Ä Ł
Ġg ives
Ġro les
Ġsl ight
i ec
ĠA ff
Ġcol umn
ĠL incoln
Ġp ack
Ġst reet
os en
Ġback ground
ĠEl izabeth
Ġdistrib ution
Ġg ained
igr ants
Ġcom ing
Ġengine er
Ġgovern or
il ing
ruct ure
Ġjournal ist
Not able
k in
ĠD ar
g s
Ġw a
Ġsugg est
ĠBe ach
im ents
Ġnew ly
ĠAb b
Ġf iction
Ġrefer ence
W est
j an
Ġsy nt
ĠT ok
ĠSt and
eat her
ĠDan iel
Ġcapt ured
ĠH ong
Ġpre p
Ġinh abit
b ook
Ġclaim s
ĠH ay
Ġdig ital
ellig ence
g ar
Ġt al
Ġst ars
Ġfight ing
ĠDu ke
Ġmach ine
ĠS u
ĠJ oh
res h
ph as
ĠCl ark
Ġsuffer ed
Ġast ron
c an
erv ed
Ġport ion
Ġl abor
ĠBow l
ĠM oon
201 3
Ġgr anted
8 8
al so
er ick
Ġe as
Ġhigh way
ĠK ansas
199 3
i ate
Ġold est
Ġre form
ĠR om
ro om
ony m
anc ing
Ġindepend ence
ĠF inal
S outh
g rad
an es
Ġh yp
ĠOr ig
Ġmain tain
p ool
199 2
ĠAt t
ĠGold en
ĠV en
Ġqu ant
Ġrelig ion
ĠS el
ĠB rad
ffic ient
Ġrecogn ized
k h
ĠB ishop
ĠB eng
5 2
ĠL abor
ĠL ive
Ġposition s
m illion
ĠSt adium
Ġm ill
ul ate
Ġsaf ety
ĠAr thur
ĠB ru
Ġfun ctions
ak s
ister ed
ĠBar b
Ġconn ected
Ġm axim
Ġch ampion
ut her
ĠPol ice
Ġdr ums
Ġaltern ative
ann ing
ĠTechn ology
Ġs uit
Ġp un
ak i
Ġnot es
Ġsim ply
c ont
ĠI d
ain ts
ĠMel bourne
Ġb ronze
Ġmeas ure
Ġf irm
Ġb ad
Ġl yric
Ġcons um
9 6
ĠAmerican s
Ġappl ied
k es
ĠM aster
Ġsp ect
Olymp ic
Ġfrequ ently
Ġdam age
ĠA C
ĠL y
Ġarchitect ure
Ġres ident
Ġperforman ces
ĠCol orado
201 4
Ġengine ering
h ol
ĠE s
Ġder ived
Ġcompos er
ĠInd ust
Ġrap id
A M
Ġad apt
Ġsec ret
Ġrank ed
Ġmaterial s
Ġm om
W ill
Ġfor ward
Ġle tters
ĠM ain
ĠF ire
ĠCast le
9 8
o is
Ġs ays
ĠSt e
Ġact ing
W e
ĠCol on
Ġsup pl
Ar t
ian ts
ĠB ooks
Ġunder st
ĠSen ate
Ġgen us
Ġscient ific
Ġint ers
ĠServ ices
Ġstr ugg
Ġpolit icians
ipl om
ĠTay lor
w orks
ĠCh ris
Ġim age
ĠBro ther
ĠMed al
Ġtre es
0 6
In ternational
Ġserv es
Ġcar bon
ĠR on
Ġlead ership
ing ham
ur rent
Ġsup ply
Ġ193 8
Ġro yal
a ctions
b an
ĠS ong
Ġhand s
Ġlist ing
/ /
ĠAtl antic
4 1
Ġtemper ature
ath an
201 5
Ġk ept
ens ity
N orthern
Ġl osing
" ),
ĠMex ican
ot o
ĠR ad
Ġse ctor
enn a
r um
ĠW ars
ĠRep resent
ash ion
Ġacc omp
E d
Ġchem ical
Ġauthor ity
cl aim
Ġw all
ĠAf ghan
Ġfig ures
rid ges
197 0
ĠStep hen
erv ative
Ġveh icle
re c
Ġfl oor
Ġun ique
Ġro b
ĠStud ies
Ġcomplet ely
5 1
Ġc e
ly n
4 3
m ph
ĠSc iences
ĠMount ain
ert o
Ġc am
Ġcrit ical
ĠNor wegian
Ġth ings
sp eople
5 7
el ine
l ife
re al
ĠS ant
ĠU s
Ġret ire
ĠA uthor
ĠG reg
Ġw ild
Ġun known
c hers
Ġst one
for mer
Ġadminist rative
Ġm ut
ĠN ic
ĠMin istry
Ġsw im
eng ers
ĠGree ce
ĠB u
ĠB i
ĠV ill
Un iversity
9 7
ĠT a
g or
Ġtw ice
Ġp le
iv als
ever al
Ġar ts
Ġlaun ch
Ã£ o
Ġnecess ary
ĠU N
ĠL t
T rack
Ġt un
Ġpurp ose
Ġse ats
p ret
Ġgrow ing
8 6
ĠD am
ĠF ree
ĠPortug uese
S ince
Ġeth nic
ill ery
ell er
ĠC irc
De ath
ĠJ er
Ġsp ring
Ġfl ag
0 7
n ia
are t
Ġm is
ĠM innesota
199 1
Ġeffect ive
ĠKore an
Â °
Ġf eed
S ome
Ġhistor ian
Ġcomp ar
A b
Ġs ense
Ġro ll
ad ing
Ġcl imate
y es
ĠAp ollo
om ot
os a
ĠW alk
Ġexp ected
Ġref ers
y st
Ġgl obal
Ġexist ing
ĠM emorial
Ġrece ive
Ġtit led
B as
Ġsit uated
0 1
r ator
und er
ail ed
ĠMar ia
ĠSwed en
a ug
Ġcomb at
ib b
Ġro t
Te levision
ly wood
ĠS em
ĠH ospital
Ġex change
Austral ian
enness ee
Ġ195 1
Ġshow ed
Ġt ried
im ens
ry st
Ġcont rast
Ġb oy
Ġfound er
Ġp air
ĠA M
Ġprov iding
j e
ra c
um es
Ġt aught
ĠD own
Ġme ant
Ġv ot
ie val
r ations
ĠH an
ĠG ro
Ġr isk
ĠLe v
Ġsqu are
Ġb illion
Ġcont ent
Ġclass es
' .
o en
Ġcont aining
ĠD un
ĠMar c
Ã© e
Ġpolit ics
Ġmunicipal ities
Ġofficial s
Ġf olk
ĠK el
Ġsc ript
C D
Ġle aves
Ġrest aur
Ġattem pts
Ġdou b
we ight
: //
ĠDes ign
Ġthem e
201 6
Ġf ans
ĠH u
ĠS on
og en
ĠPr im
ru it
ĠMar sh
l ines
ĠP ass
ĠAust ria
Ġorgan ized
Ġmat ter
Ġf air
ĠL i
Ġfac ility
ĠP u
Ġp arliament
re te
ĠS ix
Ġtri al
ress ed
Ġad vert
Ġopp osition
ĠReg ional
Ġext ensive
tain ment
Ġse em
ĠSp ace
ou ts
Ġdist ingu
Ġset s
Ġprincip al
Ġw ear
Ġp owers
Ġm ind
ir med
em eter
ĠAre a
ĠSund ay
Ġsit uation
ĠH art
ĠCol l
D isc
Ġthe atre
ol ished
Ġvir t
5 9
ĠA rizona
Ġhe ro
ĠCh annel
l aw
Ġf r
emeter y
Ġ x
5 3
Ġsh op
S R
Ġocc asion
0 8
Ġf elt
Ġsex ual
Ġh y
ĠR oss
un te
Ġconst ant
l ov
en h
Ġs ides
Ġb urn
ĠPl an
ac hel
Ġdec re
Ġsign al
Ġconstit u
in th
Ġh arm
ĠAn th
Ġpol l
Ġre ject
Ġprote ction
Ġal t
g n
Ġb ra
Ġvoc al
l oad
z y
Ġal le
Ġsp ons
an ia
ĠT est
Ġrec omm
Ġest ate
Ġr ural
ĠH un
ad s
S port
ĠG er
Ġatt rib
Ġr ing
inn er
am ing
if ically
ĠRev iew
ĠBudd h
R eg
ĠSp ring
Ġbas ic
Ġcomp osition
ik a
v ard
w estern
R es
f rom
el le
Ġ19 18
rag on
f all
ang er
hed ral
ĠKent ucky
ĠD or
Ġra cing
ĠDav is
Ġsubsequ ent
c ar
Ġobject s
Ġeff ort
ĠA ud
ter y
Ã º
o es
Ġar rang
Ġinhabit ants
Ġsett led
ĠCh ile
ind er
ĠSqu adron
els h
ĠLab our
w ich
ult an
ĠM un
Ġauthor ities
Ġh abit
ĠM icro
Ġdesign ated
ĠI V
Ġinsp ired
Ġcon vers
w ise
ĠD er
C ont
ĠP it
ĠSt one
Ġwin ter
Ġt alk
og y
li est
Ġhold s
ĠBro ok
ĠM unicip
ĠD ick
ate ur
ĠB rian
ĠSec urity
ĠViet nam
Ġc art
ĠE P
Ġex clus
Ī Ĵ
B ibliography
Ġf estival
Ġr ise
ĠTe levision
Ġcr im
J an
ort heast
S ources
ab ama
Ġ3 8
ann a
ag ues
Ġra ces
k ey
ad er
Ġval ley
Ġdocument ary
ĠS ab
S w
ed ia
Ġfootball ers
ĠT ennessee
Ġcomp l
Ġpower ful
ĠKh an
Ġear th
m outh
ĠR en
ĠR et
Ġen j
Ġland s
um in
Ġcan cer
Ġopp osed
Ġc ab
Ġreport s
iec es
0 5
r in
Ġse vent
Ġhistor ic
ĠMill er
ĠSwed ish
and y
act ive
ĠC are
Ġst ock
198 9
Ġres istance
Ch ar
Ġcr ime
Ġcast le
Ġven ues
Ġj ourn
Ġref used
Ġp iano
ĠPol it
etro it
ĠS us
ĠL ind
ĠN eb
201 7
atri ate
ĠF e
ival ent
Ġport ray
Ġattempt ed
Ġvol ume
Ġyoung er
ur er
ĠG re
ĠK im
ĠCh ampions
ĠM ax
E uro
P ar
Ġf uel
Ġloc ations
Ġl iber
ĠCap tain
Ġachie ved
ĠOtt oman
ograp her
Ġcon qu
Ġch osen
orn ey
W ales
Ġoccup ied
6 6
CA A
Ġemploy ed
Ġsim ple
Ġanim al
ĠN ap
ĠL at
ĠF ederation
ĠW olf
ost er
rel ated
Ġis lands
Ch rist
Ġsc hem
Ġsucceed ed
M arch
ĠC ape
Ġfac ulty
ik h
Ġfield s
Ġy ards
Ġking dom
osaur us
Ġ( ),
ĠV i
Ġadv ance
Ġsom ething
Ġadv anced
ĠMod ern
- -
Ġbe aut
Ġpro ceed
ond s
Ġend s
G u
r ons
ĠFor ces
For mer
r at
Ġgrad uated
Ġt ells
Ġconver ted
ĠA ge
ĠSl ov
ĠCon c
T S
g reg
Ġem phas
ĠLeg isl
Ġnorm al
Ġsp ok
ĠCommon wealth
Ġte aching
ĠD VD
u ing
ĠD isc
Ġst ream
20 18
Ġn ob
ord ers
Ġparticip ated
Ġmult i
Ġreview s
Ġend ing
Ġdr ive
ĠW in
ou ri
ĠD ig
Ġbe y
or age
th od
Ġbel ief
Ġh all
Ġres ources
ĠProfess or
in ally
ĠK er
ĠSim on
Ġhum ans
% .
0 9
Ä į
Ġle ar
ĠS ound
Ġun able
Ġ3 3
alle l
Ġte acher
rop ri
E l
c ow
ace ae
inem a
Ġa x
ĠAb d
ĠC ow
ĠM ilitary
Ġdro pped
re es
is a
ĠA cc
Ġ4 5
Wh ile
Ġinj ury
or gan
st ream
ĠW ell
ĠE ach
Ġbey ond
Ġv ess
Ġdis estab
Ġgo es
Ġbur ied
Ġ19 22
i ot
ĠSt ock
Ġapp arent
or ge
ul ed
Ġro ugh
ĠCol omb
Ġ193 6
Ġs ay
ĠS av
Ġ3 7
Ġb ought
Ġde ploy
ap ore
Ġval ues
Ġweap ons
ĠR oy
Ġa uth
bum s
Ġmusic ian
Ġequ al
ĠEnter tainment
ĠM ach
Ġ. ..
r ine
Ġd aily
Ġaud ience
o a
p et
Ð °
Ġp aid
ĠMar g
ĠIslam ic
ag u
Ġsh ared
ĠAd am
Ġcandid ate
Ġcrit ics
Ġconc ert
Ġcreat ing
ĠH ou
ag an
oc ation
Ġch urches
e k
ĠF ront
z en
Ġto uch
Ġacc ident
Ġobserv ed
Ġpromot ion
Ġim pl
F M
Ġa ctions
ĠBus iness
" ).
le ep
Ġset ting
198 7
g ers
ĠB urn
Ġb or
ac hers
or f
level and
itzer land
it o
as ure
Ġm orning
Ġco al
Ġmat hemat
ĠTrans port
ĠP ope
ĠPhil ip
p son
Ġult imately
hes is
ĠW eek
Ġh our
Ġear liest
B ack
Ġp et
ĠT y
Ġbehav ior
Ġb ishop
Ġre in
Ġdeterm ined
Ġm iles
D av
D em
se x
Ġinflu enced
l ah
ĠApp le
g ow
Ġenvironment al
g a
Ġv ent
qu es
Ġvis it
ĠC ost
Ġdec ades
Ġob tained
Ġhap pen
all as
Ã ¢
Ġappro ved
Ġcop ies
ĠFore ign
A nt
P S
c oh
re ll
Ġair port
Ġa ired
198 8
Ġre ar
iet ies
Ġtransl ation
h an
am i
ig ation
B T
Ġl ibrary
Ġplay off
ĠAd minist
9 2
Y ear
Ġon to
ĠAl abama
is f
Ġcont ained
Ġin ternal
Ġw ays
ĠSh ort
g est
el ve
Ġre action
Ċ ĠĊĠĊ
in y
Ġcompet ed
Ġcy cl
gl as
w here
n i
ĠMal ays
Ġfl ood
ant on
Ġc ensus
I C
ĠEm peror
Ġvict im
A ugust
Ġdr iver
ons in
Al though
Rail way
ĠH o
B iography
ĠB uilding
Ġcont est
Ġfin ish
r ish
ow a
ĠReg ister
Ġbrother s
igen ous
) "
J u
ĠH ard
ut ies
ĠW rit
g al
8 5
A F
ĠT rib
isc onsin
ras ka
ĠEngine ering
a ver
m ers
hip s
Ġsymb ol
D ef
in cluding
Ġs ons
Ġent ry
ĠD omin
Ġexp ed
Ġre ign
ĠM as
Ġav oid
Ġarrest ed
ĠFranc is
Ġlyric s
I N
ĠP ict
ĠL ike
Ġb ul
ĠHar ry
ym n
ĠSqu are
Ġd raft
Ġd iplom
ĠG ord
ud get
Ġ192 9
Ġattack ed
ĠMary land
v o
ic ts
ast ers
6 7
E n
ĠLe on
Ġb ow
ĠN Y
Ġ193 3
b ell
ĠF ord
Ġb irds
rop ical
ill ing
Ġident ity
l an
ial s
Ġslight ly
ĠHam ilton
Ġform al
Ġm olec
Ġ19 19
Ġcon ference
Ġhead quarters
s et
ĠC ra
ĠV o
M S
s ong
Ġgu est
Ġexist ence
Ġfa ith
Ġt end
Ġref lect
ĠD ark
red ited
Ġbro ke
thod ox
ĠCon vention
ow nt
ubl in
Ġ193 7
ĠChrist mas
r ates
Ġto wer
Ġregard ed
Ġw ing
ac ent
a o
ant age
b ar
Ġ192 8
ic ut
Ġcon ce
ang el
Ġcomm ander
iss ance
av ed
0 4
Ġstand ards
Ġkill ing
p osed
Ġcomp ris
Ġback ing
ĠPr in
ag a
I T
Ġm ap
ĠR ights
ĠTh ird
Ġarg ued
Ġch o
Ġapplic ation
Ġperman ent
Ġr h
Ġbeg in
ĠAlex and
ĠP ot
ev in
Ġpublic ation
G overn
Ġgl ass
Ġstra ight
Ġneighbor hood
F ollowing
ĠB ack
ĠB an
Ġcon sequ
E lect
ĠG il
os m
Ġ19 21
ĠO t
Ġdyn asty
Ġf ranch
uc cess
Ġposs ess
b ound
Ġf it
ĠA BC
st ead
Ġext rem
ĠK al
Ġreturn ing
Ġjud ge
ris is
em ic
ĠOr chestra
Ġlear ning
ĠF C
20 19
198 6
ĠConn ect
es ign
Ġ iron
ivers ary
Ġdef ense
Ġocc urs
Ġnar row
c ell
ol y
Ġ19 14
ĠInd ones
z er
Ġ193 5
Ġhor se
7 7
N orth
ĠG all
Ġpro s
Ġinv asion
Ġvis ited
ĠF I
ĠSw itzerland
Ġcom ic
Ġtw enty
ĠT rain
Ġr ival
Ġeff ic
Ġchair man
F ran
ill er
8 9
Ġh ired
Will iam
se ason
Ġsp eech
eg a
Ġste el
amp ton
ĠL ow
l ades
ĠO cean
Ġdef end
Ġl ot
Ġsc oring
ir t
Ġgu ard
ĠPortug al
M ost
Ġenem y
C o
in ch
Ġphil osophy
0 3
Ġc as
Ġfe et
ĠQueens land
Ġs ought
ĠC re
ĠD ak
Ġsp ot
A f
Ġcall s
Ġad ap
Ġcaus ing
ĠH y
Ġ19 23
pr ise
Ġm el
ĠB ecause
198 1
ĠGl as
Ġcou ple
ĠJac ob
h aps
L a
Ġcar ry
Ġneed s
ĠHow ard
ĠF M
ĠComm and
Ġ192 7
F rench
Ġgener ation
Ġc ert
ĠT reat
us al
ut ation
Ġcap tain
Ġw ant
Ġb it
Ġre asons
Ġan cest
Ġ193 2
Ġenc oura
ent ially
h at
Ġw ine
Ġp iece
ĠT ai
ograph ical
Ġide as
Ġpass es
D P
ur is
ĠAl an
le ts
Ġch ampions
b urn
Ġto ward
ĠM ember
Ġexpress ed
st ic
ag en
Ġsix th
wh ile
Ġb an
le ton
ĠDie go
Ġact s
Ġintro duction
Ġsurv ey
A ss
ur ance
ĠD NA
Ġalle ged
9 3
ĠF le
ĠO ak
ang ing
Ġdep end
Ġtechn ical
Ġfound ing
Ġconf irmed
A S
ĠHe art
we et
au x
; "|
ful ly
row d
Ġconne ction
ĠD iv
Ġex act
Ġb odies
im ore
Ġclos ely
ĠJes us
aw n
8 3
Ġexamp les
ĠMos cow
Ġs and
ĠW isconsin
ip e
196 0
ĠAff airs
6 4
O R
h ar
Ġneg ot
Ġpre par
198 5
Ġl ake
Ġag ent
ĠMed ical
Ġposs ibly
Ġf ought
Ð ¾
ĠC ab
Ġactress es
ĠArch itect
Ġgreat est
Ġchall eng
Ġrul ed
Ġheav ily
ĠT urn
ĠH ell
ĠBroad way
Å «
ĠAlbert a
ĠP ier
Ġenj oy
Ġsol id
Ġfl u
Ġcomm ittee
Ġpass ing
ĠQue bec
Ġretire ment
A N
S ports
d ied
ir ty
Ġk il
p oint
Ġim pr
Ġconsist ed
A P
ĠWal ter
b ach
Ġn ick
Ġre act
ĠD al
Ġprov incial
Ġb rain
ĠChild ren
rick eter
Ġstreng th
9 4
Ġsc ale
Ġ193 1
Ġinter pret
Ġprot ect
an ian
Ġshort ly
h ing
Ġthe ore
el er
ct ic
ad ed
ob e
T C
ur ation
O ctober
198 4
log roup
9 1
Ġ rom
Ġad ult
Ġent itled
Ġaband oned
6 5
Ġcaus es
Ġmaxim um
os lav
Ġart icles
Eng land
Ġfail ure
d on
Ġpart ner
Ġord ers
T o
ĠT ig
ĠSt ra
Ġ3 4
Ġmy th
Ġtechn iques
ĠY our
ĠL ocal
ĠSing apore
ĠT en
Ġpol ic
Ġagric ultural
ĠTem ple
à ¤
Ġ3 00
Ġcomb ination
at ab
Ġcontrib uted
ĠS in
Ġapplic ations
Ġmon arch
n et
Ġ19 00
Ġcon cluded
ĠS che
ra ine
uild ings
ra ction
ition ally
Ġtransl ated
uss ian
ĠH ans
ec ond
u ilt
ut t
ĠSh ah
ĠPh ill
ĠE ven
ĠO d
Ġsh ape
ch a
Ġth r
Ġst ores
duc ing
Ġcon vent
iver pool
ĠIn formation
al ty
Ġmin im
lah oma
S up
Ġwrit e
e qu
Ġa id
ĠT s
Ġlaw yer
Ġpil ot
Ġapp eal
Ġentire ly
Ġneg ative
0 2
Ġy ellow
Ġperform ing
Ġnomin ated
ĠTok yo
ĠIn ternet
Euro pe
J apan
ĠMan agement
Ġlim it
c ome
Ġj un
Ġdom estic
Ġl oad
ĠR un
olog ies
Ġsupport ing
c ious
ĠE arly
ÃŃ a
ar o
Ġoper a
V ideo
ĠK ey
Ġwe alth
Ġeduc ational
Ġimport ance
Ġtem ple
Ġw alls
ĠT it
ĠE ric
ĠCon st
Ġbelie ve
Ġsequ ence
Ġf ashion
ĠD anish
enn y
inn ers
Ġworld wide
in burgh
ĠF urther
ĠTh us
ĠL o
if ul
Ġoper ate
ĠB uff
ĠConnect icut
Ġbott om
ĠM oh
Ġesc ape
A wards
p a
r m
ĠD etroit
20 20
Ġv ary
Ġsh all
ĠSchool s
Ġhous ing
Ġl at
ad ow
ĠDou glas
ant asy
Ġ193 4
rom e
Ġprov ed
Ġband s
Ġon es
or i
il er
ĠM it
ĠW elsh
198 3
ĠG ab
ĠAl i
Ġim ages
Ġqu ite
ĠJ am
ĠSt ory
ĠG ram
Ġspec ifically
Ġmanag ers
Ġsqu ad
ĠNeb raska
S eptember
Ġre duce
ĠRec ord
Ġconsist ing
ĠAr k
ic it
Ġhe ight
f ort
Ġdec or
Ġs an
r Ã©
ĠM ic
ĠF a
Ġtr ust
Ġel imin
Ġhold ing
ĠMiss ouri
ig ious
Ġinc ident
g ency
Ã Ł
Ġeduc ated
ol as
Ġ192 4
Ġal one
Ġpass enger
ĠTod ay
Ġph ase
Ġcor rect
ĠMag azine
os al
Ġrecogn ition
Ġ ;
ĠA P
ĠP oint
Ġg uns
Ġhe ard
D ist
Ġmay or
197 9
ĠBatt alion
ĠB rand
ĠCon stitution
Ġincorpor ated
ĠRober ts
at ures
Ġcont rolled
it i
M ark
Ġmain tained
ĠE ag
Ġdescrib es
om ing
Ġoffic es
Ġmer ged
Ġdev ice
Ġp ieces
ap olis
ĠD ream
ĠF ellow
Ġdevelop ing
A pril
II I
ĠGlas gow
Ġ19 17
Ġex am
Ġ192 6
ĠD ublin
Ġ( ,
Ġrev olution
L eg
ra f
Ġ4 00
Ġdirect ors
Ju ly
i ac
Ġro w
Ġarch ae
het ic
B est
Ge ography
j o
Ġun iform
' '
J une
an th
Ġmom ent
Y ou
Ġfind s
Ġliter ary
Ġc overs
Ġch ain
Ġad vent
Ġpre fer
Ã¡ s
Ġgirl s
Ġfle et
u i
ri ff
ĠCom ics
ĠAtl anta
ct ors
ra cy
Ġnot ably
Ġsing ers
or us
Ġv o
ĠAnd erson
Ġd ates
Ġinstr uments
I V
is er
Ġequ ivalent
ĠE th
Ġan s
ĠDe ath
am ic
ĠOn ly
197 6
Ġviol ence
olog ists
Ġinvol ving
ac he
ĠAd vent
Ġregard ing
ar us
ĠV is
Ġ192 5
ord an
Ġexper ien
Ġse ems
Ġrece iving
Ġv otes
Ġch arts
ours es
ĠBill board
Trans port
on na
Ġch oice
Ġestablish ment
ĠArmen ian
ed ing
ann ed
idd en
Ġh un
ĠT ar
ĠO ffic
ang ers
Ġco ordin
Ġst orm
ĠAm ong
8 7
Ġact ual
ĠRe al
ĠL og
ĠCro wn
a fter
own ed
Ġdef ensive
sp ec
198 2
ĠArab ic
W omen
Ġv s
Ġsuccessful ly
8 2
Com m
ish ops
ĠS um
ĠV ar
Ġdo ctor
ĠWh o
8 1
ant e
ink ing
Ġsignificant ly
ur ric
Ġview s
Ph il
A D
le ased
ĠH and
u v
ĠD ur
ĠD ave
Pop ulated
ster dam
Ġs ust
ĠWh it
Ġcateg ory
Ġpar allel
z ant
Ġc atal
Ġp hen
ĠM and
Ġsom ew
un ch
ĠTh rough
ar ks
Ġg ar
ĠG allery
Ġd ivers
H on
Ġte x
Ġeas ily
ĠC leveland
ĠCl in
ĠRog er
l ock
v ements
ĠM D
ĠB ry
os ure
ac c
Ġproduc ing
Ġfoc used
ĠDis ney
n ight
Ġp ages
ĠB oys
De cember
h ard
ĠJan e
ĠPal ace
ĠAnth ony
ile y
Ġdiffer ence
Ġhe at
ok ing
ĠCo oper
Ġdis app
Ġfact ors
ud a
Ġt ail
Ġs ale
clus ion
Ġc ore
p o
it ic
Ġal coh
ast s
Ġhouse hold
ĠSil ver
on ian
Ġc ricketer
ran ged
Ġsub urb
ri k
ts burgh
Ġ4 9
Ġren ov
ĠBru ce
he astern
Ġpro ced
ĠBe fore
Ġvis ual
Ġtyp ical
ĠAfghan istan
8 4
O ver
ap es
Ġneigh bour
ownt own
Ġse lect
ĠAll en
ĠTer rit
ĠEr n
iam i
Ġinst alled
Ġadj acent
S C
Ġm us
st yle
Ġ19 10
ĠK am
Ġcerem ony
O fficial
el and
ĠNaz i
ĠB uck
oy d
Ġbrief ly
ĠN ob
20 22
ĠEx press
Ġmot ion
M on
id ers
ter ed
iv a
Ġis ol
Ġphil os
Ġpurp oses
Ġc rown
Ġres c
Ġcons ecutive
ĠAn ne
In ter
ins ula
Ġcop y
Dav id
ram a
Ġresp ond
Ġroad s
ĠK at
ĠB ible
Ġz one
ipp i
er ts
us hed
or ia
Ġcomp ilation
Ġrecord ings
Ġrequ est
ĠBas ketball
ĠN ick
Ġdo ing
197 8
ĠPat rick
ĠDen mark
T O
Ġw or
Ġn or
oth ing
Ġsub stant
ke ep
Ġcolon ial
ĠF ac
ĠN ev
ĠEd inburgh
r un
u h
Ġ( ;
st ances
ĠL iverpool
Ġplann ing
' m
R el
Ġy our
ob a
ĠOr thodox
P ublic
Ġt ask
Ġprogram me
ĠEn vironment
Ġcross ing
ham mad
ĠLiber al
d i
Ġcrim inal
Jan uary
L ife
st an
Ġent rance
Ġlic ens
p an
it als
Ġres ear
Ġadap ted
7 2
Ġ ille
Ġ4 2
Ġs now
ĠN ow
I f
le ctions
C ent
ĠD a
197 4
I tal
id ge
ĠF arm
eg et
Ġinst all
app y
Ġprison ers
t hen
Ġs ail
op es
Ġar med
ĠKn ight
ĠAlf red
R ep
ĠI mp
ĠE c
6 1
ĠC all
ĠSt ew
ab y
ĠN ich
Ġrepresent ing
Ġpri est
ĠBang lades
A pp
f ound
ĠM ethod
ĠD ue
ĠN ar
ner gy
cast ing
Ġimpro ved
Ġpain ting
b ox
Ġt ur
Ġd oll
bo ards
ĠFred erick
ĠBelg ium
Ġleg end
Ġrail road
Ġguitar ist
ĠWind ows
ens is
ĠRep ort
ĠHol lywood
Ġcompet itions
ĠPl aces
Ġocc as
reg on
Ġw aters
Ġre aching
so ft
Ġinc ome
ĠLouis iana
d ie
ia h
ch t
ith m
ĠG w
Ġres emb
Ġloc omot
ĠOk lahoma
ĠF und
197 2
Ġpoet ry
ĠR eb
Ġst orage
197 7
Ġstr ateg
ĠMount ains
ĠAust rian
Ġap art
ar at
os ite
Ġpl ot
Ġanim ated
Ġstar ring
rib ed
P er
Ġed ge
Ġse ctions
sc ape
ĠH it
ĠAng l
Ð ¸
Ġev olution
6 2
p ur
ian g
ĠA le
ry pt
ĠH ills
ĠSt aff
Ġsc enes
E T
t op
Ġres erv
Ġ7 5
at ur
Ġfund ing
H istor
ĠN CAA
Ġse lection
ĠL as
Ġs ed
Ġrec ip
y ard
Ġm ilit
ĠFin land
ĠK ings
H S
al y
ĠK l
197 5
ĠGord on
M P
Ġhot el
ĠDe ad
ĠO p
Ġpat ients
S ing
Ġh its
Ġcirc um
M ilitary
se a
ĠBat man
ter m
Ġdesc ription
Ġabs or
ĠL iter
ĠB ou
Ġm ent
ĠL eb
S te
Ġext ension
Ġw eather
ol ia
Ġtra v
ĠSw iss
H ar
ra v
Ġgood s
C ar
ol t
Ġt all
ran ches
Ġlead s
st ar
ĠU pper
Ġcolle ges
as ka
Ġ19 12
Ġaff ected
7 4
ĠD allas
ĠL ast
Sp ec
et ime
Ġres idence
ail and
ist a
ĠOper ation
ĠPu erto
Ġop in
ĠDak ota
ars h
ĠProt est
or ial
Ġeng ines
Ġpol y
Ġelect ronic
rast ructure
Ġb ill
i Ã³n
Ġsh ut
b al
Ġp rice
Nov ember
z z
ĠS ac
ĠR ose
els on
Ġp up
ĠM em
Ġl aid
Ġj azz
erb ai
ic ide
ĠJoh ann
Ġs olution
Ġm and
ĠO ri
m ith
ĠR he
ik i
ĠAm endment
d ale
ĠN iger
Ġfl at
Ġstand s
ĠHon or
M od
Ġunivers ities
O rig
Ġ19 15
ĠLaw rence
Ġdev ices
Ġsugg ests
Ġv ice
Ġpopular ity
l on
ou ver
Ġc ru
el ess
ret t
com mun
S O
Ġg ain
og s
az ines
ĠHou ston
az a
Ġdefin ition
ĠT un
ĠB omb
ak ed
Ġrepe ated
ĠPhilipp ines
c ons
Ġelect ron
197 3
P re
b ass
Ġd iam
ĠF ried
Ġro of
Ġcons ult
ĠYear s
Ġimpro ve
ĠGirl s
ĠW ing
ĠK a
Ġr ivers
Ġex erc
are n
Ġground s
Ġdoc uments
Ġcol lected
ĠDo ctor
Ġm ist
ell o
Ġcour ts
Ġprote in
Ġin aug
eop les
Ġ6 4
ĠMo ore
Ġfranch ise
Ġb udget
ĠBrazil ian
h us
Ġf ixed
Ġit ems
Ġin sc
ĠB ed
ĠR an
ĠStud ios
ay ers
Ġus er
ond er
Ġt ry
ĠK arl
ut ers
Ġcont ext
Ġout put
Ġdec ade
ĠPh ys
Ġref uge
Ġadv antage
Ġoffer ing
Ġt rying
ri ev
ĠIn n
Ġus ers
yth m
7 9
b ridge
in ces
ug oslav
ĠLt d
ĠB ron
ib l
Ġher self
Ġfin ishing
Ġrepresent ative
Ġpar ks
ĠIm perial
l ad
ĠC P
Ġdiv isions
ĠS ultan
ĠAust in
er g
Ġs ell
Ġr ich
Ġsepar ated
m osp
ĠS port
iv ate
ĠN a
ĠZ h
Ġsubs id
Ġd ry
ug ar
ph a
ĠRh if
ĠBrother s
Ġc ool
ĠHar vard
ĠBalt imore
ĠC emetery
ĠF riend
Ġk id
Q u
ot te
ĠR ick
Ġvol unte
197 1
Ġcy cle
ĠMu hammad
Ġent ertain
omm od
ol o
Ġshow ing
Ġprom ote
Ġprocess es
Ġrev ers
Ġpain ter
ĠMur ray
ĠTro phy
Ġnick n
Ġa er
Ġm ort
ĠCont in
A T
Ġp ron
ant ly
Ġstri ke
Ġprem ier
ust er
bor ough
Ġh ill
ĠN BA
Ġcommit ted
Ġopportun ity
ĠÃ ĩ
Ġterrit ories
Ġdif ferences
ĠConf eder
ĠS af
ĠF ood
Ġres igned
Ġinvestig ation
Ġreject ed
r ings
Ġth row
Ġle ct
Ġrel ative
Ġinter ior
cy cl
ĠRuss ell
ur an
l ig
Ġf resh
Ġm arg
ch i
Ġst ret
ĠK evin
Ġpass engers
ĠL an
b ishop
Ġcall ing
Ġd ensity
go ing
f ather
ĠS n
Ġret ained
Ġp ione
St ar
Ġdeg rees
Ġpers ons
usal em
Ð µ
ĠB eat
i w
l ong
7 1
w all
y les
Ġe g
Ġso le
ĠSen ior
ri or
Ġag o
ĠR ol
Ġfrequ ency
H er
um a
p ower
Ġprof ile
le te
iv ated
anc ouver
ĠProv incial
Ġcor por
ĠCroat ia
r ant
Ġclass ic
M L
ĠS R
ĠHar ris
Ġfund s
Ġnuc le
Ġexped ition
Ġm obile
ot ten
Ġfre edom
ĠArgent ina
A ct
ĠS everal
Ġimpr ison
ĠP C
20 21
Ġdeterm ine
Ġw ave
ĠH orn
Ġmed ieval
Ġdesign s
196 9
f e
Ġv oted
Ġacc used
ĠBar ry
Ġcompet e
in osaur
Ġp ul
Ġbro ken
Ġtw elve
onst ruction
ĠD C
P res
h att
og ether
Ġpr ime
Ġinst ance
Ġdesc end
ĠBy zant
ĠSk y
iss ippi
ĠOrgan ization
Ġp ed
ĠS ax
Ġint elligence
Ġstat ement
Ġcapt ure
ĠNor man
our se
ĠGr ant
Ġpurch ase
Ġs urn
Ġproduc ers
B ar
ĠAt hens
l u
rop s
Ġover l
Ġacc ur
ĠMc K
E ducation
Ġb atter
el lect
Ġown ership
Ġdetail s
Ġc rowd
Ġh air
ĠWh at
Ġaccomp an
Ġf ine
ĠF inn
ĠO regon
Ġdistrib uted
Ġl iqu
ĠL anc
E E
Ġd ie
ĠB ush
Ġnot hing
Ġin form
ĠG arden
l ar
ol ly
ĠP ap
ĠE ver
ĠE lement
Ġspok en
Ġf aced
Ġ19 13
Ġemploy ees
ĠP ir
ĠTh ough
Ġpop ulations
Ġspirit ual
ĠRepresent atives
ĠL ang
ĠG ard
Ġpr int
uss ion
U K
ĠB illy
Ġhom es
ĠUt ah
6 3
Ġcred ited
Ġrest rict
ĠSy mph
à ¸
Ġf rag
Ġed ited
vers e
ĠDef ense
6 9
res ents
Ġfact ory
Ġcommission ed
Ġ ri
Ġin fl
ad i
ĠTr ade
Ġrough ly
ĠO m
Ġstart s
Ġbusiness es
Ġpartn ership
ĠBrig ade
Ġoper ates
Ġob tain
Ġwe ak
Ġexpress ion
3 00
S ongs
Ġst ating
est yle
ell ite
ict ions
Ġ19 16
Pl ot
Ġc ards
oc racy
Ġco oper
atab ase
le ase
ĠL ost
Ġmed icine
Ġextrem ely
ĠT el
ĠW restling
Ġcommun ication
196 8
P art
ard o
Ġapp oint
Ġfound ation
Ġstand ing
Ġasp ects
id el
uris d
Ġt ons
Ġf ictional
ĠCh air
Ġauth ors
ip h
ĠCo le
Ġt ank
Ġst ring
Ġpl ate
ran ean
ĠBeng al
ens ions
ĠCub a
u ous
od ge
ran e
Ġal gor
Ġunder standing
ex ual
ol ph
Ġ189 0
Ġjun ior
ah n
ĠCon stant
Ġcover age
Ġcle an
ĠS ri
ĠW orks
Ġass ess
ĠMc G
Ġup d
Ġsched uled
ĠH ig
ĠN on
Ġlin k
Ġstat istics
ĠLegisl ative
6 8
R oman
Ġw atch
ĠG ib
ĠF all
ith uan
em en
ĠL yn
Ġro utes
ĠG ran
ab led
Ġown ers
ym ru
Ġr ates
Ġopp osite
ibb ean
Ġscient ists
Ġf ram
Ġsy nd
Ġsurv ived
h ost
ĠL in
Ġrequ ires
Ġexperien ced
ĠTh ailand
ind ing
Ġso il
Ġcoast al
ĠThe n
Ġacc ommod
ĠComm ander
Ġturn s
Ġnewsp apers
ĠC ook
ke ley
i able
Ġf an
ĠC R
iel der
y gen
Ġass ass
Ġret ail
ming ham
Ġsqu adron
F ebruary
M ajor
t own
Ġb oys
Ġm outh
Ġland ing
ĠMuslim s
ug u
ĠAnton io
n old
ĠF A
Ġagric ulture
ĠPubl ishing
J ew
Ġbo at
Ġnorth west
ĠInf antry
ic ate
ĠL ov
ĠN ord
Ġrep resents
S T
ĠA T
Ġ4 4
W rit
Ġtechn ique
ĠPrin cess
es ter
ĠF u
ig e
Ġoff ensive
Ġbene f
n ers
r ong
Ġn ortheast
Ġv eter
b ane
ph one
Ġlegisl ation
Ġthous ands
Ġin duct
ĠI l
ĠR ugby
Ġrest ored
ĠAz erbai
ĠBet ween
s uch
ĠA ber
Ġtrans ition
Ġmod ified
7 3
m at
ous es
Ġexp atriate
ĠPit tsburgh
C ast
S chool
ge bra
Ġn ations
ene z
Ġcharg ed
ĠF al
Ġbe ar
Ġper haps
s pe
Ġc old
Ġal leg
Ġem ot
Ġplan et
Ġtrib es
ro ke
ĠA R
Ġre ally
ĠD eb
Ġother wise
and om
and o
Ġcost s
ĠJer usalem
h o
Ġtex ts
H igh
ĠI owa
E P
s ch
Ġp itch
ĠG ulf
ĠN ative
ĠVi enna
Ġt or
Ġre ality
ĠSec ret
Ġapp ropri
ĠFrank lin
Ġpit cher
Europe an
F irst
p ir
Ġpre ced
ĠAm az
ĠMot or
f ish
ĠC ru
Ġwh y
pl es
Ġeng aged
aught ers
ĠHind u
ĠBanglades h
R ober
Ġc ourses
wh o
ĠMalays ia
Ġag ed
Ġdem and
ĠRail road
R O
Ġ vert
ay an
ĠSam uel
ĠBow ie
ĠAuthor ity
ĠHer itage
f riend
Ġw orth
ol ar
ĠJ ordan
Ġ4 8
ĠGu ide
Ġpract ices
Med al
C al
ĠW he
oc ol
ĠPe ace
achel or
Ġb ranches
ĠS et
am an
Ġ190 8
Ġmount ains
Ġh am
ot ype
ĠN aval
ann els
ĠG ener
Ġb acter
Ar ch
rap y
Back ground
Ġre ferences
ĠGl obal
Ġmer ch
Ġe ye
ĠN ik
Ġex ception
aster y
Ġregular ly
t ure
ĠS ee
ĠOn ce
Ġm art
ĠL ieutenant
ĠW ol
ĊĊ ĠĊ
ĠĠĠĠĠĠĠĠ ĠĠĠĠĠĠĠĠ
t i
ĠD J
ĠStew art
ĠAg ain
ĠTe le
Ġsk ills
% ,
Ġcomp onents
h ill
Ġ ign
ĠM iami
ĠI ron
se ud
ĠChrist ians
ĠCont rol
ĠM L
Ġrele g
Ġmed ium
Ġw orship
Ġclass ified
Ġass embly
Ġcompos ers
â ĪĴ
ĠR yan
Ġcom ed
ĠAb out
Ġsuccess or
196 4
ĠCam er
Ġun f
Ġcharg es
ament al
Ġmeas ures
Ġt ennis
Ġass umed
Ġfact or
ã ĥ
Ġs ession
ĠE very
ĠHe b
ĠChristian ity
Ġbig gest
Ġjourn ey
Ġc ited
ĠW y
Ġconcern s
Ġb anks
ĠP ur
ĠChrist opher
ĠJos Ã©
ĠV in
od ia
Ġun us
ĠCol lection
ĠAm sterdam
Ġfav our
ĠR ound
ĠY ugoslav
Ġphot ograph
as a
Ġass ault
Ġexist ed
Ġenc ounter
Sc ott
ĠF act
ens es
B uildings
ĠK y
Ġdo or
Ġcap able
ĠTai wan
ĠR a
Ġmov ements
Ġinv ent
Ġ15 0
Bl ack
M ich
ro c
Ġatt ached
che ll
Ġne ut
Ġlo an
Ġpaint ings
ĠSup port
b i
ĠL uther
19 50
ĠF ather
Ġhost s
ĠPlay er
Ġlook ing
Ġt ick
Ġhead s
S S
Ġw itness
ĠF il
ĠG i
Ġv eget
f eld
Ġf est
ĠM ans
Ġg ene
ĠI an
Ġpro hib
Ġmed als
Ġsk i
Ġsoc cer
Ġexec uted
ĠC rit
Ġk ick
Ġinv ited
Ġann iversary
ple te
uc ks
ĠHot el
Ã ¥
ren a
ĠCommun ist
uz z
D A
al ia
âĢ ł
r ating
ĠS peed
if er
Ġman usc
Ġlin ked
Ġbatt les
S ch
ĠR ow
Ġdel ay
Ġtest ing
Re ception
ĠAnt ar
oc a
Ġ4 1
ten ance
c i
Ġs un
ĠG or
Ġshe l
Ġreturn s
tt p
N T
Ġd a
Ġro oms
ĠJu an
Ġdam aged
oun ce
Ġgr ade
Ġcon vention
Ġsur g
Ġcorn er
d ers
Ġ rif
om pl
ĠMiss issippi
ww w
G BT
Ġcl in
Ġart illery
Ġcoach ing
Ġresident ial
ra k
ĠK ild
Ġim ag
Ġ6 5
ĠGerman s
in ction
ĠB ak
Ġsever e
ĠV ancouver
Ġut il
M y
j amin
et ry
Ġpl us
ĠAll iance
Ġvir us
z h
ĠH op
ĠIndepend ent
Ä «
Ġche ck
d r
ĠN ever
Ġsu fficient
ĠAdminist ration
en berg
ĠH ere
ĠI ce
Ġ19 11
hatt an
ur u
Ġmet res
N or
Ġadv oc
Ġprofess ion
Ġstar red
ĠMet ropolitan
oc ene
Ġdis miss
Ġinter ests
ĠÃ ī
Ġcandid ates
Ġpict ure
u is
ĠP a
Ġv ide
Ġsup erv
Ġvis itors
Ġinflu ential
Ġincreasing ly
Ġ *
Ġter ror
Ġrequire ments
Ġhyp ot
ĠC elt
ĠE nergy
ast e
Ġren ew
M in
Ġg arden
Ġar c
Ġsecond s
ĠAnd re
Ġshoot ing
Ġpolic ies
h ab
Ġ ere
du ctions
196 7
ĠMatt hew
D C
Ġd ating
ist ant
ĠBl ues
Ġat mosp
P ort
á ¹
Ġf ly
Ġd ies
ĠY outh
Ġcol our
Ġunder t
Ġrepl acing
Ġph r
ĠCar ibbean
is hers
ĠBuff alo
E FA
ĠMont real
Ġsevent h
at ically
ĠT an
ĠAl aska
ĠD et
m od
n ie
Ġd uties
ĠK az
Ġtra ined
Ġdescrib e
Ġseg ment
Ġch ose
Ġget ting
ĠUk raine
ĠAg ency
ĠG iants
Ġj ump
Ġpo em
ĠMarg aret
I P
Ġf lying
Ġwhere as
k now
Ġnot e
ĠSat ur
c alled
l s
Ġbu y
Ġinj ured
Ġdra wn
ĠB eg
Ġan ch
Ġw ides
ĠW right
ock ed
ĠB rew
ĠN ag
Al bums
ĠDon ald
iter ranean
d o
ĠP ack
pp ing
D F
om es
ĠJ ay
ĠPl ace
Ġstre ets
B orn
Ġa ware
ĠB art
Ġdep ending
ĠP ed
Ġch ance
Ġprot ected
on om
ĠL ank
Ġdefeat ing
Ġven ue
ĠKel ly
ĠElement ary
ĠN ash
aw ay
app ing
ĠB ull
Ġrep ro
Ġcar rying
Ġexhib ition
ocr atic
Ġforest s
G A
ĠS pe
ĠK u
ĠY ank
Ġbusiness man
claim ed
d oor
i ency
v ia
Ġm ir
Ġsec retary
Ġdr iving
Ġinn ov
ĠSatur day
Ġ( ).
ĠB apt
Ġ5 5
Ġcontrib utions
ĠBir mingham
Ġ3 9
Ġoccup ation
M E
p read
Ġs uff
ĠLa ure
ĠTreat y
Ġsup posed
ĠBor ough
ĠColl ins
et a
Ġst ood
ann y
196 3
ĠHaw ai
Ġsomew hat
L C
ĠC hem
ĠH amp
Ġfl o
? "
T wo
Ġf oss
ĠCh all
Ġcontrovers y
ĠWalk er
ĠD ance
194 5
Ġreplace ment
Ġwithd raw
Ġf ired
ela ide
ĠHung arian
h um
Ð ½
ĠM es
ĠUp on
Ġprep ared
Ġc risis
Ġs ave
ĠP ear
ĠR ey
ri x
Ġsing ing
Ġa head
Ġw arm
ou stic
Ġmin ing
Ġgr ant
Ġacc ompl
Ġadd ing
ĠBulg aria
Ġadapt ation
ot al
Ġcon stitution
ĠV ik
ris bane
Ġquest ions
m pt
Ġstop ped
ĠHung ary
Ġf al
ur ers
Ġjust ice
Ġchampionship s
Ġaccompan ied
Ġd ress
ĠC BS
Ġsubject s
ĠHistor ical
p ine
ryst al
P ol
ĠCar n
Ġn om
ĠJ ess
ĠJohn ny
Ġalcoh ol
ĠAl t
ane ous
Ġ190 6
Ġpro port
Ġte achers
W A
ĠR angers
ab ilities
Ġsk in
ĠÃ Ĺ
Ġaccount s
ĠL ate
ov iÄĩ
Ġschem e
Ã ´
Ġl ists
Ġe yes
Ġman ner
Ġbro wn
ĠWay ne
F ootball
ĠF ive
force ment
z o
ur i
ĠD yn
ab et
Ġinit i
Ġa f
Ġpra ised
Ġp eoples
ish ment
Ġres ign
N C
ĠP as
ĠS ox
writ ers
Ġsat isf
e ast
Ġf ear
ĠA y
ĠG oth
Ġen h
ĠMor gan
C rit
ĠD oc
Ġan ime
Ġj urisd
aw are
Ġshe ll
ont in
Ġdi agn
Ġarr ival
Ġs outheast
ub b
Ġex ternal
Ġsur re
B ur
ĠC atal
Ġrel ation
Ġtrans mission
ĠTig ers
Ġf ishing
ĠH ud
Ġceleb rated
ĠB ox
Ä ĥ
op t
ri pts
ĠTam il
od a
Ġval id
Ġrespons ibility
s er
ĠC art
ĠH ug
ab il
196 6
ĠCommun ications
Ġlong est
Ġlearn ed
Ġreg iment
Ġmembers hip
f are
Ġex ists
Ġcritic ism
C ymru
ĠAnd y
Ġconsider able
o ons
ĠM aur
S ub
Ġ ib
ĠCharl ie
u ber
se ct
ĠV ideo
Ġparticip ate
ĠKenn edy
Ġte ach
Ġ190 5
arg o
Ġindic ate
om as
ĠMark et
ĠR ain
Ġwhe el
is p
Ġb en
Ġn aval
Ġsp aces
J ames
M any
is ations
ra ctions
or ig
Ġdep os
Ã¶ r
ĠVill age
Ġform ally
Ġprot est
ĠBos nia
ĠSymph ony
Ġt act
Ġin her
Ġm ales
ĠR est
ĠL et
Ġphen omen
A g
b oy
ĠPal est
ĠCent ury
196 5
ĠBer keley
aval ry
ĠAthlet ic
Ġh a
ĠO w
oth y
ĠBl ood
Ġdr ivers
Ġweek ly
B I
E p
ĠL am
ĠTown ship
Ġdeliver ed
" ;
ĠL ower
ak ia
Ġass emb
Ġpublic ations
com p
Ġperiod s
ĠMr s
Ġst able
Ġassist ance
ript ions
f inal
Ġhead ed
ĠBern ard
ic on
ĠS hip
ub le
Ġpresident ial
ĠR ud
ĠV ice
Ġcomp ounds
ang erous
forman ce
Ġcritic ized
ĠB ase
Ġ4 3
ĠSc ient
ĠM ission
Ġoccasion ally
l en
Ġp ool
Ġas c
um ph
ĠMe an
v i
ĠE qu
ĠCh ampion
Ġar ranged
Ġactiv ist
Ġmanufact uring
ĠPers ian
B M
h r
ĠL ib
Ġ5 2
ĠSing h
cycl op
ad au
St ate
ĠEx ecutive
Ġinvest ment
Ġens ure
Sport speople
Japan ese
A ng
Ġin stitution
ĠSe attle
ÃŃ n
Ġw rest
Ġd uty
Ġmod e
c ussion
Ġth ick
sp an
Ġbroadcast ing
k ee
m ates
ro d
ĠR uth
int end
Ġm anga
ĠR av
ul ating
ure au
ob by
Ġdecl ined
Ġachie ve
ĠSev en
Ġsamp le
Ġte en
Ġdec line
Ġdesign er
196 2
Ġconc rete
Ġwides pread
ĠO bl
ĠMan hattan
Ġinf antry
ĠâĢ ĺ
ĠGra ham
Ġst ages
Ġcomm emor
rain ian
ĠT on
ĠJ ose
Ġgrad uate
ul us
S an
Ñ Ģ
ĠL ad
ĠL ock
oc he
Ġpl ane
Ġpubl ishing
Ġattrib uted
Ġb at
Ġres erve
Ġ190 3
Ġbound ary
Ġc aught
Ġjoin ing
udd en
Ġser ial
ĠMicro soft
' re
Ġde leg
Ġmess age
ĠPro te
E st
re hens
ĠM ess
Ġsold ier
re leased
Ġb ed
I nt
n on
Ġb ond
am ents
ĠL ions
ĠV ers
op y
ang ed
Ġgreat ly
Ġcirc uit
R ich
Ġschol ar
a ired
Ġre un
Ġform ing
Ġexpl os
a ire
ĠT ax
Ġag ency
Ġere ct
at us
Ġfilm ed
duc ational
Ġem peror
ĠTh or
Ġmark ets
ĠS om
ac re
ĠMor ris
inc inn
Ġo ri
SP N
Ġuns uccess
Af ric
ro t
Ġg ang
Ġuse ful
Ġeven ing
ĠAg ric
ĠTer ry
in us
ĠT ower
od ore
Ġchang ing
Ġspe ak
b oys
ĠAdd itionally
Ġt ort
ĠM ond
Ġcharacter istics
Ġtri p
Ġsuper ior
Ġb ridges
Ã© s
ĠBroad casting
d d
á »
e enth
ĠK it
Ġex ecut
E conom
as i
Ġn av
ĠG ary
ĠJ azz
ĠTra il
Ġtrib e
A L
E ast
ĠF rid
ĠAd ams
Ġtem por
ĠAngl ican
enez uel
the less
Ġpres erved
ĠH end
att ers
incinn ati
ĠT rad
Ġ188 0
ĠRob inson
ĠR ap
Ġmiss ions
as hed
ĠL ud
Ġen l
Ġappear ing
Ġeffect ively
ĠG riff
Ã© t
ĠLim ited
ĠE ss
ell i
Ġsur f
ĠPrim ary
o ard
Ġrec ru
Ġaud io
ĠColon el
b at
Ġs elling
ĠCh and
Ġev al
Ġlic ense
ĠM ort
ĠP age
Ġdisc ip
Ġlast ed
Ġrepresent ation
ĠL anguage
ag g
ĠCap ital
Ġthous and
Ġp ure
Ġm ental
Ġst ress
ĠE ston
Ġor chestra
Ġint ellect
ĠPat ri
h and
Ġc able
ra ham
ĠN atural
Ġinf rastructure
song writer
ĠC hel
iv ation
ĠF ern
ĠDe an
ĠAd elaide
Ġemer ged
i ors
Ġch annels
Ġrec re
ĠEx t
Ġtun nel
E v
P aul
ill o
Ġtransport ation
he red
Ġfl ed
Ġconcent ration
Ġfin als
Ġstrong ly
Person nel
h op
r ass
in ations
ur st
et on
Ġbe ach
uss els
ĠAng lo
Ind ian
M I
Ġd ub
ĠG on
ĠGu y
195 8
Ġhor ror
Ġcred it
S U
l ater
Ġf ile
Ġre nd
ĠN BC
ew here
ĠNov a
ĠBel arus
ĠCh art
Ġ4 7
ĠRich mond
Ġd owntown
ĠB urg
Ġcover ing
Ġt ied
Ġf illed
ing ly
ĠĊ Ġ
ount ry
ence ment
Ġprocess ing
Ġmass ive
Sc ot
h t
Ġre ception
ĠP ay
ĠG ill
iss ue
ĠThom pson
ĠJim my
m ate
em ale
ri el
ann er
Ġs oul
ĠAss oci
Ge orge
! "
ĠR ena
ie ge
ra ce
Ġse ed
port ed
Ġ5 1
Ġcontrovers ial
ĠTrain ing
Ġentertain ment
L ater
h our
or er
ap se
amp s
ors es
Ġjud ges
Jew ish
ĠM all
ĠL ane
ĠPh oen
gress ive
Ġd ated
il k
ĠK o
Ġcollabor ation
P al
ĠS aints
Ġb ird
ĠE nt
ate gy
ug s
Ġstr ategy
Ġdeb ate
Ġsurround ed
Ġdom ain
in ian
Ġw ounded
Ġtrans c
ĠColomb ia
r ors
ĠC ox
am o
Ġr ating
ather ine
Ġexpl ained
ĠClass ic
ĠD aily
ĠN i
Ġan throp
Ġsouth west
M usical
Ġs ort
il st
ĠD ub
ok er
Ġher itage
St ud
Ġste am
ĠStand ard
v ant
op al
Ġhistor ians
Ġtem porary
ĠEgypt ian
m und
u in
ĠC her
Ġl ingu
Ġgro wn
C urrent
ĠF itz
Ġind igenous
ĠF alls
eg as
ĠBrook lyn
ĠC rim
nt il
O C
h arm
194 0
ĠVol ume
Ġnorm ally
f iction
Ġv ast
rist ol
P C
ĠC ulture
ĠP rom
Ġdis pl
hem atic
esc ription
Ġcontinu ing
ot an
Ġrat io
e o
ĠE mer
Ġ4 6
ash i
Ġf iled
un ar
ath y
Cl ass
uc lear
Ġad mitted
Ġsome one
St ation
Ġgrad u
Ġbene fit
Å Ħ
ĠM i
ĠO ur
is ition
Ġsy mpt
Ġdid n
Ġcust om
ĠCE O
Ġille gal
Ġopin ion
ĠM other
Ġstri p
Ġsh if
Ġreg istered
fess ional
Ġfind ing
ĠCarl os
Ġportray ed
er ted
le ans
ĠT ak
ĠB orn
ĠW ard
Ġ190 7
Ġt ack
ir k
Ġnet works
ĠProtest ant
th a
ess ions
Ġcol ony
Ġsurv iving
ĠWall ace
Ġg iant
ater n
M C
Ġn one
ĠR ules
ĠFl ight
aur us
Ġ190 9
W orks
ĠK an
Ġpen alty
Ġweap on
Medal ists
Ġmod er
ĠHer z
Ġre cept
and al
Ġ190 1
ĠDig ital
An other
ĠCamp bell
Ġunivers e
Rober t
on omy
ĠBen jamin
rupt ion
d in
Ġin put
Ġkil omet
ĠOffic er
ĠMed iterranean
Ġrestaur ant
ĠIndones ia
ĠP ra
us ing
Ġrep utation
row s
Ġadvert ising
ĠK now
ĠSp irit
Ġvis ible
medi ate
ĠClin ton
ĠH as
ĠR ace
196 1
Ġ190 2
Disc ography
ĠR io
Ġsh ares
ark ed
Ġext ent
Ġopt ion
Ġbelong ed
ĠB av
ri p
Ġpart ly
ĠPet ers
Ġrapid ly
ĠA rena
ĠI v
Ġsign s
Ġann ually
ĠHol land
r ity
Ġh uge
ĠM ind
Ġam ateur
Ġl ov
Ġper fect
ail s
Ġadop t
Ġsaf e
Ġh al
ĠN et
in er
Ġst rict
ud es
ĠAthlet ics
c ut
Ġc ous
ĠSt ars
Ġsound track
ĠLeb an
Ġb es
Ġ1 20
Ġstr uck
Ġarrang ement
ĠP un
ĠV ic
Ġ190 4
Ġgrad ually
Ġtre ated
ĠBC E
ĠInd ians
ourn ament
ĠRes erve
Ġfem ales
ĠEconom ic
Ġunderst and
ĠByzant ine
Ġm or
ĠA ld
os ph
Ġhappen ed
Ġs ter
ĠW oman
Ġrun ner
Ġprincip le
Ġswim ming
ĠArchitect ure
u y
ab ul
Ġdef ence
ĠWeb site
Ġliqu id
ĠRe f
uk i
Ġmag azines
ĠMet ro
Ġthe at
ĠB risbane
Ġcon j
Ġmain tenance
Ġany thing
195 9
Ġchall enge
i est
ĠL ithuan
ĠF el
Ġext reme
Ġaff airs
Ġinvol vement
Ġconv icted
Ġprote ins
Ġchap ter
ĠN elson
ĠMay or
Pro duction
Ġtouch down
ro se
ĠThe ater
oph one
Ġminim um
ew ay
Ġinter change
Ġsim pl
Ġpri ze
Ġabs ence
id o
ĠE le
Ġk ings
Ġcont roll
Ġass ign
ĠArk ansas
Ġt ries
ĠN av
Ġv ic
ĠV el
ĠMed icine
Ġdest ruction
Ġsettle ments
E A
W ar
Ġox ygen
m i
on ies
Ġsh ore
Ġthem es
Ġent ering
Ġind icated
Ġbring ing
ĠMunicip ality
ĠC arm
Ġelect oral
Ġclass ification
ĠMov ement
a uc
ĠM ult
rib ution
Ġdiv or
Ġv ision
Ġloss es
H owever
Ġgen etic
Ġge omet
Ġcateg ories
ĠCat hedral
Ġstay ed
ĠR acing
em pt
Ġrel ief
w ig
ĠS ite
ĠA qu
Ġcl im
ĠAn na
ster y
Ġpred ecess
ĠVictor ian
it ter
Ġin ner
ĠJ ason
ĠEd ition
Ġdrug s
st ad
i op
st ers
Ġg ather
ĠAn at
Ġsent ence
d ess
o ft
ĠO range
ĠIsrael i
o om
Ġsw itch
l ie
ĠB enn
Ġv ow
Ġbal ance
ĠP ant
Ġqual ified
Ġjob s
Ġdeploy ed
Ġg ets
ĠIn vest
Ġac know
ĠC le
ist ical
Ġinter pre
ĠOr leans
Ġrank ing
f oot
Ġm ac
Ġn it
Ġrele ases
Ġdeb uted
195 6
ĠKir k
B el
Ġf alls
ĠC ou
Ġy ield
ĠCl are
Ġpar am
ĠRoman ian
ĠMod el
S W
Ã ¦
Ġm ob
Ġh ip
ew ork
ĠEv ans
Ġpercent age
ĠSte el
U s
ĠS oul
ĠL arry
ĠAn cient
Ġb on
ir ation
Ġorgan isation
Ġident ify
ok ed
iv ia
Ġth in
ot ton
Scot land
Ġme ets
Ġcharacter ized
A thlet
ch o
ĠW W
it ars
ĠAg es
Ġplatform s
or ous
Ġp ric
ĠM ack
ĠSal v
Ġpred omin
b ody
Ġus age
Ġcolon ies
ra ge
Ġprov inces
l ik
Ĩ Ĵ
Ġthe rm
Ġf il
ĠUn it
Ġsign if
Ġinters ection
b ut
ĠS ud
Ġl oyal
ple ment
Ġdomin ant
Ġib n
ĠRoman ia
Ġdiscover y
ĠHeb rew
ĠIn s
Ġbas es
Ġprom pt
ch ing
ĠSt ein
Ġsk ating
Ġimmedi ate
ĠS S
ĠP ad
Ġcomp uters
4 00
M c
Ġcomp onent
ĠCroat ian
it able
Ġth rone
os y
ific ial
elt a
ĠMer c
ĠBuddh ist
Ġto ols
ĠM aj
Ã «
id ency
Ġsec ure
Ġpo ets
ĠDef ence
Ġf ruit
Polit ical
Ġro se
Ġinter ested
ar ant
ro ph
ĠD og
Ġst yles
Ġal gebra
ĠStan ley
ĠMit chell
b rid
m ont
Ġm ine
ĠP sych
Ġg olf
av el
Ġsub st
Ġinvol ves
Ġ187 0
Ġtemper atures
ĠC ricket
195 7
Ġequip ped
Ġd aughters
com ing
ĠAzerbai jan
ĠB ranch
Ġcred its
S oc
Ġc atch
Ġpo ems
Ġw ars
op ter
Ġle agues
ĠAn im
Ġd rop
ac le
Ġtra il
Ġver te
Ġcontinu ous
Ġcam era
ss on
195 4
ush ing
Ġdisestab lished
T ax
Ġb rig
Ġd ual
ĠCh ron
Ġper cussion
Ġprov ision
. '
Ã ł
Ġt anks
ĠF ull
Ġad ults
Ġd anc
ĠA ction
Ġform ula
ĠComp uter
f low
Ġt ropical
Ġn eck
ĠD iam
ĠV I
Ġ5 4
Ġbl ocks
let t
osoph ical
Ġtradition ally
R C
à ®
Ġh olid
ĠG un
Ġgr ass
Ġthe ories
Ġe mp
Ġmathemat ics
ĠCost a
ic as
ĠS i
ĠD od
ĠF ight
Ġmon ument
Ġth ing
Ġra ise
Ġdistingu ished
ĠH om
ĠMar s
oss ible
ĠBr uns
ĠSerb ia
Def unct
Ġf old
Ġtrans mit
ĠIn stead
ĠOn line
Ġexperiment al
ĠH em
az e
onym ous
ric ted
Ġess ential
Ġvictim s
pro fit
Ġvide os
F ictional
est one
Com mun
ĠFre edom
Ġinstrument al
Ġunder ground
u ction
Ġt ests
ĠCar ter
Ġden ied
m aster
og le
Ġsw it
193 9
Ġlow est
Ġz ero
Ad d
M al
Ġs leep
og a
Ġne uro
iction ary
Ġcolle ctions
H z
R ed
Ġ ),
Ġb one
Ġcr ash
m ary
ap logroup
ov ina
ĠTr inity
Ġsent enced
ĠElect ric
ĠMethod ist
b ow
ul um
ell ion
Ġte eth
Ġcr imes
Ġwind ow
Ital ian
S im
U nder
p op
on so
ig g
ĠI RA
iz er
orks hire
ĠHud son
ĠB ey
Ġwood en
Ġsu icide
ig rated
ac on
ri ers
ĠCh amber
ĠEx p
Ġunus ual
ter ior
ort ion
Ġview ed
ĠS ak
ĠV enezuel
ĠCard inals
Ġe at
Ġc od
am ics
ul i
ĠColumb us
ĠFac ulty
ĠC incinnati
ĠZ e
Ġlab our
edd ing
T ur
as m
ut or
Ġmat hematic
Ġappro val
Ġant ib
Ġprop osal
ĠKe ith
Ġprin ted
Ġ1 000
ce ived
ican ce
ĠAl ice
Ġtrans form
Ġviol in
Ã¼ n
urric ane
P ost
f ire
ĠH ab
ĠG reater
Ġaffili ate
ĠAl ger
Ġinteg rated
Ġhundred s
l iving
Ġbi ography
ĠGo i
G allery
Ġt ell
ĠB aker
Ġdial ect
ĠPolit ical
I m
Ġtrad itions
Ġvol umes
Ġdomin ated
w inning
ĠS ay
ĠL l
aj a
S E
ro ck
ĠG ray
ĠE SPN
ab ad
Ġart istic
Ġdr um
Ġdem olished
Ġexper iences
sen al
ĠIran ian
ren cy
ĠPro p
Ġflow s
Ġvess els
ĠBruns wick
Å ¾
Ġdog s
ĠObl ast
ed a
ov o
ĠHe avy
iven ess
ĠMP s
L P
b us
Ġpartic les
ĠS id
Ġcomp lic
Ġro ots
R ussian
n ell
ĠMarsh all
Ġb rick
ĠR ub
ri en
former ly
Ġhun ting
d ef
o an
ĠS uch
ĠB ristol
uck land
Ġinj uries
et ition
ĠH old
Ġwrit es
ĠBr un
Ġdeb t
Ġgen re
ĠMag n
Ġcomplet ion
Ġconne ctions
Mich ael
F B
st own
Ġg ate
ĠD ragon
ĠG a
Ġph one
ĠD om
Ġsat ellite
Christ ian
' ll
O ut
Ñ ģ
ru ctions
Ġoper ational
ateg ory
ĠCons ervative
ic ial
oc c
Ġjournal ists
te g
Ġag encies
Ġadv is
en burg
Ġe asy
ĠL P
ok a
Ġgovern ments
au er
Ġsk aters
ĠSar ah
R I
b ul
ĠG ate
Ġo cean
at che
ĠS r
Ġse es
iz z
Ġorig ins
Ġsee k
Don ald
Ġ id
Ġs udden
ĠS ign
Ġpal ace
Ġdivers e
Ġs end
am ine
Ġg one
av ia
Ġpart ially
Ġacc ord
Ġperson ality
Ġkey boards
ĠCelt ic
it ations
ab ric
ust ed
Ġexpl o
Ġrelationship s
Ġconcern ed
p m
ĠA er
ol ition
ĠM aced
Ġch lor
. ),
ik o
ĠCan al
Ġphys ics
Î ±
ff ield
Ġint ention
N P
l Ä±
il ty
Ġel der
193 0
Ġfrequ ent
Ġag ents
Ġlim its
Ġapparent ly
B us
ĠB ureau
ig ion
em e
Ġpattern s
ĠF isher
Ġex ceed
Ġelect rical
ĠProte ction
ic ular
ĠT u
cast le
Ġclaim ing
ĠS ah
ĠB eck
ĠE vent
art ing
ĠPr incip
Ġimplement ed
Ġl ose
ĠJ erry
ĠK ap
ĠIs a
sc ale
Ġscient ist
Ġchem istry
T im
p ent
eg ro
ĠPro f
ĠG round
Ġ189 8
Ġrul ing
Ġsuppl ies
T our
Ġs ax
ĠCom mer
Ġpass age
Ġsympt oms
i ations
Ġc attle
ĠC ov
Ġcent ers
195 5
ĠDen ver
Ġc up
Ġto w
ĠR y
Ġsupport ers
Ġmechan ism
Ġp apers
Ġre nt
S M
em ed
ĠSecond ary
ĠHamp shire
g ate
om on
ĠK r
Ġimm igrants
Ġconvers ion
Ġplayoff s
Comm encement
ash a
Ġexper t
Ġbi ological
Ġmarket ing
S econd
er ia
ĠW a
emb le
ier ra
Ġprincip les
Ġp ip
i our
Ġapp ly
Ġrem ember
ĠPl ant
Ġident ical
Ġdetail ed
Ã ª
ie g
Ġpubl isher
Ġterm inal
Ġstat ue
ĠPri or
B ra
H A
ĠC ass
ĠR and
ri ors
Ġr it
Ġevery thing
Ġr andom
Ġcompet ing
Ġbeg un
Ġattract ed
Ġathlet es
Ġfest ivals
b el
e as
ĠY orkshire
Ġmov ies
Pro t
Ġsusp ended
ĠAbb ey
Ġc ash
ĠB ald
Ġex cess
ens on
che st
Ġrel ocated
Ġposs ibility
ĠUk rainian
Ġcas ual
ĠC ond
ĠMar ie
Ġ5 6
Ġ6 6
Ġmov es
y ers
it is
Ġm os
over y
ĠPen insula
R L
ix on
Ġne ither
Ġindic ates
E D
ĠC old
Ġch rom
C he
D escription
ĠR ico
ĠG et
Ġdisc ontin
Ġsubstant ial
ĠHit ler
ĠU C
M ale
Ġclos er
Ġbound aries
ĠBelg ian
Ġlicens ed
h aus
The se
Ġev olved
Ġmin ute
Ġchild hood
Ġelev ation
Ġpeak ed
p in
Ġtr uth
mir al
t rans
ĠAl bum
ann on
Ġgener ated
D r
m aking
re ction
ĠCh ad
ĠSy ria
Ġturn ing
Ġproduc es
unc redited
ĠBulg arian
Ġw rong
Ġh orn
ine a
Ġlin ear
Death s
Ġe ighth
ĠD ays
Ġprodu ctions
ĠUr ban
it ure
Ġm emorial
ach i
ograph ics
ĠPier re
O per
Ġf ighter
uss ia
ĠPri x
ĠSystem s
ĠArmen ia
m aker
Ġw ings
ĠP erson
Ġwrit ings
Ġer ror
u ations
á ĥ
or o
ĠL GBT
Ġpart ial
Ġmin isters
E m
Ġdis order
sc ar
Ġremain der
over ty
ty pe
Ġdr iven
urs ing
ĠFI FA
K ing
ĠJ ama
end ar
pr us
ĠBr ussels
Ġspe akers
Ġmechan ical
Or gan
h u
ĠM ong
ag s
Ġconn ect
ĠMic hel
c m
f olk
Ġf antasy
ag re
Ġdra f
Ġresear chers
8 00
B r
al ph
Ġcom ics
are st
Ġorigin ated
ĠDep uty
Ġdise ases
Ġdepart ure
f ree
anc ell
Ġcompet itive
Ġincre ases
195 3
enc ing
Ġerect ed
Ġhabit at
H ung
U p
Ġtrad ing
ĠBudd ha
ĠMov ie
Ġcompar ison
A ir
h ai
p eople
er ic
ĠO il
C ap
Ġe mpire
ĠSt orm
ĠSe ason
bre ak
Ġencoura ged
Ġinterpret ation
es ar
ĠT ol
ĠU EFA
amp les
Ġcan c
Ġreg ime
Ġbank rupt
Ġthreat ened
G en
as p
ĠN ation
Ġad min
Ġvar iant
. âĢĿ
er k
ey er
Ġhon our
Ġdraw ing
w right
al us
ur ring
ip per
ec ution
Ġsched ule
Ġrecomm ended
Ġc ul
et ween
Ġstep s
ĠHor se
C ons
c ase
i ology
u art
19 20
Ġra c
ĠGl en
Ġmet ers
195 2
Ġpain ted
ĠR oll
Ġg ram
Ġfr ame
Ġpre gn
aud i
Ġcorrespond ing
ĠPict ures
Ġsurn ame
B ig
D espite
al g
Ġdep icted
ĠAct or
Ġabs ol
Ġhy per
Ġnob le
ĠMach ine
h is
Ġb ishops
ĠRob in
d y
ĠV as
Ġim perial
Ġdr ummer
Ġconstitu ency
R adio
Ġst im
Ġdep th
ĠUl t
Ġfem in
Ġemer gency
Ġrare ly
Govern ment
ĠT ob
ĠT ournament
ub s
ip ped
ĠFor mer
ro v
ĠPhoen ix
ĠB ass
Ġatt orney
Ġann ounc
ĠNap ole
on i
ĠDi ocese
Ġappropri ate
u able
19 18
Ġ189 5
Ġconstit utional
it ime
om orph
Ġinst ruct
Ġd inosaur
ĠA FL
Ġrest oration
o que
ĠC our
Ġor bit
Ġland scape
ĠSerb ian
Ġhydro gen
T op
ĠS now
ĠE ug
av an
over e
Ġkn ew
Ġmon astery
Ġelev en
ĠKild are
J os
Ġo uter
Ġc inema
Ġf ix
Ġal ph
Ġem pt
ĠEn cyclop
Ġexec ution
ĠBapt ist
f ielder
h y
Ġd ream
ĠM ick
Ġinst ruction
ĠS alt
ĠR abb
ĠO ct
Ġmar ine
Ġamong st
194 7
ĠOl iver
Ġhor iz
U C
f ers
al ysis
ĠS ide
Ġd rew
Ġre pr
isc opal
Ġcontrib ution
grad uate
Ġrom antic
% ),
' ve
S D
V ill
ĠT ag
Ġen cl
itar ian
194 2
osp itals
Ġconf ig
Ġhelp ing
Ġphot ography
Ġexc av
Ġc ave
if ies
Ġel se
Ġide al
Ġb anned
ub a
Ġag greg
Ġdo ct
ĠAb u
Ġsuit able
u its
stit utional
ĠSm all
ill es
ĠAb raham
194 8
Ġindust ries
ĠCommission er
Ġdon ated
as er
Ġminor ity
ĠB ud
ĠWar ner
ĠPark er
Ġvari able
is ode
Ġw ire
ĠC hen
ĠJ oy
Ġac oustic
193 8
Ġarg ument
ĠJon athan
p at
Ġf urn
ne x
Ġpract ical
Ġfund amental
Ġtour ism
Ġtreat y
Ġspe aking
Ġs alt
eg ovina
Ġsupport s
ĠCra ig
ĠRhe oli
n ew
ol ics
Ġreg ulations
Ġexpl an
rehens ive
i ast
Ġh at
ĠB und
ĠK um
b ie
ĠI b
ond a
ach ment
194 9
Ġp ian
te enth
ĠZ one
Ġgu itars
Ġreb uilt
Ġce ased
Ġrh ythm
Ġoccas ions
iv an
ĠAr ist
ĠHar rison
Ġexc ell
Ġexclus ively
Ġin sect
ĠC row
Ġint ent
ĠWar ren
Ġanal og
g ame
ĠN am
og an
ens ation
Ã¶ n
Ġsuffer ing
Ġup grad
Ġc a
ĠS ongs
ĠB ath
id al
Ġwas te
ĠL amb
Ġj u
194 1
Ġconcern ing
Ġbeaut iful
R et
f inals
ĠM ix
ĠE sp
The y
Ġrul er
ĠBen ed
ĠFin ance
Ġill ness
Ġf at
et ary
Ġg ender
ĠD rag
Ġcol ors
er als
am er
ĠF r
Ġun cle
ĠPh ot
Wh at
Ġ186 0
Ġhard ware
Ġdisp ute
ĠCub an
Ġcous in
z ym
at ra
Ġs in
ĠP el
Ġed itions
Ġorgan ic
Th omas
Ġmiss ed
Ġclear ly
ĠTerrit ory
ig o
ĠR ing
Ġco at
ĠConfeder ate
ĠM ap
ĠH unt
ot he
Ġloc ally
Ã¨ re
ĠTurn er
O N
ĠAd v
Ġmer ger
ĠUnivers al
Elect oral
E nd
Ġt on
ex p
194 3
Ġcho ose
Ġsurg ery
P A
ĠB od
ĠP le
Ġexp ect
Ġparticip ation
Ġsign ing
ane ously
Ġten ure
Ġvot ing
Ġpremier ed
b r
on ly
Ġin hib
Ġal k
ĠE U
qu ir
Un ivers
ĠIm m
Ġmeas ured
Ġwind ows
M et
ĠN umber
Ġcount ies
orm al
Ġ189 9
ã Ĥ
ĠA ch
R ock
od ium
ah a
ĠMil an
ĠA j
ap ped
Ġstud ios
Ġaffili ated
str ong
Ġliber al
Ġw et
Ġb id
Ġpat ron
Ġreported ly
Ġstrugg le
w ald
ar ians
Ġ2 50
Ġhistor ically
Ġfac ilit
ĠBut ler
Ġbenef its
ip er
ĠOper a
kins on
Afric an
j ection
Ġa qu
il ia
Ã© n
Ġgener a
Ġinduct ed
M art
b acks
Ñ Ĥ
Ġw restling
Ġf ur
Ġm amm
ĠSing les
spe aking
Ġsignif icance
os lov
ĠÂ ½
Ġconvent ional
b es
p ers
Ġre duction
Ġcons cious
ĠEx per
Ġsol ar
de en
ĠSim ilar
Ġmanufact urers
F amily
ĠI van
Ġch amber
Ġpublic ly
Ġpers p
ĠSo ft
ĠBarb ara
Char les
j ab
o j
ĠR at
ul u
Ġsp in
Ġcons ervation
ĠCur rent
hol m
ĠA th
ĠUn like
ens ively
o il
Ġm atters
Ġtermin us
ĠP A
ig s
ov en
Ġsp oke
Ġsh ift
Ġestablish ing
ploy ment
e als
Ġb right
Ġany one
ĠC ay
ĠH ugh
ge on
act s
Al umni
ĠThere fore
Ġs ight
ĠC ultural
Ġatt ractions
Ġemploy ment
ĠKn ights
Ġenjoy ed
Ġcorpor ate
or p
Ġrem ove
Ġexp ensive
Ġappoint ment
e lection
Ġ5 3
ames e
ĠBar n
ĠDr ive
ili ar
ĠSen ator
H E
ra it
Ġsc ope
hel m
Ġ188 8
Ġtre nd
Ġmurder ed
it ially
ĠV erm
Ġexp osed
Ġdiscuss ed
Ġphilos opher
Ġt ie
re ck
ĠB ert
Ġr u
ang le
194 6
place ment
Ġrecover ed
Ġprefer red
ĠNich olas
g ence
Ġb in
av or
Ġsim ult
Ã¶ y
Ġgra v
O L
Ġb orders
as ant
ĠC ob
ĠP il
Ġnomin ation
ĠRheoli adau
Ġm o
ĠD ra
ĠA uckland
ĠP rad
ir i
Ġsac rif
Ġaim ed
Ġcircum stances
ĠHerz egovina
d isc
Ġd angerous
ĠL ear
ore n
Ġcar ries
ã ģ
ĠAss y
Ġsee king
ĠL aur
ĠForm ation
ibl ical
Ġalgor ithm
or se
Ġb rew
ra cks
vious ly
Ġparticip ants
Ġarchitect ural
ĠJud ge
ĠCy prus
ĠM embers
op hers
V ID
f ly
ĠS ask
Ġdec isions
ĠMin or
Ġvis iting
Ġassoci ate
Ġconn ecting
ĠMun ich
ĠFrid ay
ĠB ear
Ã³ w
ĠMag ic
Ġpan el
Ð¾ Ð
Scott ish
in ite
ĠN ad
ber ry
ĠY am
ĠAr c
Ġkeep ing
ĠSt re
Ġopp onent
sequ ently
Ġsamp les
ĠHun ter
Ġfal se
Ġw at
Ġl ayer
Ġn inth
Ġrec on
ĠP ont
Ġr ub
uk a
F l
r ary
st e
ĠM aine
ĠP in
end ers
Ġto x
ĠS yn
ĠH erman
r us
ĠM eg
Ġl ibr
Ġbo ats
Ġexp osure
ĠAt hen
Ġoper ator
A lex
e ing
ig ible
ĠF un
Ġunder w
ĠHigh land
Ġsl aves
ĠJeff erson
ĠEag les
Ġround s
ĠÄ °
Ġtim ber
Ġr anks
ov sky
Ġass ets
194 4
Ġgraph ics
e ctions
i ere
ĠE ight
Ġimplement ation
c are
ic ity
Ġm oral
ip her
Ġgl ac
ĠC ode
193 6
Ġrestaur ants
T E
m ath
p ose
on ial
Ġn est
ott ingham
Ġ188 4
ĠMunicip al
ĠFle et
Ġphr ase
z es
ĠS outheast
ĠK un
Ġag ree
born e
Ġ urg
ĠL is
Ġbe ars
lish ment
au ge
Ġpat rol
195 1
ĠOak land
Ġsurv ive
Ġfall ing
Ġparliament ary
an ne
Ġrad iation
ĠHawai i
Ġre aches
ĠW alt
Ġor n
c aster
ĠP ast
Ġdist inction
Ġsl ave
Ġ189 6
s is
am ous
Ġro ot
Ġafter wards
ĠLe eds
Ġsup press
Ġno ise
Ġcab inet
6 00
Ġc rops
ĠS C
Ġd iver
ĠG rad
Ġmeet ings
Ġess ay
J ust
O ld
z i
ich i
ace ous
Ä± n
mar ine
Ġaltern ate
Ġnomin ations
Ġbatt alion
ĠFried rich
as ks
ĠG rey
ĠN ear
Ġwh ilst
Ġsk ull
osp el
ĠK on
Rich ard
ĠGon z
I M
g om
ĠS ad
Ġexper iments
Ġvess el
Ġtheore m
Ġdes ire
Ġ5 7
ĠLe ad
Ġ6 00
ĠShe ffield
Ġphys ic
ĠBob by
onom ous
ag ers
Ġcons ervative
Ġgu ilty
ĠSocial ist
ĠCharl otte
ĠProfess ional
ĠIndepend ence
Ġshop ping
S al
ĠK ra
ĠK urd
ach t
Ġread y
Ġelimin ated
s he
Ġthe rapy
Ġb apt
ĠH az
ĠL iving
Ġcomm anded
ĠSp rings
mar ks
ĠT ib
ĠSc out
ĠO cc
Ġab use
ĠBer g
Ġsee ing
l iga
ĠC ensus
Ġn ut
ĠR AF
ut ton
Ġun like
Ġind ex
Ġfac ing
Ġcop per
n ik
w ana
ĠR ab
ĠW ag
aw s
is ch
Ġp ap
Ġp seud
ot yp
if fer
Ġres olution
Ġstud ying
Ġaff ect
c os
ĠD ennis
B L
Ġh orses
Ġbe er
Ġcl osing
Ġj unction
lev ard
Ġdescrib ing
Film ography
angel ical
Ġlocomot ives
ĠLiter ature
v ision
ir th
ĠD raft
Ġhe aring
Ġrep air
Ġhel ic
ĠIndust ry
Ġphotograph s
; "
L ou
M e
Ġth irty
Ġr anging
ĠY e
Ġtrib ute
Ġisol ated
p erson
Ġc ogn
id ad
Ġmon itor
ĠTe ch
ĠPort land
ĠCr us
Ġacknow led
Ġal ter
out heastern
lish ments
193 7
ĠArch bishop
Ġwid er
Ġsequ el
Ġbeaut y
Ġto mb
ĠH ad
im en
ĠF ace
ag le
ear ing
Ġorgan isations
Ġrev ised
wh ite
ĠMean while
Ġrest ricted
Ġmanufact urer
Ġ els
at ar
ic he
Ġto ol
ĠSh a
Ġinv ented
Ġacc eler
Ġdisplay ed
Ġjurisd iction
G old
H ow
Ġpl ain
Ġcl ock
elf ast
ae us
min ute
Ġaccess ible
ĠNA SA
re f
Ġf er
Ġle af
Ġav o
ĠPhill ips
G l
T r
Ġre ven
ĠL ion
Ġactiv ists
Ġamount s
ĠWell ington
ĠA round
Ġgro ss
Ġ6 3
Ġdep uty
Ġ189 4
Transport ation
Ġg ard
th at
enn ial
Ġcivil ian
Ġopportun ities
w as
or ious
Ġal umin
rag ue
Ġpers u
v ol
Ġg al
Ġab olished
ah l
au kee
sh aped
Ġ189 3
Ġphys ician
Ġcross es
ĠCr ime
Ġsubsid iary
ue z
ph ib
Ġpat ient
Ġlab els
Ġdiscuss ion
Ġcricket ers
ĠD ata
Ġcross ed
Be fore
P R
ĠNe il
Ġcust omers
Ġgod dess
Ġels ewhere
ĠK le
Ġper mitted
Ġ189 7
Ġtour ist
ĠCorn wall
L ive
s m
Ġd im
Ġact ed
Ġtrad ed
Ġsport speople
ĠGo ogle
Ġcou p
Ġvot ers
ĠContin ental
ĠYugoslav ia
Ġf ert
ĠG ot
ĠAr senal
Ġ189 1
pir acy
he rent
re z
ĠM end
ĠM ason
Ġcon vert
Ġpro of
Ġcl othing
ĠBra ves
ĠScot ia
ĠGra ce
Ġwear ing
S m
ent e
oun sel
Ġfl ights
S y
Ġdes ert
Ġmar ks
Ġquant um
m usic
Ġcon greg
Ġcl ar
ĠAl ong
ĠGu inea
Ġviol ent
Ġinh ab
ĠLank a
g rim
ĠC er
Ġg ay
Ġrece ives
Ġflow ers
Ġqual ifying
Ġpict ures
' d
D an
ĠP att
min ster
ĠHer bert
L and
Ġin fer
ut o
Ġqu ad
Ġso ap
Pro fessional
G C
á ¸
ar an
Ġl ock
ĠW es
Ġab st
Ex p
Ġprop ag
ĠAp ost
Mod ern
d al
ĠO pp
Ġcomp ound
ĠHe in
Ġstrateg ic
19 14
ubl ished
Ġret reat
He ad
ĠOrig inally
ĠLl oyd
ĠP and
Ġbe ating
ab a
Ġdo ors
Ġinflu ences
Ġunc ertain
ĠDiam ond
w aukee
ĠN ep
Ġun less
ĠRh ine
Ġfarm ing
orpor ated
ĠChair man
h igh
et ics
ĠG Ã¶
he ro
Ġc odes
ĠN C
ab out
Ġor b
ip ients
oin ts
com mon
ĠAir lines
Ġconc erts
Ġacqu isition
Ġans wer
Ġresc ue
en ia
ĠT ype
ac o
ĠEx pl
Ġeg gs
ĠP ink
Ġent ers
ĠPer th
Ġyoung est
Ġlo op
ĠGreg ory
ĠL ie
ĠK il
qu er
Ġev il
arg ed
Ġ188 9
Ġmuseum s
t ical
ĠP ract
Ġ18 50
ath a
Ġdis b
Ġear n
ĠAll ied
Ġbeh alf
Ġlog ic
Ġv ul
ĠPol icy
ĠCirc le
ĠN ature
Ġsp ending
Ġ5 9
ĠVin cent
ĠS Ã£o
ĠSh ang
Ġdemonst rated
ĠH av
Ġman if
Ġang le
Ġdescend ants
ĠT as
Ġon going
Ġres id
ĠRh odes
Ġconsist ent
Ġunderst ood
l ane
Ġm orph
ĠS ig
ĠG ang
duc er
Ġcommun ications
Ġbus es
Ġ188 5
Ġmanufact ured
ograp hers
ĠJ enn
od s
Ã© l
Ġimp ress
Ġann ounce
Ġp and
Ġh ope
Ġal ien
Ġpro fit
ens en
Ġmag ic
ĠStud io
Ġconce pts
ĠFurther more
Ġc osm
Ġra b
Ġsub d
iet h
Ġart ificial
ĠFl ore
Ġevery one
ett a
Ġkid n
Ġdraf ted
Ġc avalry
Ġl akes
ĠR ight
ĠD elta
ĠNew ton
Ġcharacter istic
Ġ189 2
ĠDel hi
imens ional
Ġm all
Ġan nex
Ġare na
Ġex port
Ġ5 8
cel ona
ĠMat hemat
Ġsust ain
ĠM ak
ist ing
ĠN ext
Ġco ff
Ġbre aking
] )
c ore
ent o
Ġ7 2
ĠCo ach
Ġrefer ring
Ġess entially
Ġrad ical
Ġeffic ient
U r
y ll
Ġto ured
ĠP rison
duc es
com pass
ĠAtt orney
as ia
ol en
Ġr anges
Ġsh ield
ĠMar vel
Ġposs ession
ĠR aid
ist ration
ĠV iew
amp a
ĠHar old
ĠMon te
Ġarg ues
ĠSur vey
Ġmach ines
ĠChall enge
el ia
et ers
Ġcl imb
Ġass um
Ġ8 5
ĠYank ees
gom ery
p res
Ġf ill
Ġsc ores
ĠPro ductions
elf are
Ġpo ison
Ġelectric ity
Ġrecomm end
ĠNiger ia
Ġ rib
ent ry
ĠR ot
Ġco ached
Ġrem ix
leg iate
Sp anish
Ġreve als
Ġcomment ary
R oyal
ag ram
op le
Ġsec ured
Ġpri ests
ĠTrans l
Ġautom atic
Ġatmosp here
Ġ9 5
Ġdisp ers
ĠGh ost
ĠP ow
Ġrev ival
atche wan
re a
Ġl es
ĠSe ction
ĠA aron
ring ton
Ġcult ures
Ġsurv iv
Ġbroadcast s
ĠSer ge
m ill
Ĥ ¬
Ġre venue
Ġl ap
Ġvar iation
Ġcamp s
Ġg allery
Ġleg s
Ġadv ice
ĠWith in
Ġkey board
Ġdisestab lishments
Ġw orn
ar c
ĠSt uart
Ġr ising
pe are
Ġinter face
Ġrepresent atives
Ġmix ing
Ġvert ical
r ise
ĠC inema
Ġdifficult y
Ġslow ly
d est
ĠC ret
ĠK os
Ġ6 1
Ġem igrants
ĠBe h
akes peare
Ġexpl icit
ĠNor folk
ĠJos h
ĠRena issance
T om
Ġr is
ĠSp art
ĠArab ia
B E
al om
ĠT ogether
ock et
ĠRe ich
ĠT erm
el i
ir teen
Ġsh r
Ġ6 8
ĠCl ay
yl on
ĠArt icle
Ġcond em
Ġrecogn ised
Ġattempt ing
Ġsynt hes
ĠGoi Ã¡s
Ġf rog
id en
ic ing
Ġab road
Ġcar rier
Ġgu arant
Ġnar rative
ĠCur t
Dem ographics
ĠDomin ican
D ou
k ov
Ġd atabase
im ir
ĠNew castle
ument ary
ĠCO VID
Ġtal ent
ĠH ope
Ġhe nce
ĠIn v
ric ks
ĠPar ish
cel and
ĠHel en
Rec ipients
Ġhonor ary
ĠF at
ĠW el
Ġme at
ĠStev en
Ġexact ly
er ie
Ġb oot
Ġg all
ĠW ed
ev en
ĠPer u
ĠTechn ical
Ġbelong ing
I L
k g
in ated
an ion
ĠS eb
ĠF ig
19 19
ĠDe ep
Ġcr uc
ym ph
ĠPer formance
Ġto t
ĠC C
ĠM axim
um i
ĠIndust rial
S oviet
s a
t r
Ġb aby
Ġl ieutenant
ch urch
ount ain
ib ilities
Ġall iance
apt ers
Ġre ducing
ow ski
ant i
Ġsound s
Ġclos ure
ĠDer by
Ġemphas is
h aw
l ights
in ery
ĠM uch
ĠB alk
Ġar bit
ĠAr med
Ġper mission
iss ions
Ġmain stream
Ġhy brid
ĠEnvironment al
h m
he nt
ĠN ort
enn ium
ĠClark e
ĠCow boys
ĠFinn ish
ĠB uch
ag ar
Ġcan on
ĠShe l
R E
W estern
Ġm ines
ĠB M
ev a
ĠChe ster
Ġdiam eter
d es
Ġt el
ĠS P
ĠE g
ĠFran ces
ĠBrown s
Ġconsum ption
c over
al m
Ġpost ed
Ġord inary
Ġpick ed
Ġpric es
er r
ed e
Ġgu ide
ĠÃ ģ
Ġmount ed
ed ed
Ġre ct
iv ic
Ġas ks
Ġland ed
Ġfarm ers
ĠConst ruction
Ġnickn ame
Writ ers
ĠLeban on
t ains
ĠH ous
19 00
19 29
Ġcomment ed
Ġexerc ise
ot ion
az i
ann i
Ġarchae ological
an im
Ġext end
Ġlog o
Ġdu o
ir ts
ĠV illa
Ġ6 2
Ġ9 9
Ġunsuccess ful
p age
ĠM A
ĠCath olics
Ġhous ed
ĠJun ction
Ġtempor arily
m its
ow ed
ĠSh aw
oun s
Ġbl ues
Ġleg acy
Ġappro aches
D esign
G o
Ġs a
ap pe
Ġra ising
che m
arm s
ĠEx change
ĠCont emporary
Ġsymb ols
agon ist
s peed
um er
Ġ6 7
Ġorgan ised
ol ve
ri ft
Ġ7 7
ling ton
Ġillust rated
P eter
Ġfor g
writ ten
At l
Ġjud g
Ġsett lers
ĠÅ ł
Ġrecover y
Ġspons ored
ĠKer ala
c ountry
f urt
al an
ro oms
ĠS audi
ĠB ird
ress es
Ġacc um
193 5
oir s
Ġmart ial
Ġthe aters
Ġman age
Ġear ning
ĠEd die
Ġinit iated
ancell or
ĠF ly
Ġat oms
ĠConstant in
ĠH at
ĠL en
ĠJ a
Ġv el
ab lishment
Ġob st
adem ics
Ġcoll apse
Ġden omin
Ġpaint ers
Ġrespond ed
ĠCrim inal
H en
S L
z ing
Ġf aster
ec a
ĠQ ual
Ġrespect ive
Ġdepend ent
ĠFriend s
ĠAber deen
t wo
Ġo w
ĠC ad
Ġh ills
ĠE in
Ġhe m
Ġab ilities
Ġcan al
F lor
c ock
l ived
| }
Ġde emed
19 22
Ġprot ests
van ced
ĠStud y
ĠErn est
h istor
s l
re cht
Ġre actions
Ġro cks
Ġen compass
ĠFin ancial
Ġdistinct ive
os c
ĠDel aware
Ġp overty
Ġhe ir
Ġsong writer
Ġstruct ural
Ġtw in
uis ine
Ġswit ched
e or
Ġt urb
ĠM ath
Ġ6 9
Ġth or
av ian
ater al
Ġform ations
Ġhigh light
Ġext ensively
Ġengine ers
Ġgrad es
Ġweek end
Ġreform s
ĠM oses
ĠN I
ĠW as
Ġph arm
ij i
Ġox id
c ia
v et
Ġf abric
ĠI C
Ġ7 6
ook ing
leg raph
Ġcirc le
ĠRo om
Ġs ugar
Ġw ants
Ġ( '
ch y
est y
ĠK ay
Ġdr inking
Ġobject ive
g un
g ary
Ġo dd
st and
ĠM idd
ra wn
Ġab b
Ġn am
ĠF if
ĠN ottingham
Ġcon gress
ĠK ash
ĠHe at
Ġ186 7
Ġcoin s
Ġexclus ive
Ġev ac
Ġanim ation
Ġconduct or
ĠBab y
Econom y
B ooks
ĠI ss
Ġch ron
Ġsign als
Ġdisc rim
ĠStud ents
Ġfriend ly
Ġtrib ut
u ke
en cer
ĠT oy
ĠM ut
ĠM ann
ĠB elfast
od ay
ĠAr ms
Ġcent res
Ġrep orter
ĠX X
Ġ188 6
R T
ĠB ach
ĠR ivers
ĠD est
ab el
for ced
ĠEd wards
Ġ186 2
Comp anies
Ġscholars hip
Ġtele phone
Ġt ight
ent le
ĠF oster
ĠG T
os hi
ĠV egas
Ġsh orter
Ġbre eding
Ġtravel ed
Ġwind s
ĠDemocr ats
Ġcanc elled
Q ue
s or
Ġs ke
ic us
19 28
ĠV eh
193 1
Ġ186 3
Sh ort
Ġcampaign s
Ġcreat ive
Ġdiss olved
ĠVo iv
f r
ĠR alph
Ġrun ners
Ġs overe
ĠC A
ĠV lad
Ġnot ice
Ġscreen writer
Ġd rain
ĠA x
ann ah
Ġche ss
ĠBou levard
ĠS omers
ĠM alt
red it
ĠRe form
tt ps
P L
È Ļ
Ġm emb
ĠW or
19 21
arm a
Ġenem ies
Ac ademic
Ġinaug ural
K n
L ondon
Ġaut ob
Ġtourn aments
Ġ1 10
ĠM ills
Ġg ymn
Ġus ual
ath on
ĠSoc cer
ĠChap ter
B ob
an throp
Ġs essions
Ġto uring
Ġr ide
ĠY u
ĠSh akespeare
ĠAnn ual
V ol
ĠS ierra
op ened
ah an
Ġrequ ested
Ġtri ple
Ġnegot iations
Ġbon us
N S
h al
ĠD ictionary
ĠTh ose
Ġfunction al
Ġneut ral
i ya
es is
Ġp ull
Ġh app
Ġat omic
Ġr um
Ġap artment
ĠChel sea
Ġm it
ĠF oot
ĠMan uel
ĠAc cess
ĠRet urn
Ġwor st
Ġpredecess or
Ġt ies
Ġcon clusion
ull ah
ĠMad rid
keep er
ĠMond ay
Ġf lex
Ġb inary
Ġst ored
ĠAl tern
Ġthere after
M iss
S erv
g rade
Ġf aces
ĠT ree
ĠF eat
Ġwealth y
ĠA ur
Ġrem ote
ley ball
Pro v
ĠSl av
ĠUnivers e
Ġattend ance
Ġtick et
Ġintellect ual
S k
ĠT rack
ĠK ill
19 24
Ġar tery
193 2
Ġ ion
Ġr ig
Ġsport ing
ĠSus an
) (
S am
a very
Ġm al
ad ows
ĠN an
ak k
Ġ8 8
ĠBar celona
Col lege
Ġbelief s
M D
R S
Ġmin i
ĠPer ry
Ġchap el
Ġburn ed
Ġcoal ition
ĠNev ada
Cent ral
ĠE mp
io x
ĠQu est
Ġfund ed
Ġearth qu
ĠS ic
om ical
ĠB achelor
Ġst ead
op p
Ġdr ink
ĠDou ble
Ġdiplom atic
ĠFa ith
ĠBened ict
P at
Ġb ay
ic ism
ĠM az
ĠP ut
ter bury
um ps
Ġab und
ĠAn y
Ġtr uck
ĠMot ors
G rand
19 25
Ġpre v
Ġexp and
Ġwithd rew
ĠSask atchewan
ĠL ag
ĠTh ai
ind a
af e
ĠBr ight
Ä± k
Ð º
er i
ol ith
ĠB og
Ġpl astic
20 23
Ġ7 1
Ġbelie ves
Ġin tern
em a
Ġhe ar
19 27
j ord
ĠS eg
ĠH ob
ĠJ ar
iz ard
Ġdoes n
Ġac ids
ĠAr nold
Ġpark ing
Ġasp ect
Ġpartn ers
Ġdoll ars
z ed
Ġs aved
Ġw el
Ġf ulf
ĠF ighter
Ġpr ince
Ġvar ieties
Ġob lig
sk ins
Ġ188 7
ĠLu is
ĠAd rian
Ġunivers al
ĠOtt awa
Ġb low
Ġl unar
pr ing
ĠCamp aign
ĠS oph
Ġexpl ain
Ġwalk ing
' )
Ġp airs
ort ed
ĠInd ex
Ġsm ooth
Ġspecial ized
ij ing
Ġqual ify
Ġelev ated
Ġinsp iration
Ġstreng then
im m
ĠL akes
Ġinter cept
Ġinter action
Ġ8 00
ĠMont gomery
Ġarrang ements
ĠP ic
ĠH us
Ġsp ir
Ġk it
ax y
Ġ188 1
Ġdev oted
ĠVenezuel a
Ġpand emic
c at
ul ates
Ġ18 40
Ġatt ending
Ġinc idents
Ġtop ics
off s
Ġfe ud
col or
Ġbrand s
ĠNob el
el in
ĠLe o
ĠMc M
Ġdown load
duct s
Ġgold en
ĠĊĠĊĠĊĠĊ ĠĊĠĊĠĊĠĊ
M ag
Ġa w
Ġb oss
ĠS oon
Ġnovel ists
Ġathlet ics
b one
w ord
ĠH amb
ra ud
lic ation
ĠN HL
ĠFran z
ĠHer ald
193 3
Ġhon ors
ĠCzech oslov
Ġen zym
Ġimp ossible
Ġopp onents
Ġconn ects
Ġdifficult ies
Bas ketball
Ġvent ure
ĠSaf ety
I rish
n an
Ġf ee
Ġm asc
ce ae
ĠF ras
Ġpro x
Ġr id
Ġcl an
Ġsy mp
eth yl
ĠAt ari
ĠArch ive
Ġrif le
n amese
al in
ĠW ald
Ġout standing
Ġrel ating
Ġsur pr
Ġsoc ieties
odes hip
Ġproced ure
riev ed
c or
om ed
ĠY ale
Ġover t
Ġmain land
Ġref ere
Ġmix ture
pre ne
ĠTod d
it an
ĠG ene
ĠSw an
Ġsol utions
Ġm ile
et o
ĠD rama
Ġal ive
ĠO st
Ġdep ict
ĠPar ks
Ġequ ation
ĠPet e
Ġsusp ension
v or
ro st
Ġd iet
Ġrele vant
ĠAv iation
Vill ages
ĠK or
19 17
Ġper ceived
Ġcons olid
Ġvers e
writ ing
ĠRog ers
Ġvari ations
re prene
19 23
Ġper mit
ild ren
rup ted
Ġmus cle
c ott
r int
ĠE sc
ĠK ur
ail ing
we ep
Ġfilm ing
Ġsuccess ion
Ġnovel ist
Ġdecor ated
ĠP rague
ack ed
Ġprov e
Ġneighbor ing
ĠPun jab
Ġh idden
Ġra cial
Ġdef ended
Ġtri als
Ġ186 1
Ġd eter
ĠW onder
Ġcomp rehensive
Ch arts
ĠWil helm
Ġdismiss ed
D is
N Y
V P
u er
am ation
ĠK ate
Ġsc atter
form ing
mon ton
ĠTom my
Ġalph abet
it udes
Ġd rag
ĠM ol
ĠK ath
Ġcl ergy
ĠNorth west
Ġprom in
193 4
Ġ187 1
ĠGr ade
ĠMur phy
Ġprepar ation
Ġadvent ure
Hon ours
Ġrestrict ions
g roup
ur se
ĠD h
Ġsh ops
Ġpre st
Ġsculpt ure
enh agen
Ġmathemat ical
r ators
w he
Ġt ested
it ol
ro id
ĠF low
Ġmet ropolitan
Ġexpl ains
Ġdepart ments
ĠWeek ly
Ġl ie
ep hew
ĠPhil osophy
Ġfun eral
ĠQu arter
ĠClass ical
b as
Ġs ulf
Ġs iege
ĠLe ader
Ġthink ing
ĠEncyclop edia
ĠVoiv odeship
e lected
ĠA G
ĠT ed
ĠB ears
ĠP ep
ĠGu ild
Ġmanag ing
ĠRed skins
ĠGuard ian
M ass
ĠP ent
Ġchar ity
ĠÃ ĸ
Ġanal yst
ĠRh ode
ĠDes ert
ĠTransport ation
N on
g ae
is ons
Ġf ib
as hes
ĠO ber
Ġel abor
Fran k
Ġneighbour hood
appe ared
Ġ Ï
Ġw ore
ĠB our
id i
Ġst ops
ik ing
Ġclin ical
D ep
j u
v ar
Ġt y
ĠB un
ĠH D
Ġdram atic
H F
M ult
Ġb ars
ĠC reat
ĠK rist
Ġr ice
Ġman ip
row ing
ĠMc L
Ġarm ies
Ġâ ĨĴ
ĠT ab
od ed
ĠSp ider
sp ect
Ġimpro vements
Ġdisb anded
p ost
ĠD ame
Ġcoll aps
Ġovers eas
Ġimprison ed
t es
Ġb ones
uch y
rand ed
Ġbehav iour
ĠGil bert
Ġpersp ective
M ain
s ub
Ġw aves
Ġre organ
Ġsub mitted
ĠMor oc
Ġview ers
ac co
up s
ĠSh in
inc eton
Ġvirt ual
ĠPrad esh
f irst
s up
Ġcon ven
ĠSt ories
ped ition
Ġlook ed
ĠIsa ac
ou ch
ĠL ex
ĠAnt i
Ġcitiz en
Ġhousehold s
b in
Ġb ath
ĠS A
ĠB iography
th rough
up t
19 26
amp ire
Ġdesign ation
Ġphot o
ĠAlexand ria
ord ed
Ġdis ch
Ġpre y
ener ation
Ġinternational ly
Ġcontrol s
Ġdocument ed
ĠInt elligence
Ġgod s
h orn
ĠC atherine
Ġis ot
ĠD w
all ing
Ġro ut
Ġtechn ologies
play ing
Ġsem if
Se ason
Ġmyth ology
n amed
ro gen
ĠC hes
Ġ7 8
ĠBro oks
Ġleg it
Ġhel ps
Ġport ions
ĠAmer icas
Ġsimilar ly
Ġassist ed
Ġlat est
Ġadmin istered
e lect
t ers
Ġt ub
Ġt ape
ro us
ĠT ong
ĠI celand
Ġappro ached
Ġread ers
Cl ub
back ground
fect ure
Ġcart oon
Ġdiscontin ued
A tt
E ducational
w eb
re ated
Ġc rypt
ĠP rice
ac les
Ġdis aster
Ġnumber ed
sk a
or um
ul ator
Ġpro l
ĠPro duction
Ġathlet ic
Sup er
Ġbacter ia
Ġgradu ating
Ġm aps
Ġen forcement
oy age
or ient
Ġc ens
ĠC ork
ĠP rest
ul atory
ac a
Ġsub t
epend ent
Ġinn ings
Ġâ Ĥ¬
ÃŁ e
Leg acy
Ġbankrupt cy
Ġnam ely
ĠR ah
Ġcon fess
Ġpre t
Ġrem ark
ĠIndian apolis
Ġ188 2
Ġfif teen
Ġcoin c
ĠAmaz on
F ore
M ad
i ability
ĠM ust
ĠL isa
ĠF uture
ag i
Ġpromot ing
Ġholid ay
ĠM orning
ry s
ĠIs le
ĠComm ons
h all
w eek
od ing
ĠDev il
C ount
Ġp unk
os exual
op l
Ġsup plement
ĠHar vey
Col umb
ĠTre as
Ġdial ects
Ġprec ip
Ġh az
ĠB ronze
ĠN at
ĠN ine
19 12
Ġ7 3
ĠOt to
S everal
f ast
w yn
ing en
Ġqu een
ĠAct ress
onna issance
Spec ial
ĠHug hes
B rien
d ist
f ilm
r h
Ã Ĺ
Ġrec alled
Ġsub sc
ĠSe an
Ġdem ands
Ġstat ements
ĠR ic
ist ent
ĠF ish
Ġst em
Ġab oard
Ġent hus
Ġcap s
Ġref lected
Ġ187 6
Ġremov al
ĠOut standing
ĠRay mond
Ġcooper ation
re ts
ĠC ust
et ing
ĠH ur
Ġthere by
Ġgrand father
Ġgard ens
R ou
Ø §
ro duction
Ġpol ar
Ġinter mediate
ĠOr d
Ġexhib it
Ġcolumn s
Ġmanusc ript
ĠThe ory
ĠG Ã¼
ĠO g
end a
Ġmin istry
Ġvar ies
Ġopt ions
ĠRon ald
Ġmolec ules
G ame
S ir
Ê ¼
ĠF ab
ivid ual
Ġmiss ile
ĠMad ison
igr ant
Ġpredomin antly
o i
Ġm igration
ĠO scar
Ġph osph
ĠM usical
ĠE ld
um m
ĠAng els
Ġder iv
Ġbirth day
ĠWat son
Ġupd ated
ĠNash ville
Ġsimult aneously
M r
P P
Ġw edding
Ġd iversity
tern oon
Ġcomp iled
ick ing
Ġvict ories
Ġtrav elled
ĠOw en
C ath
ad ers
ĠR us
ĠW inn
ĠK rish
Ġeconom ics
ĠPict ure
m other
Ã ī
un es
ĠN uclear
Ġext ract
ĠJo an
Ġfoot age
B etween
S ong
ĠR ican
Ġpo le
Ġindic ating
Ġcert ified
N ote
w orld
Ġb ull
Ġto urs
ĠN orm
ang o
ĠGe off
Ġaccommod ate
Ġabsol ute
f old
Ġp ist
im s
ass ic
Ġfl ash
ĠVal ent
Ġindepend ently
atin um
wer p
ĠOper ations
ĠAlb any
Ġpurs ue
Ġreserv es
Crit ical
Ġtheat rical
Ġmathematic ian
Ġcasual ties
B er
O M
as se
ĠR u
ph is
Ġmin eral
Ġins urance
Ġment ions
ĠBron x
is an
Ġan arch
Ġor chest
ĠBl u
Ġvar iants
B re
m ud
ĠT ank
Ġan th
ri ans
ĠV oice
ĠPol l
d s
ĠB eth
qu est
Ġgen es
Ġesc aped
ĠLuc as
Ġfit ted
Ġproced ures
ĠNever theless
Ġinterpre ted
i u
w oman
ĠM Ã©
ok es
Ġall ies
Ġoper ators
ĠBar oque
ĠRel ations
Ġrain fall
Ġwa iting
f a
ĠM asters
Ġret ain
ull ivan
uck er
Ġvis its
Ġpost er
iers hip
Ġver b
Ġsculpt or
Ġpun ishment
Ġar ray
Ġreg ulation
Ġph on
ĠAntar ctic
V ict
n otes
z ig
Ġt one
ar row
Ġd ict
Ġn erve
Ġfam iliar
Ġconfl icts
ĠLabor atory
Ġinher ited
D R
m akers
Ġs ick
ar in
Ġin ternet
ro at
ĠC ec
ag ne
ĠJ erem
ĠFor um
Ġorgan isms
D i
il ian
ĠJ ung
ap ing
any on
ont al
ĠMil waukee
Ġmolec ular
T ube
it ted
ĠB uc
ra ve
ĠArt ists
Ġmer c
Ġhypot hesis
ĠC itiz
ĠM ik
ri um
Ġdec k
Ġchar ter
Ġopt ical
ĠPir ates
ĠGoth ic
Ġto ll
ĠB A
Ġreb ellion
Ġsequ ences
Ġlif etime
Ġsynd rome
ĠPed ro
E N
V A
ri pp
ĠIn str
ric ulum
ah o
Ġdevelop ments
Ġfight ers
ĠFour th
atur ally
S aint
he ld
ĠS or
ĠM is
ĠF ine
ĠG DP
ĠSp ect
ĠPol y
Ġinterview s
ĠBalt ic
Ġfoss il
C amp
Ġdis m
Ġpower ed
Ġconqu est
M ac
ĠS ang
Ġl ights
art et
Ġsh aring
mon th
Ġanal y
Ġrad ar
Ġamb ass
ĠWork ers
L aw
T or
Ġs ket
ro e
Ġg rey
19 16
ĠMar ines
Ġlaw yers
Ġsynt hesis
Ġsubst ance
Ġdoct rine
o fficial
Ġin formed
as ian
ot ing
ĠW here
oc ent
Ġsc iences
vel t
Ġsy mm
Ġext ends
Ġlegisl ative
Ġdepart ed
Ġcompris es
Ġchalleng es
ĠConstantin ople
R oad
c ap
Ġfin ance
Ġval uable
ots wana
ĠStud ent
Ġsuppl ied
ĠEag le
l ength
ment ary
Ġmet als
] ,
ĠS K
Ġpre f
ĠBro s
Ġmet ab
heim er
Ġdelay ed
ĠNapole on
m o
p es
ĠS uz
ĠT ales
Ġn inet
Ġres umed
ĠTh under
ĠPro per
ux ili
Bas eball
Ġsuburb s
Ġreleg ated
at ible
Ġp ale
ĠC ars
yl an
inc orporated
ĠRevolution ary
ĠChap el
Ġfavor ite
A cc
ĠP ick
ĠR idge
ĠN athan
ĠMan ager
Ġfew er
itor ium
Ġfle w
om i
ĠF lying
Ġout door
ĠCar r
Ġwar fare
ĠComp etition
Ġinf ection
CA R
ĠRom ans
ĠVen ice
ĠLuther an
L ittle
ĠM ull
ĠP eng
Ġg rid
ast ics
ĠBe aut
Ġport s
Ġ186 8
Ġmer ely
ĠBenn ett
F re
I F
ĠB erm
iz ers
Ġcl oud
Ġpr ayer
Ġ186 5
ingu ished
Ġelement ary
Ġmoder ate
Ġf iles
Ġfor th
ĠW als
Ġcom fort
ces ter
clud es
Ġtr ump
Th rough
ĠOrig inal
Ġseem ed
ĠTest ament
Ġbor ough
n al
Ġs isters
em pl
sh ore
Ġneighbour ing
H O
L et
Ġb ell
Ġh yd
ĠB uild
ĠSt ill
ĠV iol
Ġsp ell
ĠBel le
ĠLeon ard
Ġp ushed
ĠL em
ĠK id
Ġex ha
Ġrel ay
ĠBe ijing
ĠEx pedition
Ġvolunte ers
Ġexcell ent
âĢ ľ
Ġdec ides
Ġcitizens hip
ĠStat istics
Ġconsum er
Ġpoll ution
ĠBav aria
Ġa th
Ġto ler
Ġg auge
ri fic
Ġsp end
Th ree
Ġ187 9
Ġrat ings
ĠCru z
ĠCret aceous
G N
ĠP ul
ĠY ang
ins ky
Ġ9 6
Ġimm igration
ĠPan ama
ĠCa esar
Ġmagn etic
Ġbatter y
Ġanch or
orig inal
Ġs le
ĠHe aven
ĠAss istant
ĠAg re
Ġpoin ted
Ġvari ables
Ġans w
M unicip
Î ¿
av il
Ġrequ iring
ĠSch w
Ġ187 5
Ġmerch ant
C E
J im
L ike
c ul
ĠL ic
ov ich
att a
ĠMe asure
Ġaccomp any
Ġcomed ian
Ġempt y
D ec
M T
l ive
ĠM ig
ĠH ern
ĠR oth
19 15
oy le
ans k
isc her
Ġpar ishes
Wh ite
Ġobserv ation
Ġfair ly
D en
E very
m ade
s ur
ĠR ica
ĠG as
ĠAn imal
Ġpartic le
Ġ187 8
ĠRabb i
ĠWed nes
B O
Ġc ow
Ġb le
ĠC raw
ol an
ir us
ip ino
Ġpl acing
ang ular
ĠCan terbury
Ġfram ework
ĠWag ner
Ġinhab ited
H ol
om ber
ess ed
ĠCh an
ĠAr rang
Ġmar ry
Ġlist ings
Pl ayers
L ate
g io
it us
Ġhe ct
ĠU ntil
Ġbel ongs
ett ers
ĠIraq i
ĠSomers et
el o
Ġg if
Ġcont ested
Ġhand le
Ġconsequ ences
ĠGab riel
ĠTas man
G reek
V al
m id
t z
il o
Ġn ephew
Ġdec ide
Ġ186 4
ĠFin ally
Ġeffic iency
ĠPear l
d em
f ront
Ġc uisine
ĠM ul
et e
ĠO z
qu is
Ġex it
ĠFran Ã§
ĠChe ss
Ġadminist rator
Ġconcent rated
F O
w ind
ant le
Ġdep ression
ĠArch ae
Ġlegisl ature
Pop ulation
ĠOb serv
Ġmaintain ing
ĠRoberts on
M ore
P rior
el ing
ad ier
19 13
ick en
Ġext inct
ĠCal gary
ĠPar ad
ellow s
ĠTra vel
Pl ay
ĠLeg ion
Ġastron aut
Ġrot ation
Ġrefuge es
U P
W inners
Ġt ag
Ġan x
ĠPlay ers
Can ada
Ġdeliver y
ĠAdvent ures
Ġmarg in
a ude
h ttp
Ġf asc
Ġfor b
ĠR ams
ak u
ĠV II
Ġspec imens
ael ic
Ġsit ting
ĠLu ke
ĠStan ford
Ġproport ion
at ine
ĠS aw
ĠC ase
ct uary
ch annel
Ġconf used
Ġsepar ation
Ġquarter back
ĠGh ana
Ġvocal ist
Ġaccur ate
b oth
g art
Ġt asks
ol ars
Ġl iv
ĠW atch
ĠSt age
Ġch ronic
Ġgovern ing
ĠFilm s
Music ians
Ġphenomen on
Ġdispl ays
F inal
S N
g overn
ir ms
ĠCamb odia
ĠBuddh ism
ĠR ange
un ning
ĠG ay
Ġat om
oc hem
ĠCol in
Ġbl ind
Ġcur rency
ĠPr ivate
Ã¼ ck
ĠHol mes
Ġdi ocese
Ġrecip ient
B ill
ĠA w
st ory
ĠG az
Ġac ademy
Ġkill s
ĠCons erv
ĠCons ervation
Ġestim ates
Ġdistingu ish
Ġm emor
ĠR overs
ĠJ oint
Ġen roll
ĠAd vanced
Ġprogram mes
Ġdest ro
Ġbomb ing
ID S
Ġperman ently
Prot ected
Ġath lete
o ids
Ġs ang
Ġs ending
Ġp ill
est on
Ġsit uations
Ġinteg ration
ĠArm strong
Ġsurre nder
i ad
ĠMar x
Ġinst ructions
umb ent
ĠCard iff
Ġtarg ets
Ġhap logroup
b en
d imensional
h l
at hered
Ġc raft
ĠIn g
ĠCl if
Ġgu ests
Ġâ ĪĴ
ĠStr ateg
B N
b ase
ĠG ust
Ġst eep
ĠY a
ose velt
Ġshe ep
ĠJohn ston
ĠAd vis
by ter
Ġsurv ival
Ġaccess ed
ĠAdd itional
ĠPot ter
F ac
S il
Ġ <
es ch
ĠB anks
os als
ran o
iss a
lim inary
Ġfoc uses
tra cks
Ġlaws uit
Ġprogress ive
Ġmagn itude
miss ions
ĠPlan et
S K
c ity
s econd
ĠCo al
Ġseg ments
Ġvary ing
Ġgeomet ry
u um
ĠC rystal
ĠT all
ut ter
ĠL ux
ĠG and
Ġen act
Ġspec imen
unc an
Ġfeel ings
ĠEth iop
Ġinsc ription
W eek
u j
Ġs av
Ġc argo
ic ia
ĠH erm
Ġman ual
Ġ8 2
Ġvar ied
Ġbar rel
ĠBre ak
yt ic
Ġfeel ing
Ġpup ils
b ank
f our
ĠL ess
Ġr ational
Ġsc r
Ġind eed
ĠCl aud
Ġ10 1
ĠShe p
Ġparticip ating
! !
% ).
L ove
Com mon
ĠPlay Station
ĠEconom ics
F our
Ġc iting
ĠK em
Ġreg iments
ĠSh ar
Ġpop ulated
Ġ9 4
ĠAugust us
ounc ill
Ġdest ination
commun ications
ĠScient ific
in yl
Ġh ole
Ġor al
Ġwar ning
ĠTur ks
Ġphot ographer
Ġs weet
ĠL ah
ĠAm iga
Ġel igible
bor g
ĠAndrew s
Nov els
B o
V I
Ġst eal
Ġex ile
ĠCh a
Ġdec ay
Ġfollow ers
ett es
Ġiniti ative
ĠPeters burg
Ġa est
ĠC IA
ĠN y
ĠN eg
um en
Ġj ury
Ġtra ct
Ġaff air
ĠArgent ine
Ġvul ner
E M
h urst
al ions
Ġg host
19 10
Ġ9 8
yl er
amb ers
Ġput ting
Con n
Ġlabor atory
Ġemot ional
al og
ĠA N
ĠIn sp
Ġab bre
Ġ8 4
ĠEm ir
ĠMal ay
ĠViet namese
E astern
M el
Ġin g
ent ieth
ĠJ in
Ġsc en
Ġatt raction
Ġcommun ist
Ġrul ers
Ġcomplet ing
M a
Ġt orn
te am
ĠLeg al
Ġobserv ations
Ġopt im
ĠAbd ul
Ġshif ted
d ig
Ã ½
let te
Ġdem anded
Ġsw ord
add y
ĠGib son
us a
Ġ7 9
Ġrev ol
Ġfall en
ĠCop enhagen
Ġveter an
M ary
an as
al is
Ġdep ends
ster ious
ĠArt ist
Ã ¯
Ġst yl
Ġcomp act
Ġinter actions
enn on
Ġeduc ator
Ġtem ples
cles iast
Polit ics
ĠPalest ine
Ġthe or
is ers
ĠS ey
ip el
uro p
Ġ8 1
Ġfl ank
reg ular
Ġtravel s
ĠAcc ount
Ġresign ation
Ġrecru ited
" :
M id
M ex
P an
T own
ĠC ly
ĠM TV
Ġfor ty
Ġv ector
Ġsh arp
Ġwork er
Ġbas in
Ġpres ents
Ġevent ual
ĠRed s
Ġ188 3
Ġcut ting
ĠBah Ã¡
Ġmos que
A v
en os
ĠC yr
Ġel dest
Ġfriend ship
Ġsum mary
Ġphilos ophers
Jos eph
ĠTib et
ĠFlore nce
D S
in ced
im mer
Ġthan ks
Ġart work
Ġsl avery
Ġori ent
ĠSalv ador
e u
ro x
et ric
ĠK in
ĠAl pha
Ġsub stitute
Ġent ity
ĠDav ies
Ġ186 6
Ġpot entially
Ġprin ting
Ġchalleng ed
ĠJohann es
ĠMaur ice
) ])
h as
Ġo ct
Ġs ure
Ġl iver
D o
ĠP y
Ġg ear
ĠD anny
Ġsec ular
Ġmain tains
Ġ187 2
clus ive
Ġceleb ration
uls ion
Ġthe olog
ĠS ul
Ġdis k
Ġen abled
ĠAm bass
Ġbel t
ĠAh mad
ĠKen ya
Ġflu id
ĠEvent ually
Ġt ip
nd ez
om atic
ur ated
Ġst ake
Ġret ro
Ġtrans formed
Ġair line
ĠHig her
Est ablishment
D irect
h n
st ock
ard i
ĠSt ri
Ġdist urb
Ġcompet itors
Ġcor ruption
Ġarr iving
found land
Ġexplan ation
ĠShang hai
M ont
k t
Ġp y
Ġh unt
ĠB ent
ĠD im
ell ar
Ġdet ect
Ġdel iber
Ġcivil ians
Ġpil ots
Ġdecre ase
Ġrevolution ary
spec ies
Ġnucle us
Ġre ver
Ġres ource
ĠTr ump
ĠCa uc
Ġlay out
ĠGram mar
: #
Ġ7 4
Ġmat rix
ĠSim pson
ĠL ot
ab e
ĠY ellow
yl ogen
ĠHer o
An n
Ġcirc ulation
Ġarr ive
iff s
Ġjourn als
Ġvo iced
in os
id ance
Ġg ift
cy cle
ĠHeavy weight
G reen
I ce
f in
l ia
ĠR ut
ĠO wn
Ġch apters
Ġprov isions
ĠBl ock
ĠBo hem
Ġbre ast
ĠPubl ishers
Ġcul min
Ġl ooks
Ġl ift
ess e
ĠYou Tube
Ġimpro vement
Ġconv inced
hold ers
Ġprem iere
Bl ue
Res ults
ĠML B
) ||
Ġcom ments
qu al
end ments
Ġint ense
Ġapp rec
Ġout break
Ã¸ r
ĠPhilipp ine
Ġpul led
Ġt ru
Ġc hest
ĠA L
Ġdef ine
ĠGu ang
ĠHar per
ĠPal mer
Ġimprison ment
Ġunderw ent
Ġt elling
Ġas king
ĠF ra
Ġcons on
ific ate
Ġ9 3
Ġsk ill
Ġguitar ists
Ġspe aker
Ġcolle agues
ĠJac ques
im o
ĠĠĠĠ ĠĠĠ
Ġdem ocracy
Ġreal ized
atin ate
Ġspect rum
Ġmilit ia
Ġsacrif ice
R ob
Ġ ic
on ing
ĠR oche
ĠN ursing
av ier
Ġcomm enced
ĠSh ir
Ġrel ie
ĠMan it
ĠLeg end
Ġtravel ing
ĠNA S
Ġaddress ed
ĠCamer on
Ġski ing
b eat
f amily
Ċ ĠĠĠ
ĠM oz
Ġ" [
che l
Ġ15 00
ott o
ices ter
Ġcontrib ute
ĠRo osevelt
ĠCab inet
h uman
Ġb inding
ish a
ĠLe vel
ĠLe ft
Ġ187 4
Ġap ost
O T
S ur
ĠR esp
Ġst ability
Ex t
the l
Ch inese
Ġliter ally
unn ers
ĠForm ula
ĠLud wig
Ġc er
Ġb ag
ĠA B
Ġres ort
Ġ18 30
Ġen rolled
ĠVir t
onst ruct
Ġcal endar
Ġtal ks
Ġdepos its
f eat
n ut
Ġf erry
Ġse ized
Ġsh ots
ĠDe uts
Ġinter vention
ĠEd monton
Ġattack ing
ĠTrans it
ĠCamp us
ĠLiber ty
ĠCirc uit
oca ust
intend o
B ecause
P e
Ġs ung
ĠS ep
ĠS ikh
ĠG olf
ĠE t
ĠE ur
ĠE ve
Ġsc andal
Ġreport ing
Ġtax es
Ġabst ract
ĠHamb urg
Ġb er
ĠC ert
ĠAg nes
Ġrock et
Ġpriv ile
ĠMah ar
ĠEs sex
Ġcompris ing
osy stem
ĠAlger ia
ĠT ir
ĠL omb
ĠF iction
ĠCh i
our g
ust rated
ĠAr d
az ar
Ġam pl
Ġcor ps
ĠBas que
ĠJul ius
ĠEp iscopal
ĠVar ious
R ugby
l ain
ed o
ĠT alk
if ier
oph on
ĠWith out
Ġrequire ment
Ġpack age
stan bul
Sing les
Ġdiscip line
it ting
ch ar
em in
Ġun ions
Ġdis orders
Ġtrans formation
Ġterrit orial
ĠAgain st
E r
ig i
Ġr ated
Ġplay wright
Ġret iring
Ġ8 7
Ġ9 7
ĠUl ster
ĠWars aw
L ong
b ird
b uilt
ott a
ĠAll an
Ġinvol ve
Ġassoci ations
ĠPolit ics
ĠIndones ian
Ġencounter ed
D ue
Ġt ube
ĠC yp
am as
ad al
Ġte a
ĠPl ate
ĠRe ed
Ġpres erve
Ġrece iver
Ġpred ict
Ġmonth ly
inem at
ĠChile an
Ġpione er
i ens
le z
Ġh ol
oc ity
over ed
Ġprot otype
Ġphot os
Ġcat hedral
P o
n ov
Ġt issue
Ġh ttp
Ġn ort
ĠI BM
Ġas k
ĠSh ield
Ġpet ition
ĠSac ram
ĠVerm ont
s i
s elling
Ġb ip
ĠW orth
Re lease
Ġind oor
ĠWest minster
190 1
ĠGree ks
Ġrit ual
C ity
Ġf ran
Ġn a
ch ant
Ġg athered
ĠN atal
ĠPl anning
ĠD aw
ĠN ote
Ġbut ter
Ġj ew
Ġlist en
arch y
ĠWild life
ĠShort ly
Ġabsor bed
hab ilit
Ġ ).
on al
ĠC and
ct ica
Ġ186 9
ĠHen ri
Ġprob ability
Ġfast est
Ġconqu ered
-- --
Ġphysic ist
c al
Ġpresent ation
Ġcontract s
Ġprison er
ĠSol omon
Ġrevers e
ĠFras er
ut ory
qu arter
ass is
pen se
Ġsur prise
alt ies
Ġsac red
R h
k an
ĠT iger
om ial
Ġst abil
ĠE ff
ĠSh adow
ĠCal vin
Ġarr ives
Ġbatt ing
ĠArrang ements
in as
Ġs oph
Ġb are
art ed
ĠCom edy
Ġimp osed
rael i
Ġconfig uration
g ins
Ġp ump
ĠH um
ĠIn stit
ĠDou g
H aplogroup
W ater
er as
ĠD ylan
th an
Ġsp an
ĠAl bums
Ġab ortion
Ġaud iences
Ġpsych ological
iat ric
F ort
Ġa ster
ab we
oot s
rid or
Ġwill ing
Ġsil ent
mun ition
C itations
L U
on omic
Ġh ospitals
ĠB es
ĠR ush
ĠK ol
ang ered
Ġrem n
Ġpres c
viron ments
Ġprevent ed
Bus iness
ĠA ston
ĠB rom
ad os
ĠR if
Ġstr ings
Ġsk y
Ġren owned
Ġ187 3
Ġrecogn ize
ĠGro ve
g us
j oin
al ism
ĠC anyon
Ġg ap
ĠW ells
Ġkn ock
Ġdef ending
ĠAnd rÃ©
Ġav iation
ĠMont ana
itic us
Ġkilomet ers
ĠLithuan ia
ĠJama ica
im ony
Ġtrans it
ĠAugust ine
olk ata
Ġcollect ive
Ġalleged ly
Ġsust ained
Ġconscious ness
Ġcoff ee
. ).
Ġb otan
ĠT roy
Ġn aturally
Ġext ending
Ġcur ve
Ġline up
Ar thur
ĠProv isions
pro duced
Ġ184 8
imb abwe
ĠAlexand ra
Ġbrig ade
Ġpian ist
Ä ĵ
en ary
Ġc ad
Ġb icy
ch air
ew ise
Ġsh ock
Ġbo ards
ĠMon ten
p iece
al am
ĠS weet
pr ises
Ġbi ology
Ġfail ing
ĠAgric ulture
D ay
F orm
is en
Ġf ame
le um
ish i
cl ing
Ġ18 00
Ġover w
Ġcons ent
Ġ7 00
Ġpat ri
bor o
Ġer rors
ĠKenn eth
. ;
is che
al ks
Ġh ier
ĠL ok
ĠF ul
ĠW inners
ec ca
ĠIn itially
ĠMar io
Ġfre ight
Ġ187 7
Ġbreak s
Ġdecre ased
Ġthr iller
ĠWednes day
O h
re ation
ch ron
Ġby pass
inn ed
Ġgu ards
ĠĊĠĊ ĠĊ
ĠCub s
at z
at on
ĠA ri
ĠN as
Ġv ital
ish n
Ġman s
Ġed itors
Ġhand ling
Ġarg ue
Ġachie vements
ĠMil ton
Ġgraph ic
Ġearthqu ake
uxili ary
G reat
H ome
Ð »
al ities
Ġm ilk
av in
ĠK re
ĠSt ef
Ġrec onstruction
ĠNew foundland
ĠSh op
Ġjud icial
Ġwithdraw al
C lim
ĠS ony
iv ities
Ġfl our
Ġcre ates
ĠAnd ers
Ä± r
B ro
C or
K O
ĠS M
Ġn aming
ĠI T
Ġbe am
Ġstrong er
ĠLouis ville
ĠInter view
ĠAh med
esign ated
ĠDur ham
Ġnom ine
L iter
v as
Ġc yl
ĠS yl
ĠT ang
th ree
so le
ĠEm my
iff e
Ġben ch
f ounded
Ġt um
Ġb io
Ġst olen
Ġal tered
ere k
ĠHe ights
ib an
ah u
ĠPr inceton
Ġhand ed
Ġdeal ing
ĠEv angelical
ĠFer r
. :
Ġw ish
Ġm ic
ĠS old
ĠH aving
Ġfor cing
ond e
ĠSp encer
Ġsever ely
ĠMon ey
ĠArch ives
Ġcut s
c ies
ĠA in
ĠD oll
Ġr ivals
erv es
ĠGl obe
Se lected
ĠGard ens
Bur ials
olith ic
ar u
Ġf raud
ĠB otswana
ĠIn st
Ġag es
stit u
ĠArt illery
ĠMer it
bro ok
Ã± a
ĠMarc us
Ġinstall ation
Ġin stitute
ĠS ind
Ġserv ant
Ġrel atives
Ġqu iet
fore st
ĠFran co
Ġgener ations
Ġconsid ering
Ġdisp uted
Ġadj ust
Ġsurf aces
Hen ry
b illion
ĠP iet
ĠP resent
ĠD as
est rian
oc es
ĠSt eph
Ġcons piracy
Ġoccur ring
Ġdecl ar
ĠPublic ations
Ġkind s
Ġpros per
Ġru ins
H ost
s ized
ĠJ ur
Ġel ite
Ġdev ast
Ġbur ial
ĠConc ert
S em
U N
b uilding
Ġthe ology
le e
ĠS uff
Ġsp l
Ġper pet
Ġkn ee
ĠPr ussia
ĠMe h
unt ary
Ġstret ch
B road
O ff
f ive
t ic
ĠR aw
Ġas h
ĠW ool
ment ed
Ġr iding
ĠY uk
col m
ĠJul ian
Ġpsych ology
Ġvac c
ĠAdvent ure
Add itional
Bra zil
Ġt enth
Ġl ad
ĠL ac
act ers
Ġent reprene
ĠRes ources
ĠNe o
Ġfarm s
ĠSeb ast
D E
s im
ar r
ord e
Ġcan cel
ĠAd miral
ĠMur ong
Ġclos est
Ġbox ing
Ġpay ment
Ġdial ogue
Ġreleg ation
Ġaf ternoon
Soc ial
ĠArist ot
at ics
et hel
ĠSc reen
Ġtro uble
ĠBur ton
Ġaware ness
Ġon wards
ĠK iss
Ġdis appeared
Ġen able
olog ically
ĠInter state
Ġnecess arily
Ġmess ages
Sw ed
ĠCamer oon
B en
M er
re ne
Ġf iring
ĠS ter
ĠJ e
arg es
Ġmin imal
Ġcollabor ated
Ġdoub les
Reg ional
F oot
á º
at em
Ġw ick
ol in
Ġl obby
ag ger
ĠK ane
ok o
Ġest imate
ert iary
ty m
isc ell
Ġsuggest ing
Ġprep are
Pres ident
Ġconj unction
ĠC ann
el ly
ĠJ en
ik er
Ġ8 6
ĠEd mund
Ġter rain
Ġarchitect s
ĠFer din
Ġoccas ional
Ġmemb rane
Cath olic
h ad
is le
ar as
Ġwas n
ĠR af
Ġwhe els
Ġtrans p
ĠRe ading
Ġ185 7
Ġgra ve
ĠPakistan i
ĠBir th
ĠJam ie
Ġtow ers
m ail
ĠF olk
Ġle ase
in f
Ġc ir
ĠS ex
ĠSc ar
ĠAlb anian
Ġdro ve
Ġcomposition s
Ġb ats
19 11
ĠCh ange
ĠMar l
Ġcons c
Ġaut umn
hib ition
ĠRail ways
Ġwrest ler
D utch
S mith
W ashington
ĠD uncan
Ġse eds
Ġsy ll
Ġphil anthrop
Ġtransport ed
ĠCard inal
Ġbul k
pan ic
Ġrepeated ly
Tur k
Ġinsect s
le an
ĠB ond
ĠB ene
ri ka
Ġstand ings
Ġant icip
ĠAst ron
Ġexam ination
M G
h im
Å Ľ
op ic
ost ic
Ã© r
Ġreb els
Ġalt itude
ĠManit oba
d ed
Ġch oir
ĠBelg rade
Ġcommit ment
Ġhop ed
Ġvirt ually
Ġhect ares
O pen
ok ie
ĠSc outs
lin ing
Ġant iqu
Ġdies el
Exp atriate
Ġsurviv ors
F in
is dom
Ġin clusion
ĠBl air
Ġinteg ral
ĠConf uc
Ġserious ly
Ġa rose
Ġd anger
am on
ĠW end
ov an
Ġcontin ental
Ġdisc overs
rest rial
Ġpost hum
Ġeth n
Ġfif ty
ĠNA TO
Ġeas ier
ĠTun nel
School s
ĠVers ion
Ġc ryst
Ġth irteen
ut a
ĠN eed
Ġac res
Ġperform ers
ĠCro s
ĠAlb ania
Ġmanusc ripts
ĠHop kins
z an
it ative
Ġre ward
Ġle ather
Ġconf usion
Ġconsider ably
ĠRepresent ative
Ġrenov ation
Ġlocomot ive
Ġexecut ives
stad t
Ġc otton
ĠP owers
ĠJ ava
og ram
Ġnot ing
eg ie
ĠEug ene
quir y
i ago
k ar
Î ½
Ġc emetery
ĠS T
Ġg aining
Ġcan n
Ġspec ified
flu ence
Ġhit ting
iffer ent
Ġd iox
ĠV isc
hed ron
les h
Th at
Ġpe er
Te chn
ĠGener ation
Ġdub bed
Ġupgrad ed
ĠMidd les
7 00
ĠM C
ĠN ancy
ĠJ ob
ĠK as
ap ur
Ġpre val
Ġqu e
Ġqu oted
ĠâĢ ł
Ġcirc ular
Ġthreat s
Ġconstitu encies
ĠLan tern
ĠWol ver
clesiast ical
C arl
Ġb onds
ĠA A
ĠF an
Ġun p
Ġdes ired
Ġmon ks
ai ro
ĠAm b
ato es
ĠWood s
Ġprohib ited
S eries
a que
d ays
ĠB ag
fer red
Ġnot ion
Ġsim ul
Ġperson ally
ĠBas in
iment al
Ġvo ices
Ġtack les
ĠMig uel
v y
ĠC ome
ĠM Ã¼
ĠM obile
ĠI g
ir ie
ĠR T
Ġunder graduate
ern ess
Ġgener ate
Ġback up
por ter
yd e
Ġspace craft
Ġcontrib uting
ĠMet al
Ġmechan isms
ĠStand ards
mod ern
ĠAmbass ador
or ate
Ġch orus
Ġcl ay
Ġ9 1
Ġgovern ed
oo f
Ġ185 9
ĠÅ ŀ
l ist
t ons
Ġf isher
ĠC od
im on
Ġg ran
ĠG ates
Ġen vironments
ĠSh ore
ĠLou ise
Ġgrand son
Ġacknowled ged
B ook
s outh
Ġb ore
ul ous
Ġro ster
Ġsign ature
ĠAir craft
ĠBo eing
ĠSk ating
Ġhon ours
Ġbank ing
ĠStock holm
raf ts
ĠAntar ctica
Ġtransmit ter
A p
Ġ {
om eter
ĠP or
ul g
ĠCh al
Tax a
on ne
or ic
ĠC ant
Ġh oles
oc ide
ĠGrand e
Ġsusp ected
ĠAut o
ra h
ĠL if
ĠW u
man uel
ĠCom b
ĠPres byter
Ġstory line
ĠAtl as
ĠJul ia
Ġpan els
Ġconstant ly
Ġdiplom at
Ġtheore tical
ĠPhys ics
ĠAgre ement
F I
J ack
ĠS ons
ers hire
ĠJ ak
Ġra id
Ġ9 2
Ġcontin ent
ĠEn s
ĠBry an
ĠSimilar ly
C ategory
D I
d irect
Ï Ħ
Ġt et
le igh
ĠS z
ĠC N
Ġl ib
ĠH il
Ġart if
St at
Ġstat istical
Ġphil osophical
found er
ĠBald win
D NA
F rance
l ast
Ġp od
ro ve
ou p
ĠT rent
Ġe agle
Ġun em
Ġcol ours
ĠAn a
sh ine
play er
Ġmot if
Ġarg uments
ĠOther s
Lou is
Ġthor ough
ist le
her ic
Ġv inyl
Ġde als
Ġeng age
Ġpen et
Ġbor row
G od
T ra
p ath
ĠH off
op ing
qu et
ourn ey
Ġhuman ity
Ġsudden ly
od yn
ĠAl ber
ne ver
Ġmar ch
ĠTra ffic
Ġacqu ire
ĠBrad ley
Ġtherm al
Ġsax ophone
T er
Ġh ung
et own
if ax
Ġcl ot
ev o
Ġ8 3
F red
M or
um ped
und a
ount ed
uro s
Ġne ur
Ch ief
Ġdebut s
Ġtrib al
B aron
am ma
Ġk m
Ġtour ists
ĠBa iley
ĠSax ony
orient ed
H C
ant om
Ġlegend ary
Ġsole ly
ĠRol ling
Ġalleg ations
histor ic
H uman
L E
S ec
Ċ ĠĠ
it ely
Ġc ort
ĠC av
ow l
ĠL ink
ub ble
uc he
eg al
sp ective
Ġrest ore
Ġbatt alions
ĠUr ugu
ĠRepublican s
Ġdivor ced
C ultural
Ġf ru
im ated
Ġy ard
Ġinter im
Ġfind ings
Ġsum mit
Med ia
Ġautom atically
Ġdoub t
M ur
g ie
g ames
Ġm ild
Ġl ung
ph al
ĠGu itar
ator ies
uk u
Ġz ones
Ġachie vement
Ġesc ort
il ogy
ĠL odge
ĠW C
ard ed
oot ing
Ġend ors
190 5
ĠEll is
ĠHend erson
à ¥
in ted
ĠT ake
ĠP ath
ĠH urricane
ust ers
Ġreg ister
sc reen
190 8
Ġinterest ing
ĠJud a
Ġfocus ing
ĠFern ando
C zech
ĠB ever
Ġpl ates
ĠAm ateur
Ġdr ives
ĠGu j
ĠDr um
Ġassass ination
C ulture
W ork
f ight
is i
om o
ĠCh uck
Ġcomp uting
ĠCong o
Ġinvestig ate
ĠSher man
O s
ol io
ly mouth
ĠR up
ac ular
ĠK olkata
yl um
Ġwid th
ĠHaw ks
ĠGer ald
Ġconsequ ence
Ġlibr aries
Ġambass ador
R ay
i em
Ġt ram
Ġd imin
ow der
art e
Ġcl ient
ne apolis
Ġinter act
ĠStev ens
Ġcerem onies
ĠSoft ware
R ivers
T oday
a un
Ġman ages
ĠBl ake
ĠWar riors
Ġgu idance
ĠPl aza
aid en
ĠAct s
Ġpat ent
Ġimm un
Ġaim s
ĠRem ix
ĠLat via
C oll
Ġs outheastern
Ġh appy
ch ief
im er
em por
Ġhe ter
pt on
ath am
Ġlater al
Ġep ic
Ġpresent er
Ġdem ocratic
Ġcor on
ij a
ĠSing le
Ġemer ging
Ġpil grim
Ġarc ade
en ess
Ġd ors
ĠM ade
im ming
ĠL iv
ĠL ords
ĠN g
Ġan at
oc o
ĠLe icester
Ġident ification
f fer
Ġc rack
ĠF res
iz a
te chn
ound ing
Ġtra ils
Ġtri o
ĠMem phis
Ġvolunte er
Ġhoriz ontal
B ox
e a
s ing
re ens
Ġb od
ĠB ark
Ġl anes
ĠH aven
ac ional
Ġcon ferences
Ġex ch
end um
pl ane
ĠSh aron
Ġind irect
Ġfre estyle
ĠTri ple
ĠEngine ers
Ġveget ation
f red
m ons
ĠM ine
ĠP ors
ig el
Ġst roke
ĠJ ury
ĠDoc umentary
ĠCommer ce
S F
ĠA chie
ran ger
Ġact ively
Ġbo ost
Ġ. ...
Ġsm oking
Ġprom ised
ĠPre fecture
ĠWrit ers
Ġmonarch y
aly mp
ĠLear ning
L os
M at
c in
ar is
ĠV eter
ok u
ĠBe a
ĠStrateg ic
ethel ess
it ory
ĠS ullivan
ith ms
Ġcomp rom
Ġcons ensus
Ġelect rons
Ġvers us
ĠHar bour
Ġhost ing
Ġship ping
ĠApp eals
Ġassess ment
ĠEston ian
W ind
y on
Ġg rain
ĠD y
ĠAr ctic
ĠDay ton
Comp osition
Ġpoor ly
Ġut ility
Rou te
B i
w ill
ĠP am
ĠK ids
Ġher ald
velop ed
Ġmod ule
ble m
Ġpriv ately
Ġmechan ics
Ġfort ress
Polit icians
Ġwa it
ĠBeng ali
rac use
Ġax is
Ġp ig
ĠThe odore
Ġde ce
Ġstre ak
ĠParliament ary
Ġop ens
Ġwithd rawn
Ġadvert is
Ġencoura ge
Ġcopy right
Ste ve
Ġnickn amed
ĠEston ia
exp ected
ĠFerdin and
P rem
p it
Ġc ounsel
ĠL iga
ĠN in
ĠInd ies
Ġsit com
Ġproper ly
Ġhon ey
Ġunc lear
Tour ist
L ocal
z el
ĠB ody
ĠR ice
ĠG O
ll er
ĠInd o
Ġpass ion
Am ong
ĠPaul o
Ġcritic ised
Ġceleb rate
Ġburn ing
ĠWrit ing
Dist rict
Ġassemb led
M iddle
at u
Ġc ere
Ġc aves
Ġf ires
ĠP od
ĠI stanbul
Re v
Ġbl og
Ġaccompl ished
Athlet es
Ġoverw hel
Ġf et
ĠT HE
ĠM ob
ir ical
ut z
ĠL ar
Ġv e
ĠU g
ĠCol lect
Ġacc us
Ġhead ing
Ġlight ing
ĠTor ah
ĠGram my
ĠRaid ers
j ust
Ġ ur
en i
ĠD ram
ate ver
Ġor ange
ĠTh ings
Ġport rait
Ġbass ist
Ass ociation
Over view
Å Ļ
Ġsh aped
Ġelect ro
erb ack
Ġpen insula
ĠDev on
ĠSlov akia
re p
ou rag
Ġre de
ad ic
ĠH od
ĠE yes
ov es
Ar ts
Ġsurre nd
Ġdanc er
ĠAssy rian
ĠKash mir
ĠM ale
ĠN ame
Ġres erved
ib a
ĠCom bat
Ġexp elled
Ġown s
Ġcrit eria
itte es
Ġpit ched
Ġancest ry
Ġrenov ated
Ġtort ure
L ab
e i
Ġp ir
Ġth rew
ra pped
art a
Ġpar ad
ĠHar bor
Ġep it
Ind ia
ĠMid lands
G E
c z
v ation
Ġl eng
ond uct
Ġmar ble
Ġconsid ers
Ġregard less
Ġabs ent
Is lam
enz ie
Ġpron ounced
ĠMerc ury
ĠBey ond
h in
Ġs oci
ins k
ĠTr ue
ĠMon th
Ġprot agonist
An cient
Ġsw ing
Le ague
Ġtarget ed
ĠHous ing
H am
Ġb its
Ġp or
as ures
st op
Ġre ass
ce pts
im ination
ĠK arn
ov anni
Ġco e
reg ation
ĠPer iod
Ġflood ing
ĠSche me
B oth
Ù Ħ
ĠR P
ĠE ye
orn e
Ġj et
ĠCom plete
Ġdif f
Ġrev ived
ĠCor p
ĠAnat olia
ipel ago
A ut
B ir
M ike
Ġt ier
ord inary
cl osed
ric a
Ġexp anding
Ġcollect ing
Ġbr ings
Ġmamm als
N FL
t age
Ġt ab
ĠC H
ĠB rid
ĠR NA
ĠG ren
Ġunder lying
Ġfound ers
Ġauthor ized
Ġbeat en
Ġadopt ion
ĠSud an
Ġabbre v
l ied
st ed
arg est
ĠSk i
Ġlay ers
ĠDrag ons
ĠBahÃ¡ Ê¼
A z
Ġf ate
im ity
aj i
ĠChar ter
Ġdire ctions
Ġmir ror
Ġenh ance
Ġhelic opter
ĠPrest on
R em
on ium
Ġp ush
Ġl ig
Ġst aged
âĢ ¦
ian e
Ġch assis
Ġshe et
ator ial
ĠMe chan
head ed
Ġstri king
Ġflow er
Ġmission ary
Austral ia
Ne ill
ĠBron cos
Ġtouchdown s
iscell aneous
F ellows
G ood
j ud
ĠS isters
Ġre opened
Ġst ick
ĠK w
ĠK urt
ĠIn side
og ene
ĠCh amp
Al so
Ġmark ing
Ġconf ront
Ġshould er
Pl aces
âĢĿ .
Ġstream s
Ġcruc ial
a uthor
ĠA e
il ateral
ĠUS SR
Ġcr ashed
Ġmy sterious
ĠDar win
l ag
Ġb read
Ġl aser
ur ai
og l
ie u
per t
Ġne arest
Ġdesign ers
Ġequ ally
atter y
Ġ184 6
Ġmur ders
Ġcust ody
ĠLanc aster
Ġremember ed
whe el
G M
U SA
c ially
r ill
ĠT oo
Ġbe aring
ĠSouth ampton
Ġfin ite
Ġland mark
He alth
ĠDist inguished
Ġwid ow
Ġreve al
ĠPo etry
ĠGriff in
T ex
d an
ic ious
ĠC ool
ĠG amb
ĠW ang
Ġdist ant
Ã¼ k
Ġjoin s
ĠBer ry
ĠDor othy
ĠBund es
Ġalumin ium
tym ology
! ,
i ott
Ġd ust
ĠA way
Ġ1 17
ĠH omer
ĠTh an
Ġ8 9
ĠAd olf
Ġcap abilities
Ġtransl ations
H el
M att
Ġt uber
ĠS ent
ĠM uk
ĠV ern
Ġass ists
Ġob sc
asc ular
Ġ185 8
unc iation
Ġadvoc ate
Ġd ancing
Ġh ub
ay ette
ĠD ale
her d
od on
Ġarch ive
Ġagre ements
Ġmass acre
ĠTre k
ĠConf ederation
yg io
Ġcogn itive
Ġinfer ior
Clim ate
A rab
m us
el ong
Ġl ux
Ġdis agre
ĠRichard son
Sp ace
Ã§ a
ĠMore over
Ġdyn amic
iform es
ĠHind i
Ġdiscrim ination
ĠDw ight
D el
g ang
Ġc ass
ĠC osm
ĠD ip
ĠEd itor
ĠBr as
Ġtransl ator
Ad minist
Ġmut ual
l ined
at as
Ġs aint
Ġs ailed
as ium
ĠD ol
ip eg
Ġrel uct
ĠZ imbabwe
Ġconsist ently
add le
Ġp ine
ĠL az
ĠG ospel
Ġex ports
Ġsub marine
Ġam munition
alth ough
ĠGl ass
Ġbroad caster
Ġcost ume
ĠUs ing
ĠVlad imir
Ġcollaps ed
O f
Ġn an
id ay
ĠR achel
ĠD unn
un al
ĠG em
Ġan k
Ġfound ations
Ġmin erals
ĠChurch ill
Histor ical
ĠRav ens
L O
ĠR ee
Ġra pper
ys ical
ĠX I
ĠÃ ł
ĠGreat est
B ad
b ing
l ore
in ks
or ian
Ġd ying
om al
ĠL etters
De velopment
ighth ouse
Ġmoment um
idel ines
Ġaccord ance
ĠCurt is
E th
J HL
r ath
ed ge
ĠC ort
Ġh ang
Ġst ones
od or
ess a
ĠY an
Ġdo ctors
Ġconf ron
Ã¤ r
Ġconvent ions
Ġmort ality
ĠMaced onia
f ile
g reen
u ador
Ġto b
Ġprop osals
ĠJul ie
Ġhop es
ĠFellow ship
Ġannounce ment
2 50
Ġs ew
ĠL or
ĠL ey
Ġout come
ĠSc ots
Ġcur riculum
Ġwe igh
Ã¡ ndez
ĠMc Donald
field s
Ġaut onomous
Ġremov ing
Ġstrugg led
G S
M Hz
m ay
it ated
ĠB ates
ĠH ir
ĠG aelic
Ġev ident
Ġinv aded
Ġtr ig
Ġkill er
Ġphys ically
Ġge ographical
ĠOper ator
Ġtrav elling
Ev ents
D iw
in ts
Ġw elfare
ĠT ru
os er
ell ers
Ġbas eman
Ġsk ater
Ġequ ations
Ġcou pl
umber land
Ġnation wide
ĠRaj a
Ġprofession als
Ġrenew ed
Ġnav igation
Ġnort heastern
E tymology
U l
or rect
ĠA I
aw k
ier i
ĠPh D
ĠRe id
Ġmet aph
15 0
ĠComp lex
ĠBas il
ĠHal ifax
Ġpurs ued
ĠLind a
Ġshel ter
E ach
d ec
ĠS elf
ĠC rist
Ġbe ings
ul k
and in
ĠK ad
ens ed
Ġrec onstruct
Ġunder go
fic ial
Ġreview ed
ĠInter ior
cha ft
ĠIb n
Ġth rown
ĠR ib
ĠN SW
ag ogue
Ġstation ed
ĠChrist ie
Ġexpl oration
ĠPort s
Ġaccount ing
Ġ185 6
Nor wegian
Ġprest igious
V ir
un i
Ġcor poration
Ġaff ord
Ġbre ed
Ġaut hent
Ġpred icted
Ġarm oured
Ġdeep ly
haus en
b ian
Ġt ale
Ġs id
ĠH its
em is
Ġch ore
Ġback ed
Ġsm oke
Ġopp osing
Ġbox er
ĠDemocr at
estab lished
ĠSus sex
Ġc oc
ĠC anton
ĠH ew
ĠH ave
art z
Ġrele asing
ĠAng ola
Ġtop ic
ĠVict ory
ĠOb ama
ĠFact ory
J ud
v ian
Ġc ub
ĠH ood
ĠIn stitution
Ġsp ots
Ġun w
oin ting
Ġnew sc
Ġcomplex ity
ĠDis placement
Ġbene ath
Ġroll ing
ĠChem istry
L ocation
x i
Ġc anton
as ma
ĠA my
ĠE C
ĠK end
land o
ind e
att y
Ġem bra
Ġwe aken
ĠBra h
Ġcat cher
Ġmom ents
Ġteach ings
Ġprompt ed
Ġvel ocity
Ġdiox ide
C ities
T ime
ĠT at
Ġres ur
Ġcons ec
isc al
Ġcreat ures
ĠJess ica
Ġimpress ive
ĠCzechoslov akia
g i
al ter
ĠB oh
Ġloc ality
ern er
Ġent ries
Ġless er
Ġsepar ately
Ġmiss iles
Ġneigh b
Ġsculpt ures
imens ions
ĠBurn s
Ġnav ig
b ooks
as o
ĠM oor
Ġcont rad
ĠCon stitutional
190 9
Ġsuper hero
Te am
S l
s ince
ed uc
Ġw ard
Ġf inger
Ġp aying
ĠS leep
Ġn ode
ĠH arm
ĠCol le
Ġkn ows
orm s
Ġnational ly
int ers
ĠRos en
ĠBrad ford
Ġproceed ed
ĠSlov enia
F F
H ouse
N G
in is
ar ium
Ġf ier
ĠS of
ĠT ampa
ĠN intendo
th is
and ra
ri o
ri ages
Ġpres ervation
ĠMor rison
Ġsett ings
unn els
Ġprevent ing
ĠBoy d
ĠMoroc co
b est
Ġb ord
ĠP lymouth
ĠL ak
Ġpro claimed
ell ation
Ġj ack
aw ar
Ġform ats
ĠTr uth
Ġmy stery
ĠFrank furt
ĠId aho
Ġham let
Columb ia
ĠWals h
ĠSacram ento
g ard
ol ine
ĠB ast
ad ia
ĠD ise
Ġat he
ĠIn teg
ĠCh ase
Ġun ve
ĠAn s
Ġdef ender
Ġrelig ions
ĠCap itol
Ġautom obile
Ġfurn iture
Ġju ven
Ä Ľ
Ġe ating
ĠR oc
Ġch ains
ack er
Ġher b
ina e
ĠEd ge
ĠEx cell
ĠMc N
ĠEnter prise
power ed
Ġt ent
ĠC el
ĠM oss
ur ities
ĠR ural
op us
Ã© g
ĠCar roll
ĠMin neapolis
Ġprot ocol
ĠTer ror
Ġbr ass
ĠBerm uda
Ġing red
Ġorient ation
h ou
r ud
en o
ĠP ars
Ġj ail
Ġrec urring
Ġup set
ĠKing ston
Ġgr ants
Ġser ver
ĠSat urn
ĠThrough out
o qu
Ġb alls
ĠP ain
ĠF antasy
ĠG ur
av ers
io let
Ġass ert
Ġsub species
Ġgener als
Ġla ure
Ġder ives
Ġcust oms
ĠPop ular
st age
op a
ĠAl g
Ġend ings
ellig ent
Ġir regular
Ġdinosaur s
ĠLaur a
Ġprox imity
C P
l is
Ġt ables
Ġs aints
ĠC u
ĠC lear
ĠM ang
ĠP on
ist ence
ĠF emale
ard ment
ĠCh in
ĠV e
ĠNew man
Ġam phib
Ġaccept ance
Ġcreat or
Ġmanufact ure
ĠCP U
ht m
H a
N atural
h ot
v ik
Ġb achelor
ĠC eleb
ut ical
ĠD atabase
ag ara
est ock
ĠCh urches
uc a
In c
Ġsub urban
Ġtr ucks
Ã¡ r
Ġsix teen
âĢĿ ,
Ġec osystem
Dist ricts
Ġcatal og
Ġdanc ers
ĠWes ley
ĠCraw ford
F ree
h anded
id an
ĠD und
se at
Ġgovern ors
Ġperform s
ĠBur ke
mark et
intend ent
Ġverte bra
ĠHein rich
M us
c ano
on ica
ro ft
ĠL av
and ro
Ġafter math
Ġcol span
Ġfour teen
ĠEd gar
ĠMathemat ics
s ites
ĠH umph
ĠG P
og ie
rop olis
Ch icago
ĠMur der
di ocese
Ġm oon
ĠT yp
ĠM iles
ĠD in
Ġex terior
Ġad equ
iss ued
Ġconv ey
ĠCarn egie
n umber
w id
x x
Ï Ĥ
ĠHe ath
ett i
Ġtermin ology
Hung arian
Ġreven ge
ĠAristot le
Ġf ung
Ġm ask
ĠB ran
ĠP ret
Ġint ensity
Ġatt itude
Ġimpro ving
Ġens emble
Ġsens itive
Ġfeed ing
at ial
Ġp enn
ĠC I
Ġcomp anion
ĠSp ears
Ġ10 5
arm ed
com es
Ġ185 2
Ġdig it
ES CO
ĠNep al
ĠJuda ism
t ar
Ġm ail
Ġm arsh
ĠC ash
ĠW ings
ĠK erry
Ġsuccess ive
Ġconf irm
Ġpract iced
Ġhom osexual
ĠGen eva
Ġrival ry
Ġaggreg ate
ĠMonten egro
k ara
ĠS pl
ĠS earch
ĠW ick
old s
Ġsur pass
ĠFl oyd
ĠSup erman
Ar gent
Ġvol leyball
ĠSund ays
Ġce iling
nold s
ĠDod gers
ĠJerem y
. -
C H
Ġf action
ĠB ec
ĠD iet
ĠE state
ond o
ĠGu atem
Ġpra ise
m ember
am y
ĠB ased
et erm
ĠN ak
ĠW ord
ĠO F
Ġdo zen
ĠPar alymp
Ġtrad em
ĠHer oes
ĠMal colm
190 3
Ġwild life
fr ame
l oo
v ideo
w alk
an ie
or row
Ġf atal
Ġor th
Ġcar ved
anc a
Ġpost s
Ġcool ing
Ġgrav ity
Prov incial
Ġdeter ior
Ġtob acco
A ud
L D
g rand
t or
am ar
ĠB agh
ber y
Ġgu ided
ĠPr iv
Ġterm ed
ĠEx amples
ĠPhil harm
190 6
Ġsquad rons
P akistan
h ow
Ġin land
ĠC lement
Ġpl anted
ust ion
Ġra w
ĠCol ony
emb ourg
Ġprov en
Ġeng agement
ĠLes lie
ĊĠĊĠĊ ĠĊ
Ġfil ter
Ġun st
Ġcent ered
Ġmon uments
Ġsmall est
13 0
esc ope
190 2
Ġmission aries
Ġprior ity
ĠChron icle
G P
b ot
d ad
v ir
Î ¹
Ġb eds
Ġm ad
ĠC ut
ĠM ats
ĠP omer
ĠH onda
ĠD id
ĠD um
ill on
Ġref uses
bo at
ĠHol ocaust
Ġdiv ine
Ġcommer cially
stra ÃŁe
ĠSant iago
Ġprepar ing
Ġcoordin ator
T P
Ä ĩ
ra int
Ġv it
Ġhe ating
ĠV III
Ġam ino
ĠBl oom
au f
Ġob vious
Ġfrequ encies
ĠSur rey
ĠLiber ation
Ġexhib itions
ĠFight ing
1 20
c ourt
Ġd up
ab ling
Ġse al
Ġrec ruit
Ġmed all
ĠMon roe
Ġgrow s
Ġ185 5
Ġdisp utes
uran ium
Ġfrag ments
Ġpregn ant
k el
m el
ĠD awn
oc als
Ġv ig
ĠU se
Ġr ings
so on
ĠAr g
Ġover th
Ã© m
Ġfre ed
Ġblock ed
Ġlearn s
agon al
Ġinfl ation
Ġtribut ary
h alf
Ġn ights
ĠD ob
ĠK och
Ġse ctors
Ġun ited
ack ing
Ġag gressive
Ġdec is
ĠBe ast
ĠNot re
Ġquestion ed
Ġcle ared
Ġa uction
re present
at aka
ĠL eop
ĠF rem
Ġgen res
190 7
ĠJust in
Ġess ays
Ġpoly mer
ĠAchie vement
Diw ygio
m and
ed ar
Ġc ord
Ġd ish
ĠP orter
ĠH im
ut ors
ĠO S
all ow
ie v
In f
Ġdevelop er
Ġconc urrent
Ġintro duce
Ġtro ubl
Ġarg uing
Ġconduct ing
Ġconsider ation
ĠWolf e
Ġaer ial
n ian
r ays
Ġs weep
Ġd ense
em ption
ĠK ang
ne um
con n
ĠPr ussian
Ġtown ship
Ġprom ise
Ġhand led
ĠSen ators
Ġ185 1
Ġcertain ly
ĠMid land
ĠWork ing
Ġalt ar
ĠColomb ian
Ġterror ist
Ġvow el
J eff
P rim
S o
g ans
ĠM S
ĠE aster
ĠTh ames
ĠPro s
ĠAnt werp
Ġhon ored
ĠLev iticus
Ġcomplic ated
am en
ĠP ole
ĠH alf
ĠV ent
Ġsp elling
ass i
Ġcar b
Ġpres idency
urg ical
ĠSch war
Ġ184 5
ĠSer ie
Ġrein force
Ġexplos ion
s burg
Ġb ind
id ity
ĠG M
ĠU z
Ġro okie
Ġen orm
ash ire
tle ment
Ġleg ally
Ġrob ot
Ġmonarch s
Ġcrown ed
Ġexplicit ly
C onstruction
D T
E c
J on
ĠC ave
ĠG ymn
od us
Ġpl ural
ĠSy rian
Ġspe aks
Ġspeed s
Ġdraw ings
Ġaffili ates
Ġgar rison
ĠUC LA
Ġmanif est
M il
n Ã©e
Ġ es
ĠC F
ĠH IV
qu in
ace utical
Ġsc ar
ons on
rol ogy
Ġ184 7
Ġmill ions
C ivil
O l
b red
Ã °
es a
ĠF am
Ġcl ients
ph ant
Ġmon ster
ĠSouth west
Ġsouth western
Ge org
Ġpersonal ities
Ġcalc ulated
ĠPresbyter ian
B attle
l if
ĠR ac
ĠW ander
ĠV iv
ord ination
ĠInd igenous
ĠBer gen
ĠÃ ĵ
Ġmeas uring
Ġeth ics
Ġvulner able
Ġ >
Ġb old
ĠS ap
Ġd uration
ĠM om
ĠD ud
Ġan the
te ch
ĠAr n
Ġed ges
Ġent ities
ĠGl enn
ĠRet rieved
Ġinsc riptions
ĠChem ical
Ġtact ics
ĠAgric ultural
ĠFranÃ§ ois
ĠRoche ster
F ield
J ac
an ch
ĠI gn
ore y
Ġte lev
Ġacc idents
Ġpres um
uk h
mit t
Ġspecial ist
Ġ185 4
ĠGeorg ian
Ġastron omy
Ġt ill
Ġl i
iv ided
ĠH ours
ount ers
uch i
Ġteam mate
Ġdist ances
Ġexper ts
enc ia
Ġ185 3
Ġdraw s
ĠChief s
ĠLuc y
Ġconcent rations
Ġflo ors
Ġclimb ing
Ġenroll ment
B R
p arts
Ċ ĠĊĠĊĠĊĠĊ
he e
an z
Ġp ace
ĠEl is
osp ace
Ġalign ment
ĠLy on
Ġtalk ing
Ġcompris ed
Ġscatter ed
Ġl ying
ĠP ine
ĠD ixon
Ġcomp ensation
Ġtrans action
Ġcar riers
Ġrev olt
hard t
Ġcongreg ation
z ep
ar re
ĠS ib
Ġsub ordin
Ġdep icts
Ġsl ot
ĠMed ic
Ġimport ed
Ġkey s
Ġhar ass
rell a
ĠGriff ith
ĠWinn ipeg
G irl
N O
l ies
Ġto pped
ĠT able
Ġl aps
rain ts
Ġliter acy
Ġagre es
Ġcontinu ously
ĠKenn y
Ġquant ities
Ġpref ix
V ar
p ol
Ġw ake
ĠC ord
os ion
Ġv ine
ĠV il
ep pe
ĠHe arts
ĠY ah
Ġdef unct
Ġair ing
Ġ13 0
urs day
Ġconf idence
Ġboard ing
ĠOri oles
ĠKaz akh
lik ely
h or
m al
Ġin ning
as is
Ġm ud
ac iÃ³n
oc ate
Ġ3 60
Ġcomm une
Ġam mon
ott om
ĠTr in
ĠPal m
Ġarm or
Ġappl ies
Port ug
P ower
an u
og o
so ver
Ġapp rent
Ã¡ l
Ġlack ed
ĠTrib une
Ġpreced ing
ĠKum ar
S peed
c ats
ĠP os
ia o
Ġex amin
Ġreg istration
ĠPro cess
Ġdef ic
Ġinc om
Ġgrad uation
Ġcust omer
Ġaccident ally
Ġinaug urated
Ġanx iety
S et
T I
ĠS uns
Ġh ttps
ĠM umb
ĠM eyer
ĠP i
ĠF eder
ĠJ agu
ber ger
ap est
ĠCh anges
ĠĊ ĊĠ
clud e
form s
ĠBe ing
Ġenc ourag
ĠAlb ion
ĠSol ar
Pr ivate
Ġpurs uit
ĠHonor ary
Ġrecon c
P ass
Ġc ouncill
ĠR oma
th al
ĠW A
Ġnational ist
ops is
omet ime
Ġread er
Ã¶ l
Ġfe es
Ġplan es
ĠTri p
Ġgather ing
ĠKurd ish
Ġclot hes
p y
at oon
Ġto oth
ĠL och
ia ceae
ĠU nd
ĠGerman ic
ĠQ uran
Ġpar ade
Ġdem o
Ġgen ome
ĠPet erson
iÄ į
Ġfle e
can ic
ĠFront ier
S outhern
i ating
u fficient
Ġin mates
ĠD arl
uc ed
ll i
Ġgame play
ĠMon ument
Ġaut o
Ġemploy ee
Ġjournal ism
Ġtax a
ĠRel igious
ĠOs lo
ĠDiv is
ĠBed ford
ĠFil ipino
otyp es
S ax
T rad
à ¯
Ġm a
Ġh oly
Ġ( #
Ġun expected
ĠTe legraph
ĠAb s
be it
Ġshall ow
ĠEc uador
Ġalgor ithms
ĠProf ile
habilit ation
c io
k ers
Ġm ood
ou x
ĠB j
ĠP ale
ĠD ee
ĠF BI
ast ed
ĠAt kinson
Ġpract ition
Ġexhib ited
ogen ic
ĠBeg inning
Ġrecre ational
h art
Ï ģ
Ġf ract
ĠS tern
Ġst int
cl air
ph alia
olog ne
ĠPl us
Ġsk iers
ĠProv idence
Ġvir al
ĠBul ld
ĠGen esis
Ġassign ment
ĠJenn ifer
Ġjudg ment
C R
d istance
he nd
al en
Ġre join
ĠL M
ĠJ ets
ap a
Ġtra ce
Ġrun way
10 1
Ġscreen play
D own
I ts
T w
Ġc ock
Ġp icks
ĠS U
Ġ1 21
us ually
ĠL oc
Ġcons ort
Ġam alg
Ġinc orrect
ĠCal ed
Ġmet eor
ĠPar am
Ġrail ways
Ġsol ve
udd in
ĠArab s
ĠMot ion
Char acters
ĠNAS CAR
B ut
B irds
W eb
s ay
à ¦
Ġt aste
et ter
ĠL arge
ph an
Ġout fielder
ĠMan or
ĠRec ording
Ġdet ain
ÃŃ s
Ġaband on
Ġnob ility
Ġtor ped
ĠProper ty
u ity
Ġsc out
Ġall ocated
Ġmod es
Ġrefer endum
ĠEm ily
189 5
Ġarm our
Ġdiss olution
ĠStaff ord
Athlet ics
ĠPow ell
R en
W il
r ina
Ġp ub
ĠM old
ĠB ash
ĠN ortheast
Ġsing ular
omm ission
Ġfar mer
ĠJo el
ĠStr at
Ġenh anced
Turk ish
ĠPors che
Ġf irms
ĠB ing
ĠB end
Ġl ar
est e
ĠK aren
ĠSt range
Ġdevelop ers
Ġem issions
ĠVol unte
ĠFin als
Ġfood s
ĠAud i
Ġdivor ce
ĠKle in
Ġelabor ate
Ġdeclar ation
f s
l ay
Ġthe sis
ĠB ee
Ġg ates
Ġv oyage
ĠK ind
ill i
Ġdis abled
ron ics
Ġnew er
ĠEn c
Ġbelie ving
Ġ184 4
ĠField s
Ġconce ived
Ġkid ney
Ġtox ic
g irl
Ġt ends
in ate
Ġs its
ĠS ed
ĠA FB
Ġl ighter
Ġch ips
Ch urch
Ġcomment ator
Ġhar vest
ĠSpe aker
ĠCurrent ly
Ġbapt ism
Ġdestro ying
Ġb enz
ĠC risis
ĠM ugh
ĠB ooth
Ġun anim
Ġ18 37
Ġqu arters
Ã© d
pr int
Ġfl av
Ġfac ade
bl ack
Ġaffili ation
Flor a
feat uring
E L
N ow
O b
S a
b eck
h of
it ational
it ism
ĠA us
ĠW it
ant is
ĠCh ang
ram er
ĠRe formed
St ep
Ġtri ps
Ġbox es
quarter ed
U ntil
Ġs hed
Ġm osa
ĠA S
Ġh ind
Ġl ip
ĠH appy
ist ically
Ġ" ...
ov ed
act ic
ĠSch olars
ĠCommun ication
be k
Ġsen ators
Ġsn ake
Ġmeasure ment
Res earch
ĠCher ry
Ġautob iography
M useum
Ã ®
Ġc af
as an
ĠT in
ĠH ull
ĠD olph
ĠV ald
act or
ĠZ ero
Ġvers es
Ġeditor ial
ĠProgram me
ĠBol ton
ĠTal iban
ÅĤ aw
Mart in
govern ment
g eme
Ġ uranium
ĠK ais
Ġse ating
ĠV ista
ric ia
Ġend angered
Ġlong time
Ġair ports
ĠSuper ior
Ġdiscuss ions
ĠTw enty
M O
r il
v ens
Ġp aved
ĠB il
ĠH our
ĠI TV
ĠE ducational
Ġv ein
Ġexpl ore
ĠCont est
ĠEll iott
Ġlingu istic
ĠUlt imate
C ross
J ean
M ount
S er
i ade
Ġh arsh
ĠK ot
Ġde alt
air y
Ġcount s
ĠFer gus
Ġamb ig
ĠRol and
ĠFace book
ansk rit
Ġs ends
ĠA FC
ĠM ile
Ġn ose
ĠI z
Ġpubl ish
Ġph ylogen
Ġimp ressed
Ġdesc ended
ĠMin isters
ĠTr unk
Ġcateg or
Ġdemonst rate
Ġvalley s
Ġrecip ients
Ġfoss ils
d ong
il ight
ĠL inn
rib e
Ġinc umbent
my n
ĠGu adal
Ġastron omer
Ġancest ors
Ġaccompl ish
Ġvic inity
Ġninet eenth
J o
ic z
st roke
ĠH els
Ġar ist
ĠSc andin
Ġhigh ways
Ġintro ducing
ĠRich ards
je ctions
ĠDisc overy
ĠWy oming
Ġundert aken
Ġtru ly
C r
a ic
w itz
Ġf usion
Ġl ens
im an
ĠG ross
ĠV it
ĠGu ards
ĠHun ting
ibl ings
ĠGi ovanni
Ġdim ension
ĠEin stein
Ġp in
ĠM ater
ver age
ĠJ ourney
op ot
ri ot
man s
erv ous
ĠY ak
Ġ18 15
Ġup ris
ĠSh annon
Ġest ates
Ġinter ference
Ġart ic
Ġcap ability
Ġmet all
Ġlast ing
ĠProv ision
Ġbr ut
ĠCour ts
ĠBuild er
n as
v at
ĠL ap
Pl ace
Ġcorrespond ence
ĠSab ha
Ġstrict ly
K h
Ġ ump
ĠM ing
ĠK yle
Ġper ception
Ġall ied
Ġsl opes
ĠSqu ad
ĠUnder ground
Ġflag ship
pur pose
Ġwatch ing
atern ity
Ġt ens
Ġd ances
ĠT otal
ĠM ets
Ġsc ales
oy a
Ġinter v
une i
Ġfin anc
Ġactiv ated
lic ations
vo iced
Ġstrateg ies
Cal ifornia
Ġeval uation
Ġdepict ing
G roup
L es
d ing
an us
al bum
Ġc rop
ol ves
ĠP s
ĠH ost
ĠI P
ĠW ine
ĠK om
ip le
ean ing
Ġavail ability
ĠMy stery
Ġmarket ed
atri ates
ĠElect ronic
Ġbomb s
ĠRod rig
Ġinnov ative
ĠJoy ce
Ġcondem ned
Ġske leton
rox imately
Ġs izes
ĠP aper
ind ed
ograph ies
ĠFl ash
ĠHam mer
ĠOm aha
ĠRey nolds
Ġnit rogen
O x
S un
ĠI st
Ġal ly
Ġal pine
ĠSt alin
rit z
Ġ18 12
pl us
ĠSh u
ars ity
ĠComp anies
ĠSal le
Ġreb el
Ġasp ir
ĠRel igion
ĠColon ial
ĠRick y
ĠLanc ashire
Week ly
Ġmans ion
Ġt ertiary
ĠR ank
ĠL ect
os i
ab lo
Ġres olved
Ġpar as
Ġread s
ĠTre vor
ĠNap les
Ġkingdom s
Rel igion
ĠTon ight
l argest
t ail
en heim
ĠT ask
Ġre ly
ĠB it
Ġsub stances
Ġdef ines
Ġmat ure
Ġmem oir
Ġexhib its
Ġprin cess
Ġhabit ats
ĠPerson al
Ġfacilit ate
Ġdors al
ĠH ague
Ġg ains
ĠE ra
ĠIn ver
ĠMar in
Âł Âł
Ġserv ants
Ġ10 3
Ġsl alom
Ġlim estone
Ġstri kes
ĠLog an
Ġapart ments
Ġaccur acy
Ġgram mar
ĠAthen a
M ot
Ġw ishes
ĠC it
Ġh ur
ĠR um
Ġhe x
Ġun ity
Ġpol yn
Ġcar n
189 0
189 9
ĠOri ental
F S
P ers
b les
Ġp el
Ġp etro
Ġim per
let cher
ĠBar nes
Ġgirl friend
Ġstep ped
Ġbomb ers
ĠMarsh al
Ġdefend ers
ĠStra it
Ġdisapp ear
Ġelectron ics
ĠNik ol
R P
is eries
ol ving
os ely
und ers
Ġpre liminary
Ġfl own
Ġrep airs
Ġdep ictions
ĠTe h
omet ric
ĠQu in
Ġvir uses
Cy cl
Ġproceed ings
Ġpossess ed
ĠSuff olk
Ġ( $
am med
im p
ay e
art ime
ak o
Ġper former
Ġsup porter
Ġrep ublic
ĠAc ademic
Ġsent ences
wa it
ĠNot able
Ġquant ity
Ġevolution ary
Ġsed iment
ĠFull er
Ġartif acts
C ert
L iber
M o
W C
ĠC ult
ch in
ĠH ack
ĠF ow
ĠV ision
orn is
ool s
row th
Ġconvers ation
Ġdeploy ment
s eries
st ep
ĠB ot
ig nt
im i
ire ction
Ġcomp atible
Ġun con
red its
Ġmed ian
Ġext ant
190 4
Ġhum or
ĠPop ulation
ĠRan ch
Ġlect ures
ĠDyn asty
m ut
n ership
il ib
Ġas ide
Ġr ises
ik es
Ġinst ances
Ġreal m
Ġillust rations
ĠCrit ics
Ġdiagn osed
ĠOcc up
ĠMalt a
h ops
z burg
am ination
ĠM I
et z
ĠW on
ĠO pt
ge ons
ight y
aw i
Ġtra p
Ġpolit ically
ĠTe en
Ġdisc ipl
ĠCo hen
Ġsocial ist
ĠRock y
Ġcycl ing
Orig inal
ĠLithuan ian
Up on
ĠPract ice
ĠToy ota
ĠLah ore
T yp
m atic
Ġ ~
ĠA ub
ir s
ĠK ab
ĠSt ark
Ġsp here
ash tra
Ġem bed
ĠPr ayer
Ġnorth western
ĠGl ou
duct ive
Ġfe els
Ġrespons ibilities
Ġhero es
Ġcab in
ĠErn st
Ġprecip itation
y ch
Ġc ement
ĠS ugar
iv o
ĠH ear
ĠR ex
oc l
Ġch a
ong ue
ĠAl m
Ġac claimed
ood y
Ġsup ern
ĠAn alysis
Ġmet ro
Ġins ert
ĠWeb b
ĠAlf onso
'' '
ĠPhys ical
Ġveter ans
ĠMumb ai
K ar
Ġ icon
ĠR id
ĠF ur
ĠE is
Ġ12 5
ĠSy racuse
Al bert
Ġadv ised
Ġant ip
udd y
... ]
ĠGre ens
B eg
Â ½
Ġc ater
ĠM atch
ĠD erek
Ġas ym
av as
Ġadd s
Ġcomb ining
Ġtw entieth
arn ation
ĠPri est
Ġdram at
Ġge ography
ĠFre eman
Orig inally
ĠTun is
ĠBright on
Ġkit chen
ĠInsp ector
ĠC ock
ĠD ent
Ġfilm maker
Ġrel iable
ĠEd win
Ġant is
Ġgl ob
ĠDem ocracy
ĠBut ter
ortun ately
ĠLegisl ature
cut ta
Ġrefere e
Swed ish
P ac
ĠB ug
ĠH iro
Ġbe aches
res cent
Ġit em
umb ers
lin ary
Ġprocess or
Dan iel
ĠGeoff rey
M R
Ġt ension
ion ed
Ġd imensions
ad h
ĠR out
ĠW aters
Ġan ten
Ġan terior
Ġun likely
ĠCl aude
ĠSat an
ĠGor chy
Ġsuff ix
Ġster e
Ġavo ided
ĠFif th
Foot notes
ĠGorchy myn
N BA
l ide
Ġ 00
ou st
ĠD uchy
ĠG iant
th ood
ĠW ant
ĠK i
ep e
Ġcl ause
Ġexp atriates
the re
omet own
Sc ience
gl ass
ĠWin ston
Ġcoordin ates
M B
] .
f ootball
on ge
on aut
ment ation
Ġman or
Ġco ok
Ch arl
Ġ184 1
Ġovers ee
ĠStre ets
N ame
p olit
in ental
or ers
al ong
ĠB ess
Ġn avy
ust rial
Ġsub stit
ĠZ en
Ġdirect ing
amb a
Ġtrain er
ĠEm il
Con c
Ġdefeat s
Ġinterview ed
ĠBol ivia
German y
Ġmeasure ments
Ġphenomen a
Ġalgebra ic
ĠCov entry
Alex ander
N umber
b age
Ġ18 36
Ġrec onnaissance
ash ing
ĠX V
Ġsimilar ities
Ġsail ing
Ġconsult ant
Ġeg g
Ġelder ly
Ġsurrend ered
{ |
ĠT ale
ĠB order
ĠP ere
ĠP asc
ra pe
Ġr amp
ĠCh ancellor
ep age
ue bl
cl amation
ĠBeat les
Ġinvent or
ĠLux embourg
H an
K A
L atin
it ary
le af
ĠV ed
Ġint act
Ġkn ight
ĠBro ck
rew s
ĠWind sor
ĠBrun o
S on
Ġs ued
es ian
ĠC ul
ĠD ow
ĠE ar
ec uted
ia e
ĠV erb
cl ub
amp le
ĠMar co
ne z
ĠPl ain
Ch ris
Ġexpl ored
Ġaver aged
Ġqual ification
Ġdemonst ration
Ġbad ly
Ġreun ited
Ġrend ered
Ġmo ist
Que en
wid th
Ġp ounds
Ġl ac
ĠI ber
ĠL ing
ĠN u
ĠAr ama
Ġup coming
ĠOr lando
Ġprov ider
Ġpar ody
ĠAg ent
Ġfact ories
ĠDep ression
ĠSur v
Ġrat ified
Ġcoin ed
ĠRaj as
Ġlov ed
F E
l iter
Ġd ens
ĠA ster
ĠC ourse
Ġtra ces
Ġ10 2
ĠBas el
lim ited
Ġrad ius
part y
Ġproceed s
Ġcir cles
P ier
s ec
Ġs us
Ġs odium
Ġl ob
ĠF ant
os ity
ag ua
ens ing
ve ill
Ġhigh lights
Ġ14 0
ze k
omin ated
ĠAnn ie
Ġchem ist
Ã± o
Ġseem ingly
Ġax i
Ġrein forced
ĠVeh icles
c ard
Ñ ĥ
er os
en stein
Ġf ights
ĠK eep
Ġad mission
Ġco oking
aster ed
ged y
Ġrespons es
ĠDirect ed
Ac ademics
ĠHay es
ĠIndust ries
Ġreflect s
Ġisol ation
Ġadvis or
Mex ican
Ġunve iled
a eda
ĠĊ ĊĠĊ
Ġab olition
Ġcount ed
Ġstat ues
ĠMon ica
Ġinf inite
arch ive
Ġtro phy
ĠEngine er
Ġcollect or
ĠId ol
Ġspons or
Ġimpl ies
You ng
spec ific
ĠEver ton
ĠHug o
occ up
Ġsemif inals
Ġposter ior
Ġremn ants
Ġentreprene ur
Ġincom plete
W in
Ġm igrated
Ġd ressed
ĠD uff
ĠL ars
ĠJ al
ĠV ale
iz on
Ġhead quartered
Ġweb sites
Ġhealth y
ĠTit an
Ġreserv oir
Ġtrump et
mid t
q i
Ġf ron
Ġb rack
ĠB le
ĠB Ã©
ur red
Ġth read
ĠH ank
ĠR ever
ra its
ap or
ov ic
ell es
Ġsp rings
Ġsm art
af a
Ġdet ected
ĠEm ma
Ġcivil ization
ĠHaw k
ĠMos que
Histor ic
Ġmonitor ing
U T
V er
y re
Ġc rystal
Ġ1 18
ĠD j
ĠW er
ok en
vel ation
ĠZ amb
ĠWh y
Ġimp ression
Ã¼ l
Ġadv ocated
ĠMad onna
Ġimm une
189 6
Arch itect
m ain
Ġs iblings
ĠC ologne
ĠT ennis
Ġg amb
eg u
Ġed iting
elf th
Ġgener ic
ull a
aster ies
Ġinf ant
Ġaut onomy
ien ne
Ġins isted
ĠPe ak
189 8
ĠTim othy
Ġreason able
Ġfavor able
Ġfavour ite
uzz le
ĠVik ings
Ġrecept or
ĠTasman ia
C S
Ġw are
ĠC ott
ĠR amb
Ġtr im
Ġline age
Ġpresent ing
ĠArt emis
Ġprot ecting
ipp ing
ĠTour ism
Or der
Ġcam eras
ĠUN ESCO
Ġlegit imate
Ġanth ology
A E
s ix
Ġm il
Ġd ent
ĠL ines
ĠL oren
Ġrel ax
Ġph ases
Ġadv ances
Ġaud itorium
Ġm aj
ĠR ising
ĠD ong
ĠN iel
ĠV og
cl iffe
Ġ18 39
Ġinv ention
ĠNor wich
ĠApp eal
Ġwood s
Ġpromot ional
yt es
Ġchemical s
Ġrif les
Ġrecre ation
K en
h ig
u ctor
ĠA ires
ĠT yler
ĠM orm
ĠR ule
ĠW B
os ome
ĠSt ore
ĠPro ducts
ĠZ ion
ev ille
Ġeng ra
ats u
ĠCatholic ism
ĠEll en
Ġjoint ly
Pol ish
ĠFel ix
Ġhaz ard
J oe
L ee
e ch
all a
mer cial
ĠV ery
ĠAl c
pl ant
ru ce
ĠCon rad
Ġinter f
ĠCor on
ĠMon ster
ĠQu int
Ġbar rier
ĠVen us
Ġrub ber
ĠKrish na
veill ance
L ead
d el
al id
Ġf Ã¼r
ĠB T
ĠB ian
Ġg ast
ĠW ire
Ġcon sole
Ġex pense
Ġ9 00
Ġmar itime
Ã¡ lez
cast s
Ġbound ed
Ġprec ise
May or
ĠCas ey
ĠAuthor ities
zh ou
ĠPhilharm onic
S ide
ĠS ever
Ġh orm
ĠP om
ov Ã¡
ĠV at
Ġcl oth
Ġcont ents
ail able
ĠCal cutta
Ġeffect iveness
Ġfact s
Ġviol ation
ĠJeff rey
Ġce ase
Ġign ored
ĠGuj arat
Ġt unnels
Ġc rafts
ĠD ana
ĠV id
Ġ16 0
ĠEurope ans
ument al
ĠRh in
Ġenc ounters
Ġball oon
ĠOver all
Ġillust rator
ĠPhill ies
abul ary
Ġcongress ional
Ġenorm ous
F ar
O P
Ġt rick
ĠR ous
Ġg ly
Ġg ray
ĠE RA
ĠK abul
mer e
ib us
Ġam id
Ġtrans actions
Ġep id
Ġopt ional
Ġinvestig ated
Ġsal ary
Ġattract ive
Ġcompar able
Ġsurn ames
Ġinnov ation
Ġfold ed
A mer
I R
J ul
Ġm eter
Ġl ord
ug a
erv ille
ident ial
ĠAd a
Ġdr unk
Ġread ily
ĠAre as
ĠCy cl
ĠSpring field
avil ion
d orf
f ried
Ð ²
Ġp ink
ĠC ell
og er
Ġsp ite
Ġcont ing
Ġbet a
Ġrev ision
Ġdet ective
ĠHell en
Ġsustain able
Ġenact ed
is ans
ĠH ass
ĠH ann
ĠF i
ul ine
ri et
ĠK od
Ġ184 9
Ġlif estyle
ĠOrig in
ĠRecord ings
Public ations
ĠMick ey
Ġposthum ously
ignt y
ĠArama ic
Ġ !!
on ey
ĠA IDS
ĠF erry
ĠUS C
Ġbre ath
Pro gram
Ġ184 3
ĠÎ ±
ĠBry ant
Ġsubstant ially
ĠLad ies
ĠDub ai
pent er
Ġpregn ancy
ĠImm igration
dist rict
9 00
ĠA V
ĠT ext
ĠB irds
ad t
ĠK ant
ill iant
Ġdis hes
Ġcor p
ray ed
Ġgen ocide
ĠTown s
Ġpot tery
Govern or
ĠHerman n
Ġnut ri
Ġgif ts
Ġunem ployment
ĠColle ges
C amb
M ah
n is
u w
Ġw alks
ar ity
Ġb iblical
ro sc
Ġl ith
ad ors
ly ss
ĠW i
Ġde ity
Ġar ter
Ġnum er
ĠHol ly
ĠTor res
Ġobject ives
ĠLyn n
ĠBak u
Municip alities
ĠCly de
t itled
it ively
Ġp owder
ĠS W
ĠA ph
Ġh ide
Ġn as
im ation
ĠD iana
ĠV ul
Ġac claim
Ġsy mph
Ġtrans mitted
Ġmod ifications
ĠĠĠĠ Ġ
Ġfinal e
app a
Ġlack ing
ĠChap man
Ġvac uum
ĠBu enos
Ġancest or
ĠInn ov
Ġinher it
ĠPalest inian
s pring
Ġs or
Ġd well
ĠD ul
ĠL ed
Ġres on
Ġ3 50
ĠY uan
Ġ18 20
rib le
Ġdet ention
Ġswim mer
ĠDram atic
ĠExcell ence
D ig
H D
ro duced
ĠA yr
ĠH ort
ĠH ook
ĠF ast
ĠF alk
ĠG ott
are l
act ivated
Ġper f
Ġacc redited
Ġclass room
Ġcommer ce
ĠSub sequently
Ġang ular
Ġcalc ium
ĠRom ance
Ġpros ecut
Ġuniform s
ĠGw yn
Ġrevers ed
ĠNad u
Ġremark able
Ġaccompany ing
B ah
S en
n ormal
he ll
Ġm ouse
Ġh ometown
st en
Ġr idge
Ġnot ation
erv ing
ex cept
ĠBo at
ĠRoad s
Ġsee ks
Ġless ons
Ġdeg rad
head s
iat us
ĠFal cons
Ġdiagn osis
Ġkilomet res
ĠFig ure
N et
n ai
nd on
ĠS ue
ĠR ise
Ġst range
ĠSt arting
uc ci
we ed
ĠCl aire
Ġ10 4
Ġshort ened
ĠGal axy
Ġconsum ers
Ġtick ets
Ġcontroll ing
ĠParad ise
Tex as
K P
l as
m eter
ĠC yn
ĠF ut
ĠN em
Ġbas ement
eck er
ĠAnn iversary
Ġlo ans
ĠTim or
ĠNaz is
ĠId ent
Ġorb ital
cul osis
Ġliv estock
H ot
L R
N E
Ġm igr
land ers
Ġ18 35
amp ed
ĠMar ian
Ġ- -
ĠAb original
Th ird
ĠTur in
arth y
Ġge ographic
Ġcerem onial
En vironment
Ġflo ating
Ġproport ional
ĠPorts mouth
ilib rium
F OR
M icro
j ani
Ġd ys
ĠM og
Ġl ane
ĠY et
Ġra ids
Ġpol o
Ġeconom ist
Ġinvest ors
ĠAp art
ĠClass ics
SI C
Ġord ained
ĠBab ylon
Ġdoll ar
lar ation
ĠSupport ing
ĠRud olf
ĠPrincip al
Ġdenomin ations
F oss
is ure
Ġg re
ĠG ul
op rano
ec hes
art on
og ical
ĠMar tha
ĠAust ro
Ġgovern ance
ĠNe igh
Ġemer gence
ipl oma
ĠLi u
Ġbul let
Ġille g
ĠLet ter
Ġhapp ens
ĠSic ily
ĠGust av
W here
Ġthe ological
ĠC ivic
Ġh o
Ġn ervous
ĠI SO
ir ling
ast on
Ġmod est
Ġadv ancing
ger ald
ĠMy th
Ġmotor cycle
Ġschem es
ĠMalays ian
Ġtend ency
Ret urn
Ġton nes
Ġabund ant
ĠFergus on
K ey
m ile
at um
ar ound
ur ally
ĠP Ã©
ul ative
Ġle ased
pe z
ĠFl ag
Ġprec urs
ĠNord ic
Ġtact ical
B rian
c ot
n ational
Ġd Ã©
Ġch ord
cl ip
Ġloc als
Ġass ume
raph ic
Ġmon op
Ġsk illed
Ġship ped
Ġdest inations
ufact uring
Ġcell ular
Ġsum mon
ĠLow e
Ġthrow ing
Ġjump ing
ĠBrew ing
R ound
t ailed
y ar
Ġ Âł
he ars
Ġh urricane
ĠB ard
ĠL ocated
ĠG ian
ĠE min
aw ks
ĠShe ll
ĠMay o
St an
Ġorigin ating
ĠKn ox
189 4
enes is
ĠHart ford
Ġfru its
g ood
Ġs aving
Ġc ov
Ġre duces
ĠM ake
ĠD eg
ĠF ear
ĠW ake
ab har
ĠK C
ia z
Ġcl uster
Ġtra pped
ĠZ oo
Ġdec ree
Ġconst raints
ĠArab ian
ĠHead quarters
Pr ime
Ġmicro sc
ĠNic ol
ĠSem inary
ĠLat vian
ĠRoy als
Ġmolec ule
Ġreact or
ĠGuatem ala
ĠDivis iÃ³n
D es
H P
Ġin ver
ĠM und
ĠP ist
ĠP all
ĠD re
ĠD ir
18 70
sp apers
ĠMan ila
Ġmar ched
Ġfre ely
Ġprop he
ĠEv il
Ġdestroy er
Ġmem ories
Ġult imate
ĠÅ ½
Ġannex ed
Ġastronaut s
B rown
g ener
Ġo ak
Ġc ant
Ġf raction
iv ier
ig ma
ĠD rew
ĠJ ake
ain es
ber ra
Ġad m
Ġac ute
ĠNew port
Ġoff ense
Ġtra ced
ĠCol ts
ev e
ĠHis panic
Ġstri ps
Ġexcept ions
S oft
X X
at an
Ġc ro
Ġto uc
ĠM k
ĠH utch
ĠI X
Ġcon stitute
ip zig
Re view
Ġsup ers
ys ics
Ġem igrated
que z
Ġref lection
Ġcompet itor
Th ough
Ġstrong est
Ġhot els
amm ad
ĠGonz Ã¡lez
Ġsoph istic
B BC
Ġw ished
ĠC ities
el man
ĠB rain
ĠL on
Ġex cluded
nt on
ĠJohn s
188 5
ĠArmen ians
Atl antic
Ġbicy cle
l isted
r ights
ing ers
ĠT ell
st ring
ĠL it
Ġsh apes
Ġres ist
Ġdis gu
Ġevery day
Ġprim itive
Ġdeterm ining
ĠDen is
hold er
Ġfa una
oura ble
Ġelimin ate
Ġexam ined
ĠCatal an
Ġdrain age
ĠAltern ative
Ġderiv ative
Ġvertebra e
K e
an che
Ġb omber
ĠC os
ĠM ail
ĠM IT
ĠD ew
ĠD oyle
ĠG C
ip es
Ġr ally
ob y
Ġend emic
Al tern
Ġcountry side
ĠInter active
Ġcreat ure
Ġlo ose
Ġpay ments
ĠImp ro
Ġresemb les
Ġatmosp heric
D er
i otic
v ine
Ġt une
ĠI ps
ay ana
ĠL il
ĠE du
ĠV a
Ġ3 000
Ġover come
Ġcons umed
ev iÄĩ
ĠBl ind
.. ..
Ġref urb
ĠPar ade
Ġdet ection
Ġap olog
ĠCorn ell
CO M
ĠBad en
ĠSant os
ĠLi bert
ĠLiter ary
Ġdescend ant
ĠĠĠĠĠĠĠĠĠĠĠĠĠĠĠĠ ĠĠĠĠĠĠĠĠĠĠĠĠĠĠĠĠ
B B
I mp
J un
T ony
an an
ĠS ister
ĠH ast
ĠL ip
em y
Ġwhe at
Ġpart ition
Ġj ur
Ġen abling
18 80
az ing
ues day
Ġ12 8
ĠPart nership
aul ts
Ġcamp uses
ĠMer chant
Ġceleb rations
Ġcontest ants
Ġbat ted
Ġaest hetic
o ine
ĠS O
ĠC apt
ĠB attery
Ġl oud
th ird
Ġland sc
ĠWill ie
Ġexpl aining
Ġmid fielder
ĠHam mond
ĠCarol ine
Ġlif ted
Ġtermin ated
Ġgradu ates
Ġpropag anda
ĠJosh ua
Serv ices
opot am
f ig
Ê »
re v
at ivity
ĠA id
Ġg entle
un ting
ĠN acional
and ers
Ġpl ague
rit ion
ĠMar ion
Ġup grade
Ġinv as
Ġplace ment
ĠSm art
Ġschol arly
Ġspons orship
ĠSid ney
Ġris ks
Ġsovere ign
ĠCoal ition
Conn or
Ġcancel ed
Ġoverwhel ming
ĠWander ers
D et
G B
ĠM ys
iz ards
ĠCon vers
Ġcur ves
Ġmater nal
Ġreb ounds
Ġaddress es
Ġtrust ees
Ġmarg inal
ĠNort on
c s
v ette
Ġw ound
ĠM am
ĠD ock
ĠU P
cent ral
189 1
Ġprem ises
Ġinvestig ations
iling ual
Ġsynt hetic
ĠAC LU
W ild
y ou
Ġd inner
ĠF ont
Ġpl aque
Ġman eu
ĠCor por
ĠQu ad
ĠSing er
Ġcolon el
Ġgrand mother
Ġspect ators
ĠCare y
ĠCec il
Ġ @
is odes
ĠT ow
ĠG ol
ab s
ĠTh ursday
ob s
Ġra pe
ĠComm odore
ĠBel t
Ġaccount ed
Ġ184 2
ĠBul let
ĠCam den
Ġbig ger
bra him
ĠWell es
ĠSac red
Ġloyal ty
ĠCros by
h ra
re k
le en
ĠB ac
ĠW inner
ip ur
ep p
ft en
ĠBr unei
Ġfact o
Ġanal ys
Ġconv iction
Ġmerch ants
C am
H ere
W ood
f al
Ġ ions
at isf
rom agn
Ġwh atever
Ġpro c
Ġsp arrow
iss ues
Ġhar bour
Ġanthe m
Ñ ı
Ġo g
Ġ( â
ĠN ixon
Ġ18 38
urn ed
Ġinv ested
Ch ap
Ġcor rel
Ġcr ude
ĠChe v
Ġbal con
ba um
Ġneighborhood s
Ġmel od
Ġmist aken
ĠAj ax
ĠBM W
ĠSof ia
c ane
d or
k u
s ome
s chool
Ġp ent
ĠT aj
ers e
ĠG n
um per
Ġar sen
pl an
Ġpubl ishers
ĠJan et
Ġcre am
ÃŃ o
Ġhost ile
Ġ[ ...]
oz o
189 3
ĠOrgan isation
Ġmill ennium
Ġrob ust
Ġresear cher
Ġdiam ond
ĠCommer cial
ĠPeng uin
ĠStef an
Ġdece ased
Ċ ĠĠĠĠĠĠĠĠ
Ġf iber
ĠS ometimes
am oto
ĠH itch
ĠN ass
ĠW ein
io ch
Ġdef ault
ym b
Ġpost p
Ġvol untary
Ġvol tage
Ġoccup y
Ġachie ving
ĠOffic ers
ĠLyn ch
ĠSpeed way
Ġutil ized
Ġshell s
Ġcontroll er
ĠGaz ette
ĠElis abeth
S ix
m our
it he
Ġh atch
ĠB rem
Ġn urs
ĠR AM
Ġg est
ĠG y
Ġcont ra
ĠTh ing
ins ki
Ġcare ers
Ġmag ical
ĠRev ival
Ġview ing
Ġfail s
Ġred ist
Ġprem iership
Ġpeace ful
ĠBuck ingham
Ġlux ury
Ġf ed
ĠB I
ĠD esc
ĠF letcher
ĠG am
ul ators
oy e
Ġout lets
Ġreg ained
Ġind ie
aus es
Ġmon key
.. ."
int osh
ĠBas ic
ĠBor is
ĠWhe el
Ġwrest lers
Ġenl isted
Ġexcess ive
ĠLis bon
ĠVisc ount
ĠKarn ataka
N R
T s
g eneral
s oc
z ens
is ely
it Ã©
ĠH ok
ĠI D
Ġst air
ĠW eather
Ġag gress
ĠMar athon
ĠCol or
Ġcre st
pro duction
ĠCarl o
Ġforest ed
Ġsymb olic
Ag ric
Ġencl osed
ĠClif ford
ĠBulld ogs
B on
I ran
r ide
y ards
Ġre formed
ĠH aplogroup
Ġg ig
ĠE b
ian ces
ĠK ok
ĠV est
Ġ18 32
che z
yd d
Ġtri umph
year s
Ġet ern
Ġput s
189 7
ĠDirect ors
ĠÎ ²
Ġir rig
Ġload ed
Ġabsor ption
ĠTreas ury
A st
I an
k ir
m eaning
an ions
Ġe ase
ĠF o
ĠW itch
Ġcont rary
eb ack
ĠPro gressive
Ġbas al
sh ot
Ġrepl ied
arch ived
Ġbroad er
ĠEmer gency
Tim eline
ĠObserv atory
k ina
r ug
Ġp ipe
ĠC app
ĠH i
ant an
Ġun incorporated
Ġlin er
oth s
Ġinc omp
Ġany where
ĠEd en
Ġdesc riptions
ĠAnd alus
Ġrequ ests
ĠMed ieval
Ġaff ecting
Ġvol canic
uff s
Ġstri ker
Ġgoal keeper
Ġemb arked
Ġcrim inals
Act resses
Oper ation
Ġpersu aded
Fore ign
E lection
r ust
Ġin herent
as us
Ġre pt
ay ed
ĠL ik
av i
ort al
ĠCh oice
ĠV ampire
Ġdep ot
ling wood
Ġbusiness people
Ġaud ition
189 2
Ġmach inery
rif ied
Fran c
ĠPant her
Ġabb ey
ĠEns emble
Ġpresum ably
o at
p ot
ol ian
im eter
ĠL al
ac cess
til es
fl ight
Ġinf ected
Ġfe ast
Ġins urg
Ġcontract ed
Wh o
Ġnar rator
ĠBaron et
ĠAndre a
isp here
Ġdeleg ates
L I
Ġc reek
Ġp H
st orm
ĠM B
ĠB ury
ĠG ut
Ġover time
Ġwar ned
Ġbur nt
Ġeth ical
ĠÄ Į
Sw iss
Ġresemb le
ĠBull s
ĠIns urance
Ġtub es
S ar
S ign
d ep
w ords
ĠA ar
ĠA ra
ĠB ills
ĠL LC
ĠE k
ard ing
Ġpl asma
ess ment
Ġun ified
iz able
Ġres olve
Ġsub way
Ġfl ute
Ġmon k
Ch ildren
Ġcommun icate
Ġwar riors
Ġvill ain
Ġcomb ine
ĠDavid son
Ġins ufficient
ĠLeg acy
188 8
ĠCa o
Ed ward
iot ics
Ġsynd icated
Ġwitness ed
ĠIss ue
Ġtheolog ian
M F
Ġo wing
Ġf are
led on
Ġbro w
Ġhold er
Ġchalleng ing
ĠJose f
Ġdispl aced
he ed
Ġd il
ĠP av
ĠF iji
ry n
Ġun ch
ile e
Ġbu zz
ĠPro ducer
ĠQ ur
Ġseason al
sp ace
Ġob s
As ian
pro v
Ġcontrib utor
Ġhealth care
oura ge
ĠSix th
Ġharm ony
ĠJacob s
Ġsail ors
Ġcru ise
Ġpromin ence
Ġexha ust
ĠBohem ia
ĠSebast ian
Ġtradem ark
abhar ata
in qu
it ate
Ġse ct
amp h
son ian
Ġne o
ĠEx tra
ĠSe oul
ĠBel ize
be ing
Ġdefin itions
ĠAdvis ory
G al
Â ²
Ġs el
ro zen
ĠM ennon
id ian
ĠF aso
em er
ag in
ab l
Ġde er
eg an
ograph s
Ġgu idelines
Ġcrit ically
ĠRober to
Ġfav ored
Ġimm igrant
Ġball ot
Ġdon ations
Ġdro pping
ĠPo ems
ĠEp isode
ser ver
ĠTerm inal
A FL
b u
k ind
m n
Ġw artime
ĠS ara
ĠS anskrit
ĠC redit
ĠL ives
ĠV ick
Ġper ipher
Ġcomm ittees
Ġdevelop s
ĠDr ug
Ġtrack ing
Ġdi oces
Pl aying
bre aking
Ant on
ĠFu j
Football ers
ĠBelarus ian
Ġwat ched
r ins
z on
Ġt ar
ĠS ou
um ont
od ont
ĠSt yle
se ction
Ġcomp ut
ĠAl leg
Ġ18 34
ĠCl ara
Ġmin iseries
ket t
ĠRuss ians
ĠBy r
Ġz oo
Ġtro op
Ġsum mar
188 9
Rec ord
ĠDec laration
ĠStr ong
Ġvac ant
ĠEven ing
Ġappeal ed
Ġmetab ol
A B
B ang
S B
c us
os o
Ġsp elled
Ġro d
ram id
Ġpre ference
On ce
Ġprom ising
ĠÃ Ĩ
Ġtri angle
ĠPresident ial
Ġins pe
Ġplan ets
Ġtre as
ĠIm age
Ġsand stone
ĠDream s
ĠSum mit
Rep ublican
ĠNiger ian
ĠCay man
Ġenzym e
Vir gin
ĠBagh dad
a ÄŁ
d aughter
t ures
Ġt ap
Ġs ad
Ġs ear
ĠG ir
Ġal gae
ec onomic
Ġch ip
ran k
ĠAn al
Ġpres idents
Ġcy cles
ĠBur ma
Ġpath s
Ġec clesiastical
Ġcompl aints
Ġdoctor ate
Har vard
Ġinform al
Ġwitness es
Ġunsuccess fully
ĠAssoci ate
ĠBorn eo
G reg
V en
re qu
Ġp neum
Ġm ere
ĠC ategory
ĠT act
ĠB oul
Ġl over
ĠD ial
Ġen erg
osition s
ae a
Ġtr igg
Ġdifferent ial
Ġtreat ies
Ġheav ier
ĠSher iff
Ġsecret ly
ĠGre ene
ĠGab ri
Ġeat en
ĠAdv ance
Ġsovere ignty
ĠSoph ie
g color
l ich
ĠS D
ĠH oll
ĠD Ã¡
Ġal pha
Ġor gans
ĠCo ch
Ġcapt uring
Ġsubject ed
Ġer osion
Ġcommission er
Ġfolk lore
ĠVis ual
Ġwire less
Ġdisch arge
T R
T otal
a ft
n ame
Ġd ental
ĠT et
Ġn odes
Ġst ip
Ġor ch
Ġr ays
ĠV augh
ĠCl iff
ĠAd mir
Ġdif fers
sh i
unt a
Ġsen ator
ĠBre nd
Ġdefin ing
Ne il
Ġsuggest ion
ĠVen et
Ġreflect ing
Ġobtain ing
ĠAnim als
D ev
M u
R oy
c ross
c ourse
t w
ed in
Ġc el
ĠT ac
ĠM Äģ
Ġn urse
ra ined
ry an
ĠY ard
ĠMar cel
Ġreg ulated
Ġinter rog
ĠCan berra
by e
ĠThom son
Ġmedal ist
ĠVol ks
Ġsearch ing
ĠSlov ak
ĠPant hers
ĠGrad uate
ĠChes hire
ĠRif le
ĠMugh al
E arl
f jord
i oc
Ġm m
Ġh ist
Ġh ab
ad ays
ĠH ert
ĠL af
ĠG aul
ri eg
res hold
ĠK idd
ip ment
Ġdes k
cy l
ĠGeor ges
Ġnever theless
ĠWe i
Ġpers ecution
Ġdom ains
ĠWat kins
Ġspot ted
ithm etic
Count y
E F
P ark
d ou
h orse
Ġ q
Ġ ×
ĠM ist
ain ted
Ġtra its
vent ions
Ġwar n
ĠEv olution
ĠPubl ished
Ġcorpor ations
Ġvow els
ĠRhin eland
U R
f its
t el
v ara
Ã Ĩ
Ġb und
ĠM illion
ĠM ikh
Ġk iss
ib ia
ĠMar qu
ĠPro ceed
Ġ17 76
ais y
Ġcorrespond s
ĠChap lin
uls ory
Sax on
} }
Ġf eared
ĠS aul
ch ild
ĠP iano
ĠF ischer
Ġv est
Ġcomp ens
ject ive
Ġinv itation
ĠBl ade
ĠAd ri
ĠRe in
Ġexpl orer
Ġworks hops
Ġreve aling
188 4
ĠPatri ots
ĠApost olic
e ous
h ouses
t un
Ġh anging
ĠB rent
us hes
ĠH ipp
ĠR andy
ĠG ob
ĠO bs
ant es
Ġrem arked
Ġsystem atic
Ġpass ages
Ġequ ality
Ġdem anding
oll a
Ġdam ages
Ġbatter ies
Ġsuperv ision
Ġphr ases
Ġdeleg ation
ĠPatri arch
Ġdecis ive
S ound
ã Ģ
Ġo v
Ġd ign
ĠM aking
ĠB ren
Ġl os
ĠL yd
ĠW id
ugh t
ced es
erm o
Ġbl ank
ĠNorth western
Ġinst ant
Ġoffer ings
Ġdi agram
Ġqual ities
Ġlic ence
Ġadapt ations
ĠSant o
Ġcatal ogue
ocol ate
atern al
Hung ary
ĠCreat ive
ĠEthiop ia
ĠShep herd
ĠAe ge
Ġdiscipl ines
I ll
b is
le ading
ĠC over
im id
ĠN um
Ġcont empor
ang an
Ġcol ored
ĠSh ack
inn ess
Ġprov iders
St and
Ġinf ections
arent s
war f
187 8
ĠAbb as
Ġbow l
Ġreact ors
Ġadvent ures
ĠFitz gerald
ĠTransl ation
R at
R un
ĠB ant
ĠB oss
ĠP emb
us ement
ĠH undred
em on
Ġst aying
Ġcon cess
Ġhe aven
ĠSt ring
ĠCh ican
ĠAl ph
Ġj ersey
Ġund ef
Ġlin king
ĠLe af
rad or
Ġair field
Ġleg ends
Ġlocal ities
och ond
Ã¨ ne
188 7
ĠInt roduction
Art icle
Dist ribution
Rel igious
Ġenthus i
Ġupris ing
S um
i Å¡
it ivity
Ġin ception
ĠS it
ĠS amp
Ġh iking
ĠT il
ĠB io
ĠB iblical
ĠP asha
Ġreg ulatory
ĠSh i
Ġret riev
Ġelect orate
Ġten or
yr s
Ġlog ical
Ġstrugg les
ĠML S
ĠLock e
ĠBalk an
ĠFow ler
ĠIps wich
p ark
Ġt ended
ĠS hen
ĠC airo
ĠL ands
ĠF est
and ez
Ġres ides
ĠY emen
Ġsub mit
aj evo
ĠAll ies
Ġtr unk
Ġtr ilogy
Ġport al
ĠQu artet
ĠConc ord
ĠIv y
ĠCitiz ens
Ġcass ette
V is
j in
o os
Ġp orn
ĠL ook
Ġv end
Ġsh adow
Ġro pe
ĠSal em
bour g
ĠBre ton
ĠHon ey
Stud io
Fac ilities
ĠBes ides
ĠDud ley
O H
P enn
T ri
j iang
r ants
ĠS uccess
Ġ( âĢľ
em ia
od ied
Ġr ushing
Ġle x
ob ic
Ġem ission
ĠApp lied
ĠMid west
ĠOk in
Ġveget ables
rod ite
Ġhorn s
ĠSlav ic
B a
b rates
i ator
l ance
Ġa ug
Ġk ids
ass y
Ġun t
ract ed
Ġopen ly
ĠAll ah
Ġcr ust
ĠMcC arthy
Ġcard inal
agh an
Ġlect urer
ĠPack ers
Ġtransc ription
Ä±n ar
Ġcort ex
m u
p ike
Ġ esp
Ġf lesh
ĠL iz
ĠL ob
ĠW are
ĠSt akes
Ġdis qual
Ġout s
ĠSh an
Ex amples
Ġdec ommission
ĠAd ult
let ter
ros se
Ġscreen ing
Ġhypot hes
Ġsupposed ly
Ġtack le
ĠTol edo
z ier
ar ine
ĠD oor
ĠE rik
ĠSt ream
ov ing
Ġad mir
ex pl
ual a
ĠAn throp
Ġinc ons
ĠNational s
Ġhand ful
Ġarch bishop
ĠSch l
Ġter restrial
ĠCast ro
Ġceleb rity
AA F
Ġdoub led
Ġrom ance
Ġrow s
ĠAssoci ated
izz ard
agre b
Ġhighlight ed
ĠInstr uments
A sh
D ave
K ore
Ġt iny
he id
at ched
ĠS N
Ġd ragon
il is
Ġh ook
ĠB ally
ĠW ade
ong o
Ġbut ton
Ġcomm anding
ĠCom ic
rict ion
Ġcare fully
Ġconst raint
Ġnational ism
ĠX box
Ġstar ter
Ġlik ed
Ġsaf ely
Ġpeak s
ĠSev enth
Ġvirt ue
Ġparam eters
Through out
E mer
Ġ u
Ġd ivid
ĠM its
ĠN iss
av is
Ġsp r
Ġ10 6
Ġgener ating
St ructure
Ġident ifying
ĠArch diocese
ĠPat rol
ĠScot Rail
Ġaccept ing
Ġdig its
ĠAud io
Ġbit ter
ĠExpress way
Ġresc ued
run ning
ĠAT P
ĠLeop old
) -
P F
o ise
Ġt ales
Ġt ongue
Ġf itness
ĠC um
ĠM ate
ĠM ud
ĠB R
ur as
ĠR ough
ĠG ore
ĠJ ah
Ġpl atinum
ust ain
ect ives
oth ic
att i
ĠAustral ians
com ed
to le
ung le
Ġcult ivation
Ġproject ed
Ġmass es
Ġknow ing
Ġadj oin
ĠTw ilight
lem ish
Ne igh
ĠTerrit ories
ĠAch illes
Ġsulf ur
Ġembed ded
V O
Ġs olic
Ġw reck
ĠC areer
ĠI N
im edia
ĠK oh
ĠV all
Ġsh irt
Ġcl ade
Ġapp lying
Ġwhere by
Ġqu ot
ĠPr ide
ĠHow e
Ġcontinu ity
Ġang ry
uls a
Ital y
ieg el
Organ izations
ĠRah man
S ource
f ar
f unction
u o
ĠD art
if iers
Ġj oy
Ġbo om
Ġbus h
Un like
Ġconf ined
Ġeight een
Ġcoast line
Ind ividual
Ġcrew s
Ġcouncil s
ĠVo ices
Ġcert ification
ĠOd ys
Ġlimit ations
otten ham
Ġurg ed
ĠJen kins
G et
M aster
f emale
j ar
n en
er oy
al on
Ġd ock
Ġg arn
ĠD ry
ĠJ ub
og g
own er
Ġac cent
ath i
ee le
ĠSh ire
ĠSc r
Ġdec omp
ĠFor bes
Ġorgan ize
anc er
uk es
Ġconstit uted
Ġstrugg ling
keep ing
odia zep
Ġswitch ing
Ġannounc ers
ĠSerge ant
Ġpharm ac
Ġsket ch
Ġsimul cast
C ur
k al
v ae
Ġb ills
Ġto y
ĠS ally
ĠT ouch
Ġst rand
ect ors
Ġcons erv
Ġinter active
pr ising
Ġgu err
ĠEx c
Ġequ ilibrium
Ġesc al
ĠLand marks
Ġgra ce
ĠÄ Ĳ
Ġliber ation
Ġweak ness
Univers ities
w rote
Ġb acks
ĠC rom
ĠR az
ĠL ay
ib ald
ne ath
Ġnumber ing
ĠCanad ians
aff e
ĠBo one
Ġtreat ments
Ġpred ators
Ġbattle field
Ġconsequ ently
Ġmosa ic
D ar
d eg
or an
Ġf o
Ġf iscal
Ġh iatus
ĠM ilit
ch ildren
ĠI de
The ir
ĠV y
Ġcomm ands
Ġrel ied
ĠPh arm
ott ing
ĠCar bon
ĠÃ ħ
ĠFore ver
Ġdram atically
ĠKar achi
Ġdecor ative
Ġenl arged
oft en
ĠChron icles
ĠFeat ure
B ridges
L ord
Y U
w y
Ġd ome
ĠM oy
Ġl oses
ĠH imal
ra ising
ĠJ orge
Ġnot iced
ĠMar ÃŃa
ll a
any a
Ġclass rooms
ĠAnt ony
ili ation
New s
ĠDan ube
ĠBon n
Ġextra ordinary
Ġemphas ized
Ġsan ction
Ġopin ions
Ġassum ption
Ġleng ths
Pier re
r ar
in ition
Ġw isdom
ĠS Ã¼
ur able
ĠI CC
ul as
ĠK Ã¶
ĠV ocal
ĠTh irty
ĠLe ipzig
Ġam endment
enn es
ĠUS S
ius eppe
ari at
ĠLaw s
ĠSun shine
Comp uter
ĠBet ty
Ġec ological
roc od
ĠNi agara
ĠVat ican
K im
L ight
b ey
f i
Î µ
Ġto m
Ġd orm
Ġh ull
ĠP ill
Ġatt ested
ĠCon fess
Ġteam ed
ote chn
Ã³ rd
Ġins erted
ĠSam oa
Ġviol ations
Ġconv ince
ĠJack ie
Ġinteg er
Ġsyn agogue
Ġhop ing
Ġconstitu ent
Ġrepro duction
ĠMes opotam
Ġiniti atives
Ur ban
pres ident
elect ric
ĠEld er
ĠUrugu ay
ĠMorm on
B oston
M ean
g rass
w en
Ġo re
ĠP ER
ill in
ak is
Ġnot orious
Ġcl ips
Ġdis ad
ick er
Ġmon asteries
ĠWar hol
ĊĊ ĠĊĠĊ
ĠPer forming
sy stem
Ġpur ple
Comp et
188 2
Ġri ot
ĠVik ing
Ġreven ues
Ġfert il
Ġpromin ently
ĠLex ington
O ur
P rom
Ġw avel
it as
ĠR ather
ĠG AA
ĠSt op
Ġequ ity
ĠAnt ig
Ġel imination
ĠGo es
Ġpast or
Ġbreak down
Ã¨ res
riz z
ĠRome o
Ġaccommod ation
Ġaqu atic
Ġrecommend ations
Ġfrog s
Ġreconstruct ed
B all
C hem
Q aeda
g reat
j as
s ometimes
ĠT ah
ĠM are
ĠF CC
ĠG uru
ĠE lection
art en
ĠCh ambers
ĠDe al
Ġkn ife
Ġlist ening
int age
oper ative
ĠBah amas
Ġenter prise
ĠWat ts
cont rolled
ĠJess e
Ġchlor ide
ĠLead ership
Ġtot ally
Ġrout ine
Ġconsec rated
C ard
D oc
S yn
h ampton
l ook
l ink
qu ire
ĠCh oir
Ġret aining
Ġaff ects
Ġround ed
bit ious
ĠRos a
Ġinstit utional
atri x
Ġincorpor ate
cest ershire
Ġnarrow ly
Ġpure ly
Ġstead y
Ġisot opes
C orn
u ce
y led
Ġt ensions
Ġs ab
Ġin equ
ĠC W
ĠT win
ly s
ĠR iley
Ġst ance
ĠK oz
ew ater
Ġr ic
ember g
ĠSp y
Ġpublic ity
ĠMc Cl
Ġline back
imb ledon
ĠMir ror
ĠBos nian
opt ers
Ġcommemor ate
ĠOpp osition
Kn ights
ĠDaw son
Ġadequ ate
Ġdetain ees
D M
D O
E ven
F eat
G O
H ind
L ine
l ord
he y
he us
Ġf ox
Ġto ugh
ĠS ard
ĠS au
el ic
ĠP eg
ĠR ash
ĠL A
ĠL ig
ĠL Ã¼
Ġit er
ĠMar itime
ĠZ agreb
ĠChrist church
ĠPart ners
Ġsl ope
Ġcor ridor
ĠTra cy
Ph ot
ĠMa o
ĠIll ustrated
188 6
ĠCharl eston
ĠPers ia
ĠWater loo
ĠBrand enburg
Ġpron unciation
Ġpitch ing
Ġbacter ial
Ġsurpr ising
Ġforb idden
Pac ific
E s
N ight
p unk
al one
ĠS ource
Ġh iding
ĠM ouse
ĠP ensions
ĠH ild
ost a
Ġsp y
ĠAl ps
ton e
Ġreg ards
Ġsup erm
ĠAll ison
An th
Ar men
ĠMad h
Ġdomin ance
Ġbal let
ĠJes uit
ĠDra ke
ĠPatt erson
Ġneighbourhood s
Prem ier
M iscellaneous
R NA
on te
ĠS H
Ġd rown
st ones
ĠP itt
Ġg rab
ĠW ave
ĠW ilm
Ġoff shore
Ġtra ff
ĠSh arp
ĠRe formation
ĠMc Gu
Ġcomple ment
ĠAngel a
ĠAlb an
Ġfa ctions
Ġcommand ers
Ġprof its
ĠZe us
ĠKos ovo
C ountry
b il
k ai
r ÃŃ
ĠM Ã¼n
ĠP ool
ĠH P
ĠR i
ĠD owntown
ĠL ights
Ġwhe never
Ġout comes
ious ly
Ġteam mates
ĠCent aur
Ġair lines
mber g
ĠBe au
Ġbus y
Ġmy st
Ġkeep s
ograp hed
Ġcontact s
commun ication
Ġborrow ed
Ġtorped o
b ad
Ġa ided
al ore
Ġw itch
Ġb is
Ġd iving
ur us
ĠD ogs
Ġst om
Ġse as
ĠV ij
Ġsh ar
Ġyear ly
Ġdes per
ĠSh am
Ġinter rupted
Ġdo zens
Ġfin ishes
Ġmet ric
ĠHol iday
Ġcycl ist
ĠSin clair
ĠSport ing
Ġfemin ist
ĠEmp ress
Ġdeliber ately
C ra
L M
L S
W R
f olio
ä ¸
Ġs unk
Ġs ometime
Ġf u
ĠS oci
ĠC B
ĠP S
ĠH ers
ian ism
ud ed
ĠIn iti
ug ged
ib i
Ġad verse
Ġac ademics
ĠRec reation
ĠEl s
Ġthough ts
Ġtechn ological
Ġdiscuss ing
Ġslow er
ĠUt recht
Ant i
Ġinterpret ations
Ġjuven ile
Cert ifications
B ank
p ublished
er land
it ial
ab i
Ġint ens
Ġ18 33
ĠMar ks
Re al
Ġcan non
air d
Ġoper as
ĠRe agan
ĠAf ro
Ġsw ept
ĠChar acter
Ġworks hop
ĠTra v
Ġcell o
ĠSar ajevo
ĠGand hi
B al
Ġc ig
ĠT uesday
ĠM anning
ch al
ĠR ig
Ġis n
ĠW R
ĠW ords
ec raft
Ġhe ated
ĠK yr
ĠU tt
ĠCh rys
Ġatt ained
ject ed
Ġbl acks
eth oven
ĠRep orts
iol a
Ġdiv ide
Ġlik es
Ġste ering
ĠSand y
uther land
ĠPap ua
Ġsufficient ly
eli hood
ĠProvision al
ĠRajas than
F P
L uc
R on
U k
e us
f und
m ag
Ġin ches
Ġb ike
Ġto ile
Ġl as
Ġn oun
ĠP ais
ĠF ury
em i
ĠY ok
ĠCon sequently
eat ing
Ġdec lining
Ġval ve
ĠMon astery
ĠPet ro
Ġfa ult
ĠCorn er
Ġrein st
ĠPhill ip
Ġlect ure
Ġpreced ed
F ire
b led
Ġin cent
le w
ĠT omb
ĠP red
ĠP ension
ĠL oss
ĠF ram
ĠN ou
Ġst rain
ul in
Ġv ibr
ĠK ub
ust y
Ġint elligent
Ġab d
ĠPro gress
Ġdeal er
Ã¨ s
Dem ocratic
Ġmel ody
ĠFal con
ĠPra irie
B ay
D om
d as
e ur
Î »
Ġ umb
Ġw ool
Ġp ic
Ġm im
ĠS abb
ĠS utton
ĠT ran
ĠM VP
ĠB oo
ĠH ep
ĠR ook
ow ay
ĠK ens
ang s
ĠInd eed
ĠRe ad
Ġreal izes
Ġcert ificate
Ġsan ctuary
Ġmand atory
Pal atinate
Ġlov es
ĠBeaut y
Ġneur ons
C at
D ark
D anish
H or
c ond
g rave
Ġm ax
ĠH ick
end ra
rit ies
Ġsur geon
Ġposition ed
ĠPat ricia
Ġconv oy
Ġsex ually
Ġcounter part
Ġattrib utes
Ġauth ored
ĠWhit ney
ĠSteel ers
Ġcomplic ations
Ġspir its
ĠTrin idad
Ġsophistic ated
l ate
ul ent
ĠJ i
up h
se in
ie ve
Ġim aging
Ġass im
ĠAf rika
idd ish
ĠEm ployment
ij u
Ġstri pped
Ġexcept ional
olec ular
Art icles
ĠLind say
Ġemot ions
ĠDet ective
ĠCart oon
Ġsa urop
Common wealth
Ġtelev ised
ĠHitch cock
K B
M arg
P resent
W alk
he art
al ar
es que
ĠC BC
ĠP ione
ĠThe ological
ĠO uter
ud s
Ġde an
Ġsc reens
Ġkn ocked
inn ings
Ġam bitious
Ch ina
ink i
Ġcamp ing
ols he
ĠSpec ies
Ġcollect ively
Mar vel
bro se
Ġinters ections
ĠAM D
song writers
Ġwaters hed
EE E
Ġanthrop ology
B ern
S cient
b rough
ĠS as
Ġre ef
ĠM uss
Ġl ords
ĠP apers
ĠH ed
im ar
ĠR C
ĠR w
ist ries
ul ia
Ġsp aw
Ġcont amin
ĠAr gy
ĠWorld s
Ġ10 7
ĠPol es
osp here
Ġactiv ation
Ġpe as
Ġpe aking
ĠGreen land
Ġsem in
ĠBudd y
Ġfort une
ĠJoh an
Ġcorrect ly
ĠDise ase
Ġingred ients
ĠKais er
N a
s ize
in teg
ow o
ĠW itt
ĠK amp
ran es
Ġte aches
Ġj aw
ĠSc hed
ĠAm endments
Ġpass ive
ford shire
Ġimpro v
road s
ĠMill ennium
Ġwood land
188 3
Ġreason ing
187 1
Ġfaith ful
Ġbes ide
ĠDh aka
ĠAlber to
Ġcoupl ed
C ricket
R od
S ummer
b irds
k ill
t em
Ġs acked
ic ides
Ġm isc
ĠS iber
Ġre per
ĠB ound
ter dam
un ted
ĠK ob
Ġde pr
ment ioned
Ġ18 31
ĠZ ap
Ġchar itable
Ġfin est
Ġfin ancing
ĠBar rett
Ġstop ping
188 1
ĠTal mud
ĠBarb ados
Ġcompl iance
Arch ae
Bel g
ĠValent ine
Ġaster oid
Wind ows
, âĢĿ
A round
O W
R est
k l
ic iary
ĠM ih
ĠB otan
ĠH uss
ĠR ox
ist o
ĠAl pine
ould er
Ġind ef
ĠCount ess
adem ia
Ġpe ers
Ġdeep er
ĠDiv ine
Lab our
ĠKazakh stan
H ard
I l
c ole
g el
n ear
w ear
È Ľ
Ġo ath
Ġh ij
ĠT uc
ĠT arg
ĠN otes
ac rit
ri ac
Ġsp anning
Ġac et
Ġcomb inations
ĠQu inn
Ġdyn amics
ĠSand ers
ĠEp ic
Ġmagn et
Portug uese
L ow
N ic
y ah
Ġf ever
Ġp ard
Ġm otto
ĠA AA
iv ism
ĠN ed
nt hesis
port ant
Ġpr ayers
ĠInd y
Ġdr inks
ox ide
ĠRec ent
Ġperiod ic
ĠHer c
Ġcult ivated
ogn ition
ĠKh mer
Ġunc ons
Ġsyn onym
Ġastron omical
Cont rovers
Ġportray al
Spec ies
Ġjurisd ictions
Ġresid ences
Ġphilanthrop ist
Ġcryst all
Ġunst able
W inter
Ġc um
ĠC avalry
am orph
ĠB rag
ac io
op en
Ġpop e
Ġsm ugg
ring e
Ġresp ected
Ġsoc io
ĠMart y
Ġdocument ation
Ġbur st
Aust rian
Ġang les
186 6
ĠMir anda
Ġpros ecution
ĠAle ks
ĠSax on
Ġexplos ive
ĠWW E
ĠEmir ates
Amer ica
I d
n ote
Ġt in
at ile
Ġd ining
il us
ĠH ence
Ġcon cludes
Ġv ault
ĠUn f
ik os
Ġbu ying
ĠAn ch
Ġqu it
anc o
com b
Ġdem olition
ĠAnt ioch
Ġpri zes
ĠApp ro
Ġtest imony
Con f
ĠInt el
Ġcontest ant
Ġprol ific
N etwork
R ad
g ars
u en
he res
Ġc ott
ĠP tole
Ġg ases
ĠN Z
her ty
ĠO v
ip linary
Ġun re
Ġsc orer
Ġ4 50
Ġact in
Ġmod ification
Ġrep ublican
min ton
Ġorder ing
Ġarch ives
ots dam
ĠBlack burn
ÅŁ Ä±
Ġfort ified
Ġpath way
187 9
ĠBah rain
ĠHan over
Ġinstall ations
ĠMichel le
ĠCrow ley
Ġgall eries
Ġmasc ot
C as
D J
L ast
P et
d ate
ar ie
ĠS uk
ĠH ogan
end e
Ġ16 00
ĠPl ato
ĠBar ber
ĠSy nd
Ġmot ivated
Ġdecl aring
Ġpen alties
With in
Ġincorpor ating
Ġox ide
ĠDark ness
ĠRun ner
orig inally
ĠHab sburg
Ġclar inet
ĠCauc asus
D ivision
W S
a it
ĠC rew
ĠB uzz
Ġl od
Ġn omen
ĠP uebl
ist e
ĠN egro
ĠE lev
ac hen
Ġed it
cept ions
Ġdeb ris
ĠSch we
CA L
Ġminor ities
yt ical
ĠBrig adier
ĠTit ans
ĠKu wait
Ġjew el
Brazil ian
Ġcomprom ise
B or
L ake
S anta
Ġt ang
Ġa uxiliary
at l
Ġw ww
Ġin duced
Ġf rig
ro b
Ġm apping
ĠT i
ĠB old
ĠB rett
ĠN othing
Ġst uff
ĠW an
Ġsp are
Ġun rest
ph ones
Ġcould n
Ġwar rior
Ġval ued
Ġide ology
Ġflow ing
ĠHel ena
Ġbrand ed
Ġcatal yst
Ġsomew here
Ġguarant ee
Ġconsolid ated
Ġencourag ing
ĠParam ount
E AR
F ig
Ġw onder
ĠS ega
ĠL ut
ĠL und
ĠF ri
Ġal beit
end orf
ĠV ince
ide a
ount s
ĠAl z
eb e
Ġsec uring
ĠBrit t
por a
Ġorgan ism
gy z
ĠAir ways
Ġimport s
Ġprot ective
Ġthreat ening
Ġple asure
Ġundert ook
ĠLank an
Ep isode
Ġfemin ine
ĠSey mour
rape ut
ĠAege an
* *
z hen
or ra
ĠT ropical
ĠP R
ĠL anding
ab ella
Ġbl amed
ym e
Ġcomb ustion
Ġcost umes
Ġexpress ions
Ġplant ation
186 8
Ġpal m
Ġmountain ous
And rew
Ġexerc ises
Ġarbit rary
Ġsurpr ised
ĠPoly techn
B att
Ä Ļ
or os
Ġm eth
Ġh alls
ĠT ucker
ĠT ottenham
ĠP aw
ĠD ion
end on
Ġch icken
Ġab ort
Ġund ers
ĠPro to
Ġdec oration
Ġ7 47
Ġspec ification
Ġ10 8
ĠPl ains
fl oor
ĠEx hibition
ĠEl m
Ġarch ipelago
ĠMon k
Rec ent
ĠGar c
Ġir re
Ġlaunch ing
Ġcompl ained
Ġment or
Ġemot ion
Ġbes ides
Ġholid ays
ĠDolph ins
1 15
I reland
L ost
i aries
r s
Ġb ol
ĠS ens
ĠC oc
ĠC ry
el ius
Ġth y
ĠR CA
ĠL enn
ĠJ et
ess es
Ġsp ear
Ġcl usters
Ġ18 14
Ġad mit
rad a
ĠCl aus
ĠTe achers
ĠX avier
ĠNor se
Ġel ong
ĠVal ue
Ġbar racks
ĠFranc isc
Ġrank ings
Ġgra ves
Ġinteg rity
Ġcollect ors
ĠSev ens
gu y
Don nell
ĠNic ar
ĠHand book
ĠJane iro
clip se
S u
r ically
v iol
Ġm es
ist on
ĠE z
oc us
ass ium
Ġover view
ah i
ys on
Ġadv ant
Ġfre eway
Ġdel ays
ĠMart ine
ĠIr ving
Ad am
Ġspread ing
Pres idents
Ġmob ility
V N
s il
ĠC otton
ĠH ak
ir able
ĠW imbledon
Ġde ities
ĠCol legiate
ject s
Ġexp end
Ġmed ic
ĠNov el
ĠSe lect
ĠKingdom s
ĠCont ract
Ġassoci ates
Ġord in
ĠLab rador
ĠSa ar
Co aching
Ġwor se
Ġassass inated
Ġmob il
Ġtrend s
ĠCitiz en
orde aux
Ġtuber culosis
D VD
N ick
W W
Ġp ier
ĠP ash
Ġfor wards
ĠG an
ĠK Ã¼
ub en
ĠV ari
18 60
ĠAn kara
air craft
Ġsuccess es
omet ry
ump ing
Ġcou ples
ĠCur ling
Ġwalk ed
ĠDick ens
Ġhun ter
ĠImp act
ĠLin ux
ĠAmaz ing
ĠMort on
Sim ilar
pop ular
Ġannounc er
Ġorn ith
ĠJur assic
C roat
G rad
R uss
S erb
n ar
an mar
Ġp agan
ĠS E
ĠM ald
Ġ2 20
ĠH aus
ĠH ollow
ĠH MS
ra ch
ĠL oyal
ab lished
ĠTh ous
ern sey
Ġspec ially
eng ine
ĠBe er
ĠRes erv
Ġident ifies
Ġhold ers
Äģ n
Ġcompos ite
ĠRou ge
Ġrepe at
Ġfresh water
ĠMap le
ĠPlate au
Cycl ops
1 10
M ax
T ele
c ip
g ov
n orth
u ition
ic ultural
Ġd os
ĠC M
ĠC ore
Ġre hears
ĠP up
um ble
ec o
ĠK et
Ġsh rine
Ġ18 21
ĠSh ot
erman ent
Ġob server
ĠCor inth
Ġsimilar ity
Ġcast ing
Ġobserv e
ĠTw elve
Ġenter prises
ĠGard ner
Ġoxid ation
Ġpod cast
Ġweaken ed
Ġpetro leum
k Ã¶y
Ġ Ø
Ġo val
Ġm akers
ĠC aval
om ans
Ġl ion
ur gy
ĠP ike
Ġfor um
Ġhe aling
Ġ17 75
ĠQ ing
ĠPh antom
Ġcontin uation
On ly
Ġsl ide
ĠMy anmar
Ġoccup ies
Ġoccup ying
Ġsubs et
Hon or
ĠBav arian
Sil ver
1 000
N ever
S ol
f est
h p
n h
t ting
Ġf ears
Ġm aker
ĠS my
Ġg rap
ĠD Ã¼
if olia
Ġar row
Ġbl ast
ĠPr att
ĠBe ethoven
Ġpost season
Ġtax i
ĠDirect ory
Ġver bs
186 5
urric anes
ĠBomb ay
Ġupd ate
ĠRain bow
ĠCarm el
Ġencompass es
Town s
ĠRaf ael
Techn ical
Ġpractition ers
Ġsupern atural
1 17
V an
b ore
b ial
Ġw ears
ot ted
ow itz
Ġcom eback
Ġun h
Ġatt ain
Ġinter ven
Ġend e
Ġcur ved
Ġdev ised
Ġweek day
Ġfunction ing
ĠRob ot
ĠSmith sonian
ĠPre viously
Ġinvestig ating
Ġprec isely
Ġimpact s
Ã¼r k
Ġdefend ant
ĠLaure nce
Ġpist ol
Ġconson ant
T re
T em
c amp
u il
is or
is se
ĠH esse
ĠR are
ĠR otten
ra ul
ĠF ry
ĠN un
Ġst atic
um ann
Ġse aled
ĠCh am
Ġrel ates
Ġ10 9
sh ort
Ġgovernment al
ĠCo ff
Ġread ings
Ġemploy er
Ġlo osely
187 7
West phalia
Ġadvoc ates
ĠAndre as
Ġinstruct or
Ġexcav ated
ĠNatal ie
Ġantiqu ity
Ġendors ed
Ġabbrev iated
Ġfinanc ially
ĠMikh ail
ĠOkin awa
B alt
F a
H ill
y ne
Ġw it
ic ion
ĠD iane
ĠG le
ant o
pp ers
Ġ18 25
pl ate
ĠSh awn
ĠCl oud
St ars
ĠGl ad
Ġradio active
ĠWe ber
Ġaccept able
ĠAv engers
ĠSa unders
Ġchart ed
rec orded
ĠMoh ammad
Ġtall est
verse as
ĠSet tlement
Ġrecept ors
ĠOil ers
End ers
Ġkidn apped
F ees
N H
T rain
c urrent
Ġw ines
Ġin quiry
Ġb ail
Ġb ells
ĠB oot
ĠR as
ĠD ru
ĠG A
ĠE arn
Ġsp atial
Ġun official
act ory
18 75
Ġunder water
ĠPro ced
ĠIs les
Ġadd itions
fl ies
Ġtrad ers
omb a
ĠGl ory
Ġcr us
Ġpat ch
Ġbi as
asc ar
ĠPe el
ĠJud y
ĠLight ning
Ġhydro x
ĠCra zy
ĠFle ming
Ġmus cles
ĠBud apest
Ġrect angular
Ġanticip ated
Ġpreval ent
R ick
h aul
t re
u ine
Ð ´
ĠS uf
ĠB uk
ĠP erm
ĠP ius
ce ans
Ġfor ts
ĠR ip
Ġg reet
ĠV ig
Ġass erted
ĠSc ript
ĠPar agu
Ġinj ection
ĠTechn ologies
Ġnegot iated
ĠReb ecca
Sing le
ĠPsych ology
Ġid ol
Ġexpect ations
Ġske let
ĠSind h
ĠVern on
+ +
1 21
j ee
n ick
u ang
Ã ²
st ick
ĠH ond
ĠH itt
Ġg aming
ĠL ug
Ġsp ans
ib les
ade qu
Ġunder neath
ott i
Ġprop het
Ġpun ish
ĠMax well
ĠNob le
Ġlicens ing
ĠCars on
Museum s
Ġadvant ages
E lections
G er
o let
Ġc erv
ĠC ran
Ġe y
ag les
ĠK ramer
Ġrec y
Ġinter fer
|| .
row span
He art
Ġbi ochem
ĠRh ythm
ĠSol o
187 6
Ġpage ant
Ġterror ism
ubb ard
Ġpresc ribed
ĠByr ne
C omb
K ansas
M ir
k ok
an or
is bury
ĠT ate
Ġat op
ian us
Ġ18 29
ĠTh ur
ind ers
Ġoff ence
Ġoff spring
yl us
Ġche ese
Ġcomplex es
Ġlength y
Ġmathematic ians
ĠCrus ade
Ġguarant eed
Ġflex ible
ĠNiel sen
A rizona
F ood
p rop
ĠC ors
il ers
ĠH ors
ĠR over
ĠD uck
ĠL uck
ul ing
ĠSt ones
ĠSt ores
Ġar ithmetic
we iler
Ġbu ff
Ġdef icit
ĠAm ar
Ġorgan izing
Ġpres umed
ĠAb ram
Ġsouth bound
ĠPer cy
ĠRes c
Ġins ign
Ġsil k
Ġcommercial s
Ġcolle ague
ĠJackson ville
187 3
ĠAC T
Ġload ing
Ġdecor ations
Ġrenov ations
ĠSaw yer
B rad
H y
P rop
b uild
p ace
Ġc rocod
Ġf illing
ĠA ce
ĠH ouses
ri que
ĠK rak
ell ip
Ġun n
ress ive
Ġshe ets
Ġspec ulation
Ġsign aling
ĠEuro vision
Ġdown stream
ĠVal encia
onst ant
Ab out
ĠGer ard
Leg al
Stud ent
ĠWor cester
Ġwel comed
ĠBever ly
ogene ous
ĠEmin em
ĠHast ings
F il
H M
H ay
Ġs acks
ar se
Ġp aired
ĠP BS
ay as
ak ov
Ġun related
Ġar che
Ġ17 0
Ġeng aging
ĠRes istance
mar ines
Ġdisp osal
ĠJo ey
ĠVer de
187 4
ĠBu ilt
Ġspok es
Ġbow ling
Ġpossess es
Ġmand ate
Ġpredecess ors
Ġadvis ory
Ġdream s
Ġcub ic
Ġammon ia
ĠProceed ings
Mean while
E G
L im
M os
V C
a a
a uth
w hen
Ï ĥ
at hetic
Ġm ate
ĠC ats
Ġl acks
ĠI S
ĠD up
Ġst ems
ĠK and
ĠK ras
Ġex iled
Ġk een
ĠY osh
ĠCan cer
ĠWar wick
Ġmed ication
Ã¶ m
Ar m
Ġceleb rities
Ġsucceed ing
ĠHind us
Ġsac rific
Ġmist ake
Ġrecommend ation
geme inde
1 13
F ish
F ive
an ol
et ooth
ĠF ed
ĠN O
th or
ĠSt anding
ical s
Ġam ended
ĠMin i
ĠAnt iqu
ĠTrans itional
Ġinstit utes
ĠArm agh
Ġflag s
ĠSche mes
Ġgar age
Ġabund ance
ĠBeaut iful
ĠAph rodite
D ie
m art
le ted
ĠA u
Ġl ots
ĠP oints
ers ion
ĠH annah
ĠN ab
ĠW ik
ĠE sk
Ġcl erk
Ġpubl ishes
Ġcomb ines
ĠTra vis
Ġfront ier
Med ical
Ġcorrespond ent
ĠAtt ack
ĠWolf gang
ĠChand ler
Ġconj ug
Met ropolitan
ĠFrances co
unning ham
L ev
M ill
Ê Ķ
Ġo st
Ġf ores
Ġb ricks
ic ating
Ġp ocket
ĠT rial
am us
ch witz
ĠL ibr
ĠCh ola
Ġam p
af ia
oo le
ĠX en
ĠGl ac
Un ion
Ġconf isc
ĠMer cedes
ĠEst her
ĠEconom y
ĠReb ellion
Ġped estrian
ĠCole man
Ġplate au
ĠConstant ine
Ġmac ro
Ġevac uated
Ġcyl inder
uche ss
ĠPasc al
occup ied
c roft
Ġf art
ĠB D
ĠH ip
ĠI brahim
ĠR ide
ĠD ing
ĠN est
Ġst rang
ĠO ften
Ġle v
Ġcl er
ough ton
ah ar
ĠSh ak
ve z
ĠGu z
iod iversity
Ġep onymous
Ġenc oding
ĠBow ling
Ġsett ling
Ġsusp ect
Ġcomment ators
light en
Ġprin ts
Ã¼r tt
Reg ular
ĠVeh icle
Ġbare ly
) ",
m ese
ĠT usc
ur rection
ĠH ut
ĠL uz
ul er
âĢĵ )
Ġpl ains
Ġar ise
ĠCl imate
Ġsur veillance
ĠPl at
Ġprocess ors
ĠBy ron
Ä± z
Ġacqu iring
Ġsu ited
ĠAut om
ĠBol lywood
Ġfair y
ĠZh ang
Ġansw ers
Ġrelie ved
Ġhol otype
ĠPomer anian
C T
on el
ĠR uther
ut ely
ĠG ilm
ĠJ ensen
rom atic
og ues
Ġen ables
ret ion
ĠĠĠĠ ĠĠ
Ġnorth bound
Ġcame o
Ġcirc a
Ġcoll oqu
Ġdiscover ies
Ġdiscuss es
Ġpossess ions
Ġcru iser
Ġnom inal
B rand
J ournal
d ated
s an
Ġc ros
Ġp odium
ĠS ail
ĠC T
ol fer
ir atory
Ġon set
ĠG ould
ĠE MI
Ġan ger
all i
ĠK ul
ĠIn ner
ĠCh ung
Ġsp rint
Ġsc ripts
aj o
Ġhel m
pro ducer
Ġcy t
Ġarm ored
Ġens uing
ĠAst ur
Ġsyn chron
ĠNic olas
ĠHu ang
ĠBox ing
ĠBundes liga
Ġlar vae
B eh
m g
n ance
r atic
le ague
ĠA ug
ĠA SC
ĠB ram
Ġl ocked
ĠF resh
ĠJ up
Ġex empl
so lete
ĠCol lingwood
Ġfl ora
Ġfeat hers
ĠTe acher
ĠAss am
Ġpress ed
ĠWe ap
Ġbreak through
ĠBroad cast
Rec ords
cont inental
AN U
ĠMem ory
ĠTeh ran
football er
ĠGarc ÃŃa
L GBT
s w
Ġw ounds
Ġc inemat
Ġp ond
ĠS ie
et ically
ĠThe ss
ĠL Ã©
ĠG el
ĠW is
ĠW ak
oc ols
Ġcan cell
Ġfilm makers
Ġqu ar
Ġext ensions
ĠBe an
Ġtr unc
umb ria
ĠÃ ĺ
Ġinvest ments
ĠInter mediate
Ġcolon ists
Ġbene ficial
Ġpip es
Ġrit uals
Ġbutter fly
ĠBahÃ¡Ê¼ ÃŃ
htm l
ĠTact ical
ĠPER FOR
Ã¼rtt emberg
u ating
Ġc ivic
ĠS G
ĠM oody
ĠD over
ĠD erb
ĠN igel
Ġex cer
ĠCh o
ĠV era
Ġun common
for ward
Ġdis placement
oun ge
Ġso ils
Ġdef enses
ĠCount ies
Ġne ural
ĠEuro pa
ĠCar penter
ble ms
ĠSw ord
Ġappro aching
ĠMon ter
Ġtechn ically
less ly
ĠSl am
Ġcirc uits
oul os
ĠBur kina
ĠBor g
bro ther
utt gart
Ġenzym es
Ġfier ce
ĠSabb ath
Ġuncons cious
A rea
K ent
c op
l ace
n eg
ĠC lem
ĠH arl
her ry
Ġv ag
ĠSt irling
ath lon
Ġsim ulation
ĠMcC art
186 7
Ġspons ors
ĠHard y
Ġtask ed
Ġprofession ally
Ġbes ie
Ġhier archy
Islam ic
ĠRever end
1 23
F i
S hips
e astern
er ver
ĠS aid
ĠC ounter
ĠM aid
ĠG os
ĠW yn
ĠE van
ĠJ ag
Ġcon fluence
Ġk in
Ġint ensive
ok i
ĠY us
Ġover head
Ġcol legiate
rib es
oun ces
Ġcap ita
ung en
Ġreport ers
agon ists
Ġextra ction
ĠCop a
Ġreun ion
Gold en
E X
or b
ĠM ons
ĠH ub
ĠH yp
ĠH ampton
ra id
ĠK ann
ĠK ara
ore g
ge b
ĠCh ip
Ġsp ont
ĠInd ividual
Ġinc arnation
sp aper
Ġtw elfth
Ġmodel ing
Ġtreat ing
Ġconduct ors
Ġopt ed
ĠSerb s
ĠCirc us
Ġancest ral
ĠKey nes
Ġrailroad s
ĠGran ada
ĠHern Ã¡ndez
Ġprivile ges
Ġprecurs or
L i
M s
R oger
T ake
or ah
Ġf ake
Ġm ills
ĠM t
ĠP ag
id as
ĠH yde
ĠE uc
ich te
Ġr het
per ors
ĠY ar
Ġac cepts
ob iles
ĠSh ane
ĠCan on
ĠAm brose
yl onian
Ġfire arms
ĠCongress ional
ĠSil va
Ġbrand ing
Ġdark er
Ġtal ents
Ġalt ogether
Ġimag ery
Ġtempor al
Ġalumin um
ĠBalk ans
Ġtorn ado
Ġpilgrim age
b ay
r ash
ĉ Ċ
Ġt rem
Ġs aves
Ġm asters
ĠM ord
Ġn aked
ĠP ablo
ĠL ore
ĠV on
Ġrem inis
ĠMan ual
dom s
Ġvol cano
ĠGovern ors
Ġscreen writers
ih ar
ĠOut side
ĠLim erick
Is raeli
ĠBrand on
ĠEvery thing
Ġexcav ations
ĠMahar ashtra
ĠMiddles ex
ĠPars ons
, '
Ù ħ
en za
ĠB ax
ĠL anguages
ĠN aw
ĠV F
ĠUn cle
te e
Ġdis par
Ġsub cl
Ġret ains
ĠBrit ann
Ġwar rant
Ġvill agers
het ics
ĠCons ult
ĠTw ins
Ġcontrovers ies
Ġpseud onym
Ġfulf ill
ĠQuarter ly
Ġnomine e
Ġgarn ered
g eneration
Ġp our
Ġh aul
iv isions
ap arte
ĠCh arg
Ġcomp ression
Ġsh oes
Ġdis abilities
Ġsc roll
red itation
Ġret reated
Ġcar riage
ĠBar row
ĠCal iph
ĠEm bass
Ġparticip ant
rel s
het amine
clus ions
Ġer upt
ĠMah abharata
ĠUr du
Ġcontact ed
Char acter
Par is
Ġcho ices
ĠLeban ese
ĠStri ke
ĠDeuts che
Ġlisten ers
ĠHels inki
M ER
T ext
W ell
h ttps
n ation
il ow
ad as
Ġg el
ĠG one
ĠN ero
Ġr ides
ĠAl most
Ġag ing
ĠLe Ã³n
cent ric
Ġexp ired
Ġmon etary
sc ill
Ã¼ hr
Ġrepl ication
ĠSch midt
ĠTra cks
het to
ĠWal ton
Ġcolumn ist
Ġflu or
Ġfram es
Ġcomed ians
ĠChand ra
ĠInvest ment
Ġpip eline
ĠPil ot
Ġmemor able
Ġantis em
Ġsus cept
A le
O t
d ar
Ġc it
Ġc av
Ġb ark
ic os
Ġd ella
ĠC Ã³rd
ĠH ag
ay ne
ary a
ry ption
ey e
Ġdec iding
|| âĢĶ
Ġdiffer ently
Ġdeb ts
Ġet ym
oid al
Ġche ap
ĠCarl isle
Ġdon ation
Ġsal ts
ĠWeb ster
ĠProt ocol
Ġovers aw
Ġemb ry
ĠJer ome
Ġhour ly
Ġcho osing
ige on
Ġsatisf y
Ġdepos ited
Class ification
mill an
ĠMoz art
ĠMÃ¼ ller
ĠFrem antle
Ġamalg am
W elsh
f ull
Ð ¼
Ġw ages
ĠA ve
ĠC S
ĠD odge
ĠF rog
ĠE y
rit e
Ġconst ellation
ÃŃ k
Ġreal istic
play ed
Ġmatch ing
ĠCarl ton
ĠHaw kins
ĠUnivers idad
186 4
ĠAsh oka
Ġstadium s
Ġclean ing
ĠMes a
ĠHold ings
quer que
c irc
g ender
k aya
Ã ¬
Ġt issues
is chen
Ġb out
Ġd irt
ĠT art
ĠM O
Ġth reshold
ĠF lemish
ĠW H
ver n
od i
ill ary
ud i
Ġsh ark
Ġinter val
Ġqu artet
oint ment
oph yll
ĠRob bie
lem agne
Ġpartn ered
Ġtele communications
Ġconqu er
Orig ins
Ġrac ism
omorph ic
Ġinstruct ed
ĠHav ana
Ġtel escope
Step hen
ĠAdmir alty
L ith
k on
u ya
ar f
ĠA K
Ġl ady
ot ive
ter min
ĠG us
ĠJ enny
est ial
qu ality
own ers
ph oon
Ġpre historic
Ġexp enses
Ġgroup ed
ĠNo ah
yl osaur
sh ow
ĠQu ant
Ġreal ize
Ġemploy ers
Ġcy an
ĠMid night
ĠGar cia
Ġlabel ed
ĠBi ology
omot ive
uv ian
Ġthin ks
Ġwat ts
Ġhelic opters
Ġstom ach
lighten ment
o op
en ne
it le
Ġb ure
ĠC edar
ĠT uring
ĠP otsdam
ot us
Ġst ack
ag ascar
og ens
Ġch aired
Ġafter ward
Ġpr ide
ĠZ ach
ĠHar lem
Ġrest ruct
ĠMart ÃŃ
Ġins ight
Ġpress ures
ĠSoviet s
Ġspecific ations
Ġded ication
Ġinstit uted
Ġcompl aint
ĠHig gins
Ġexpert ise
á¸ ¥
Ġpharm aceutical
? )
A h
C redits
P it
g iving
l op
Ġb rom
ĠM T
ĠM ental
Ġl ag
ĠP DF
ĠI rene
ĠL oth
âĢ ¢
Ġpro ud
Ġor phan
ĠSt oke
ess ing
Ġres ided
iss on
ĠCar rier
ĠMc D
ĠFl ood
Ġsk ate
Ġrock y
ĠSal isbury
Ġoccur rence
Ġhom eless
Ġobserv ers
Ġpurch asing
ĠElect oral
unct ure
Ġcounter parts
Ġantib iotics
ĠClay ton
Game play
stitu encies
Ġli bert
G ram
Ġm ourn
Ġn ursing
id ered
ĠR oh
ĠO le
ĠO val
od ian
Ġcomp rise
ang i
Ġwork force
Ġshow c
Ġdet ained
epend ing
Ġbi ographer
Ġmer ge
pro file
Ġreb randed
Ġball ad
ĠHon our
Ġincorpor ates
ĠHy der
Ġresemb ling
Ġthrow s
Ġpione ering
Ġri ots
ĠFact or
Ġteen age
ĠAnim ation
Ġmasc uline
Ġdism ant
Ġadvertis ements
ĠLinn aeus
Ġundef eated
otechn ology
ĠIniti ative
ĠKyr gyz
D etroit
F ox
L F
m are
t an
or io
ĠC i
ĠC unningham
ĠH ubbard
ĠI F
ra z
ĠN J
ount y
ĠCom mentary
Ġair s
ĠBar r
10 5
Ġnational s
eed ing
Ġbre ach
Ġlim iting
Ġexpress ing
Ġcapital ism
Ġhom eland
AR T
edd y
Phil adelphia
Ġkick ed
ĠEss ays
ĠMi ocene
Ġyield s
Ġsleep ing
ĠKun st
Mag azines
ĠShir ley
Ġphylogen etic
- ,
z eb
Ġin k
Ġp m
ĠG entle
ill as
ĠSt ro
Ġex empt
ĠAl am
Ġout let
Ġpre vention
Ġrem ake
ĠAugust a
Ġsix ty
ĠBra b
Ġtw ins
Ġreview er
Ġmass ac
Ġspe eches
Ġge ological
ĠBal och
Ġinn ocent
Art ists
Ġfeed back
ĠRen Ã©
ĠVar iety
ĠOri ent
Ġalleg iance
ĠLib ya
Ġexplo itation
Ġintercept ions
Var ious
Ġmaneu ver
ĠEmbass y
h ak
ĠM iy
ĠB ordeaux
Ġn atives
ĠR ole
ĠR BI
Ġg olfer
ĠF ol
ĠF rost
ĠF ritz
ĠG ale
ul se
Ġar ches
ts ky
Ġres ide
ĠY iddish
ĠAr row
Ġdesign ing
ox ic
Ġrefer enced
ĠCommun ities
Ġcontract or
ĠGeorg etown
ĠLim a
186 1
Ġbr illiant
ĠRon nie
ĠKer r
ĠShip ping
Tour ism
ĠArchae ology
Liter ature
ĠJagu ar
romagn etic
ĠBrem en
Ġirrig ation
ĠNiss an
S pe
W alter
l ings
iv orous
ĠH es
ĠD inosaur
ow ell
ĠL amp
ĠF en
ĠG iuseppe
op ia
Ġpl um
Ġun released
ĠAr cher
ĠZ ar
ĠCl ar
ĠAt omic
Al an
Ġport raits
Ġsol ved
Ġmer it
Ġnecess ity
Ġshoot s
ĠSand ra
ĠWol ves
ĠRef uge
icular ly
Ġconson ants
ĠVirt ual
ĠBirth day
Ġaccus ations
Typ es
Ġunch anged
ĠHerc ules
P M
c ery
y u
en ko
Ġs ultan
Ġin cl
Ġn ouns
ĠI A
um ption
ĠSt ations
Ġrec all
ĠSh im
af fer
Ġ11 5
Ġbroad ly
ili ated
isl av
Ġviol ated
ĠBur lington
ĠTri o
Ġfort ifications
Ġshut tle
dr ive
ĠPear son
ĠInvest igation
Ġexceed ed
Ġglob ally
Ġinherit ance
A k
G F
S pring
h ana
j un
t rad
ĠS v
ĠS ut
ĠC able
ĠB am
ot on
ĠR FC
ra il
op f
od d
Ġv ampire
Ġr iders
Ġsp or
In ternet
Ġcomm od
Ġent ert
Ġpass port
ĠSch ne
Ġphys icians
ĠSk inner
ĠStev enson
Ã¨ ge
Ġchief s
ĠJo a
ĠArm oured
Ġpsych iat
ĠTal bot
ĠRhe in
Commun ity
Ġavo iding
ĠTibet an
Broad way
Ġetern al
F iction
J ones
L anguages
R ol
ĠP end
ĠP unk
ĠR iv
ĠF landers
ĠN er
th irds
um ing
if lor
Ġr ushed
Ġun pre
pl ays
ik k
ĠNew ark
ne ction
ley s
Ġed s
fl ict
ĠRe ference
ĠComp ar
Ġday time
ĠMag dal
Ġtre ason
Ġche f
Ġlik ewise
gl omer
ĠPan zer
Ã¸ y
ĠLev y
Ġthr ust
ĠMoh ammed
ĠTransl ated
cap ital
ĠAin u
Ġmotif s
Ġbalcon y
cyl inder
T ok
b ral
i ov
l oe
Ġp ension
ĠA ck
Ġre issued
ĠM ast
ad der
ĠG au
av ior
Ġr ay
Ġsp ur
ĠY as
orn o
Ġj ungle
Ġme al
ty p
Ġob l
Ġdep osition
ĠWill is
Ġdem ise
ino za
ĠWil kinson
ĠInter est
Ġver bal
Ġelev enth
186 3
Ġconcent rate
ĠAbb ot
Ġmut ations
ĠAdminist rative
ĠJama ican
Ġow l
ĠAfrika ans
P I
R B
S at
d ict
j et
t ank
z ew
Ä ĳ
in itely
Ġf ant
as pora
ĠS ites
ĠC ull
ĠT ou
ĠM ell
ĠP ig
us k
ĠW K
ĠE ck
Ġ18 10
ex ts
rib utions
18 58
Ġbl ade
Ġrep aired
Ġcare ful
ĠChrist ine
Ġmet re
Ġgrad ual
ĠLeg ends
ĠPrem iership
Mar ie
Ġprogress ed
Ġprof ound
Par ks
Ġexped itions
ĠTit le
ĠAzerbai jani
Ġrenew able
Ġtheat res
ĠSold ier
Ġbord ered
S om
U EFA
b ig
d rama
i ological
er en
en ities
ic hel
ro let
ĠM ey
Ġl augh
ad in
ĠP ip
ĠH ands
ĠK aw
ak an
yn es
ĠSe ah
An y
Ġinf ilt
Ġtri angular
Ġpoin ting
ĠIm ag
Ġstandard ized
Ġsu ite
Ġcat ches
Ġdark ness
Ġprepar ations
ĠInvest ig
ĠClare nce
ĠSter ling
Prim ary
Ġreinforce ments
Ġanten na
Ġarsen ic
B at
D iss
f ts
l est
p i
s un
Ġin ability
Ġb ab
ĠB YU
ur ia
ĠP yth
ĠR A
ĠD ag
ĠL uk
ĠG ad
ĠG erm
igh am
Ġcont exts
ĠInd oor
Ġdep iction
ĠX II
app ropri
oper ation
Pr ince
enh ower
ĠPhilip pe
Ġcoordin ate
ĠProtest ants
Ġconsult ing
Ġoverl ooking
Ġrend ering
Ġglac ier
ĠInnov ation
H op
a an
d yn
f rey
g one
É Ļ
ed es
Ġb arn
ĠA ragon
st ruct
ĠR aven
ĠD ifferent
ĠF eld
ĠN ile
Ġst amp
ĠW izard
and ar
ab ar
Ġpro se
Ġcl iff
Ġ18 27
ĠTh orn
te acher
Ġdis g
ĠSh iva
pr im
Ġfl ies
Ġem ail
ĠTe aching
Ġdiffer ing
Ġcompet es
Ġsl ogan
ours elf
unk er
Ġreb uilding
Ġsuper intendent
ĠDun edin
ĠBart on
ĠCÃ³rd oba
1 22
B uff
O rd
T en
T am
z one
z yn
Ġw ives
ĠS F
ĠS utherland
ĠA OL
th ouse
ĠK O
ĠK atherine
ĠU FO
Ġex ported
Ġcomp ulsory
Ġ18 19
Ġ18 26
ĠSp iel
Ġrepresent ations
Ġstat ute
ĠChar ity
yd or
asc us
Ġbox ers
Ġautom ated
ĠUr s
Ġbehav iors
187 2
ĠDar ren
ĠAlger ian
his att
Serv ice
Ġconting ent
iju ana
ĠAlz heimer
L ady
R eb
w rights
Ġa unt
Ġm eg
ĠS uc
ĠS ept
Ġd ose
ĠR ider
ĠW att
Ġan onymous
ure mberg
Ġcomp aring
Ġro s
low er
ob ia
Ġ5 000
Ġreg ain
aus s
ĠSc ene
Ġqu arry
arg er
ĠGu ill
ung s
ĠHigh lands
Ġcor rupt
Ġexpl oring
Ġbre eds
Ġens lav
Ġrot ating
ĠDick inson
Ġdepend ence
Ġgrant ing
Ġgeomet ric
Ġmorph ology
haw ks
ĠFly ers
Ġstead ily
Ø§ ÙĦ
ĠDund ee
Ġdup lic
F ull
H al
m ale
Å ¼
ĠA val
ĠT C
ĠT ud
Ġ1 200
ĠP iper
ĠH T
ĠL ub
ĠG ue
ĠW elfare
Ġwh olly
if a
ĠK uala
ĠHe ather
for th
ĠOr t
Ġ17 80
Ġmed ial
ĠPark way
Ġaff ection
Ġhuman itarian
Ġdeterm ination
Ġesc apes
Ġgra vel
ĠSun ni
ĠHa iti
Ġdemonst rations
Ġcart oons
ĠAbd ullah
Ġorchest ral
Ġnomine es
Ġsurpass ed
Beg inning
B ol
S ymph
T ype
n esty
Ġs erm
ĠT oul
Ġl amp
ĠN RL
und erb
per ed
hed ra
Ġab normal
Ġdis ability
olog na
Ġcol oured
Ġpr inter
Ġspec ulated
ĠSw imming
ĠAfric ans
Ġdem on
ĠCor vette
Ġcoll ision
Ġge ology
Ġcou rage
Ġtal ented
Ġstream ing
ĠTrib unal
Ġcru el
Commun es
ĠRot terdam
G ener
H aving
Ã µ
ar am
Ġc ry
ĠS essions
ĠC ron
st a
ĠH ulk
ĠR OM
ĠN om
ĠN guy
ĠW itness
and i
Ġan ts
Ġpro long
ĠV HS
ĠHe y
Ġsub marines
ann es
ĠWar rior
Ġprom otes
Ġsl aughter
reg ion
Ġ0 1
Ġder ive
Ġgra pe
ĠHor ror
Ġinters ects
ĠCrit ical
ÅĦ ski
ĠAer ospace
ĠEsp a
Ġgran ite
ĠUz bek
Ġinspe ction
b ol
it ian
Ġb urg
Ġm igrants
ĠS ales
ĠS iege
ĠT ot
ĠN urse
ĠW ins
Ġcon cluding
Ġr er
Ġcons p
ĠSh o
Ġbu ffer
Ġfl uct
Ġmin ers
ĠTe ams
ĠAss istance
12 5
ĠWilliam son
Ġant id
ators hip
Ġpriv at
Ġconcept ual
ĠUnivers iade
186 2
ĠSev ille
Ġexec ute
Ġpurs uing
ĠLincoln shire
Ġdecre asing
ĠEP s
Ġsevent een
Ġpup il
ĠLaure nt
Ġpoison ing
Argent ine
Ġsubordin ate
B arry
E ll
ar ius
Ġin ev
Ġin adequ
Ġb ust
Ġb anner
Ġd ried
Ġre habilitation
ĠB enny
ĠB enson
ra x
un ts
ĠG es
ĠN H
ĠW ong
est ead
ew ood
ap le
Ġapp eals
ĠDe er
ason ry
Ġrem od
Ġcommun al
Ġsk ept
ĠPark ing
ĠEl ite
ari os
ĠMass acre
Ġinteg ers
ector ate
Ġcorn ers
Ġcalc ulations
Ġastron omers
ĠHu bert
ĠWin chester
ĠNich ols
Ġteen agers
ĠSyn od
ĠAur ora
Ġcomfort able
Ġharass ment
Girl s
C leveland
D in
H ong
w ave
an za
it os
ĠS ag
ĠC ounsel
Ġh urd
el ian
ĠI B
Ġbe ats
her ical
and an
ĠE lections
ĠO u
Ġpro spect
ew ard
Ġde ported
ire ment
Ġ18 28
ach a
pt ic
eg ger
ĠAr bor
ĠMar ina
ĠPh ase
Ġstate wide
Ġele g
Al ong
ĠHer r
ĠMe eting
Ġcult iv
Ġbar riers
ĠGal way
ĠTw itter
ĠBang alore
ĠCy ber
ĠBall arat
Ġemb assy
ĠConc erto
harm a
ĠCN N
Ġanat omy
ĠMonth ly
conn ected
ĠTunis ia
M as
b uck
g ren
n ith
Ġc ipher
Ġd rought
ĠT ulsa
ĠM ant
Ġn ec
ot rop
ĠI ch
Ġcomp ass
ach im
Ġcomm uter
ys c
ĠMay a
Ġrece ivers
Ġtit ular
Ġshort s
Ġtake over
Ġhold ings
Ġemploy s
ux e
Ġhard cover
Trans l
Ġroll ed
Ġboy friend
Ġimpl ications
Ġteen ager
Ġexecut ions
Ġhal ted
Ġcongreg ations
Ġoblig ations
Ġsemif inal
Stat istics
Ġadjoin ing
F emale
N I
p oints
ĠB in
ĠB anner
Ġl ighthouse
ĠP uss
ĠP itch
ig rate
ĠG uth
Ġal ike
ĠJ ed
ĠJ ill
ac ia
ĠU m
og enesis
und i
ĠShe ikh
ĠAll Music
ĠPal atine
Ġdecl are
ĠStar r
Ġscreen ed
Ġblock ing
Ġautom otive
vey ard
Ġimpl ied
ĠTar zan
Ġinsc ribed
ĠTan z
Ġdeleg ate
Ġori ented
ĠMult i
Ġtribut aries
' ),
1 14
n est
v oice
w elling
at ops
ed itor
Ġs ings
Ġc ra
ĠD ug
Ġst unt
ĠW et
up on
ĠU d
Ġpl ed
ĠCh ick
Ġad ul
Ġra ck
ĠLe in
Ġpol ym
ĠRe ign
ĠSan ctuary
ĠBer ger
Ġstruct ured
Ġsurv ives
Ġsqu ares
Ġmid night
ĠDon na
Ġpress ing
Ġpast oral
Ġneg lig
ĠFort une
ĠFound ed
IA A
Ġdeliver ing
Ġdecre ases
ĠNev ille
ĠExper ience
Ġconven ient
ĠComb ined
ĠBea umont
ĠBian ca
ĠPolytechn ic
Ġreminis cent
d esignated
å ¤
Ġf ut
Ġm ice
ĠM ighty
id y
ĠN T
Ġal igned
um my
Ġr am
Ġr ush
ĠTh ir
Ġass et
St arting
ĠMin ing
Ġnational ity
Ġequ ival
sk irts
Ġkill ings
ĠPer fect
Ġgen etics
Ġill umin
Ġche er
ĠSund erland
ĠHon ours
ĠJul iet
Ġstret ches
Ġaccur ately
Ġinfl amm
ĠKild a
ĠTrad itional
Ġmit ochond
ĠBark er
ĠUnf ortunately
1 18
B os
S even
T ro
U M
e er
p olis
he ng
ar h
Ġm ock
ĠS hips
ĠA BA
ĠI k
ĠR in
ĠR ath
ĠW ife
Ġal arm
oc ations
ĠK ass
Ġch ances
ff ord
rand t
ĠX III
ĠEast Enders
ĠMac intosh
ye ong
Ġran ch
ĠLiber als
Ġpit ches
ĠCharl ton
Trans fer
ĠSher idan
Ġtur bo
ĠStein er
ĠÄ° z
ĠQual ity
Ġreluct ant
ĠGlou cester
Camb ridge
Ġdecommission ed
L incoln
R os
Î ¼
Ġt rom
Ġp aternal
Ġto ys
Ġm old
ĠA ure
ĠC ove
ĠC rescent
il ic
ĠT D
el ed
ut tle
ĠN iz
ĠW S
ell ites
Ġ18 24
Ġro de
ral tar
Ġtra gedy
Ġunder going
ys hire
ĠBro ken
ĠCal der
ĠGu inness
ung a
Ġcurrent s
irc raft
Ġsw ords
Ġvict orious
Ġdeterm ines
Ġnar ration
eff ective
Ġpit chers
ĠUnivers ities
ĠBet ter
186 9
urd ays
Ġmaster ing
Ġsculpt ors
Ġbott le
Ġmotor way
lyn n
Ġroll er
ÅĦ sk
d f
j ack
Ġt ender
er ion
Ġp oker
ro kee
Ġl umber
ĠP urs
ĠH ole
un til
ĠN umbers
ĠW erner
ĠJ as
Ġcon form
Ġhe ll
ĠK ern
iz ational
red ible
Ġmon sters
Ġcap ac
Ġref use
ĠAct ivities
ĠAg ripp
Ġvis itor
ote ch
Ġintro duces
Ġprogress ion
ĠStat istical
Ġgal axy
Sm all
Ġassum ing
Ġsynthes izer
Ġprev ents
ĠBullet in
N D
g il
Ê ¿
in ia
Ġthe rap
ĠC e
Ġh urt
et ed
ĠH BO
Ġg ren
ĠF ashion
un ion
th am
ĠW ise
are z
ĠY el
Ġ18 18
ĠLe one
Ġco ordination
Ġrel ies
Ġmon astic
the med
10 2
uk o
Al bum
oon ey
ĠPres idency
Ġprot ocols
Ġstrong hold
Ġproduct ive
Ġmodel ed
Ġmean ings
Ġacqu is
Ġsum mers
Ġprec ision
ES T
ĠTaiwan ese
Ġneut ron
ĠRap id
ĠBeh ind
ĠArchae ological
Ġneighb ors
number ed
N ep
N CAA
Ù Ĭ
Ġo live
al ine
Ġc ats
ĠA W
ent in
ĠB olshe
ers h
ĠD oming
ĠF oss
ip edia
ob ius
ĠSh ock
Ġpres erving
Ġref using
idd ing
Ġmid field
ĠMad agascar
Ġaltern ating
Se a
ĠBh ut
ĠÄ Ģ
Ġadvoc acy
ĠBuch arest
ĠFlow er
ĠCyp riot
ĠAus chwitz
Ġreper to
ĠMartine z
H ou
w agen
Ġ à¤
Ġb gcolor
Ġh alt
Ġth roat
ĠH ap
ĠH ier
ĠL ope
ĠL yric
ĠW ide
Ġcon ferred
est ine
Ġch im
Ġsp ark
Ġcl o
ib ration
ĠAr min
Ġfl ame
ĠPl atform
ĠAss essment
Ġmat ched
sh aw
Ġsuccess ors
ffic ients
Ġport folio
ĠBer ks
Ġter ra
Ġden ounced
ĠMat th
Ġelimin ating
ĠBurg und
Ġstrengthen ed
ĠLomb ard
odyn amic
rins ic
N ob
V iet
h ydro
z ar
Ġo l
Ġp ant
ĠM iz
Ġl aying
ch s
ĠP GA
ĠH os
ĠH ydro
ĠR B
Ġpro jection
ure n
Ġte legraph
ult on
Ġad vers
olog ic
Ġ17 90
the y
ĠItal ians
work ing
Ġide als
Eng ine
ĠGod s
ĠMac Donald
Ġaver aging
Ġcy ber
Ġfav oured
Ġden otes
Ġhum id
ĠUSA F
ĠBru ins
cont inent
Ġlat itude
anth us
Ġassess ed
ĠNon etheless
á¹ ĩ
ĠHawai ian
ĠAssoci ates
ĠMagn us
Ġbip olar
Ġprosper ity
Mus lim
ĠPriv y
ĠNicar agua
ĠJup iter
' "
B and
b ee
Ġ ul
er age
on o
Ġp ep
le hem
Ġn i
ĠD ors
ĠSt eele
ast ing
are a
Ġy east
Ġatt itudes
Ġlin ed
ĠBl acks
Ġsong writing
Ch ampions
Ġpo etic
Ġlit urgical
ĠMon key
ĠPort o
Ġeconom ically
Ġemploy ing
ĠGreen wich
Ġbirth place
Ġball ads
Ġsal vation
gu ard
Ġselect ive
ĠMans field
ĠLam bert
flow er
Ġbrew ery
F e
F ound
N Z
O p
O ffic
T alk
Y P
r iver
Ġp ac
ĠC inemat
ĠH M
ĠR Ã©
ĠL atter
ĠSt uttgart
Ġun named
ĠLe igh
ĠSp rint
ĠAm anda
Ã¡ d
bl ock
Writ ing
Ġvalid ity
ĠKnow ledge
Direct or
Ġcoe fficients
Ġcouncill ors
Ġnumer ical
ĠResc ue
7 50
B illy
l io
Ù Ĩ
an al
Ġo ste
Ġo scill
il ations
ĠB ott
ĠB rick
Ġg ospel
ĠL ance
ĠF ors
ĠN ue
ĠW I
ĠCh arges
ĠCh atham
rit t
Ġag enda
ins berg
Ġrel ate
Ġgu y
Ġcharacter ised
Ġgl ory
New spapers
oz a
ĠSav age
Ġflood ed
Ġalk ali
Ġcens orship
Environment al
1 16
E ric
G I
M ember
b ottom
Ġ ellip
at ibility
ĠM ixed
ĠL ingu
Ġbe ans
ĠG ent
ĠG iven
ag ons
Ġv ass
qu a
ran king
ĠAl ien
ĠTh ink
Ġover night
ĠAnd hra
Ġdi ary
Ġcapt ive
Ġjud ged
Ad rian
ĠProgram ming
Ġcooper ative
Ġham mer
Econom ic
ĠRap ids
ĠVenezuel an
ĠSah ib
Ġsubd ivided
ĠBA SIC
Ġpolyn omial
rapeut ic
M uch
c ost
r als
w atch
Ù Ī
Ġthe ft
ar ic
Ġf oster
ĠS outheastern
Ġd rops
ĠT rom
el is
ad an
Ġcon g
ĠU HF
ĠU AE
ĠV and
ĠV ia
Ġph ones
Ġfin anced
ruct ive
Ġdep osed
Ġrun off
Ġcur ling
Ġcor rection
Ġfac ial
Ġinf ect
ĠGr ays
ĠNe olithic
Ġcal iph
Ġtext ile
Ġclear ing
Ġemer ge
Ġens uring
ĠOtt omans
Ġtable ts
Ġaddress ing
load ed
Ġflood s
ĠWrit er
ĠHans en
raf ted
Orig in
ĠPur ple
Sim on
opp y
Ġrever ted
Ġcann ib
Bir ths
ĠObs erver
C all
F T
H arry
P a
P arliament
R ussia
S weet
l ot
s u
s mith
v ity
Ø ±
al and
Ġw age
Ġw inters
ar lem
Ġf als
ĠS aga
Ġn ests
ĠD Ã©
ĠJ ab
ac ious
ĠY en
ĠY EAR
In formation
Ġout skirts
ĠSh ank
its u
Ġext inction
ĠPark inson
Am sterdam
ĠMad ras
Ġpot assium
ĠCommission ers
ĠDown s
ĠBomb ardment
Second ary
Ġintent ions
Ġfert ile
Ġdispers ed
Ġbotan ist
ĠRodrig uez
ĠShack leton
Ġcancell ation
ĠPERFOR MER
H T
v re
Ġs ake
es on
Ġf oul
Ġp ec
Ġp osed
Ġh ire
ĠM ai
ĠD S
ĠO ro
ĠSt a
Ġcomp ly
ough bred
Ġrel iability
Ġfin ed
ĠPart s
oph y
Ġhel met
tt i
eal ous
ugg er
Com ics
roll er
Ġten ants
ĠMac millan
Ġsem ic
Ã¢ n
Ġdoctor al
ĠGib bs
Ġwarm ing
Ġparam eter
Ġrepr inted
Ġsacrif ices
Ġfib ers
Ġindirect ly
ĠTaj ik
L L
S lov
l ayer
Ġf ilt
Ġb ot
ĠS iles
il ated
ĠT ian
ĠH ale
ra cle
ĠG ov
os omes
ĠV inc
ĠAr s
orth y
18 59
ĠAm ber
ĠRe ader
Ch ile
ĠDist ricts
Ġactiv ism
Ġvoc abulary
Ġz inc
Ġbi ographical
ĠMy ers
Ġmot ors
Ġtransl ates
hood s
Ġconv ex
ĠÂ ±
ĠCons ort
tra k
ĠÅ Į
ĠBon aparte
ĠAut onomous
Ġattract ing
ĠLat ino
Ġbor on
Ġnegot iate
Ġpione ered
ĠRest oration
Ġgymn astics
Ġretro spective
hig hest
Ġdwell ings
3 60
< /
B ishop
C op
M em
P en
S ection
U t
m Ã¡n
p os
x ico
Î ²
is al
Ġp rone
as aki
ĠS ounds
ent er
ĠM uz
ĠB au
Ġl unch
ĠP ure
ĠR IC
Ġbe ef
ĠG est
Ġst uck
land er
Ġpol yg
ae k
Ġsent iment
Ġcast les
Ġec ology
Ġcompar ative
ĠMand arin
arat us
Ġpup pet
Ġnucle i
Roman ian
Ġpap erback
ĠMathemat ical
Flor ida
Ġodd s
Ġaccomplish ments
Ġcomput ational
ĠMcCart ney
' ).
B ow
E gypt
L ithuan
P ast
b rown
Ġf res
ol ation
ĠB one
us ions
ĠD mit
and ise
if erous
ĠK ell
ĠK ier
ĠIn tern
ĠIn ternal
Ġse ated
Ġch ase
ĠTh anks
Ġab rupt
Ġout law
Ġbl end
ĠNo el
com be
Ġnon profit
sequ ent
Ġsol ving
oul t
Ġreb uild
Ġdisp atched
ĠInc re
Ġbreak fast
ĠSat urdays
ĠElect ronics
ĠWat ford
Ġbackground s
ĠSel ena
ĠSte am
ĠRest aur
ĠCarm en
ĠMaced onian
pat rick
ĠTuc son
Ġreperto ire
3 50
B ulg
M ov
P D
T rib
g rav
j am
m oor
p ack
Ġp iv
ro cess
ou b
ĠT ul
ch ard
ĠH yd
ĠD ancing
ĠL iang
ĠW eh
ĠK ai
og h
ĠAl to
ace y
Ġup stream
Ġob solete
ĠAm Ã©
ĠGu ernsey
vers ion
Ġfinal ist
Ġsw orn
ĠRes ults
Ġ/ /
Ġdam s
ĠEv idence
Ġsal mon
Ġban jo
Ġannounc ing
Ġsuppress ed
Ġdevast ated
ĠMiddles brough
Ġconfront ation
Ġmetall ic
Ġump ire
ĠChev rolet
? ,
H aw
J am
T urn
d eb
s che
ĠT ram
ĠM ab
ĠB ishops
ce ph
ĠL ep
ĠN im
ĠN uremberg
th us
Ġ18 22
te f
ĠĠ ĠĊ
Ġrem arks
Ġam endments
ograph ically
ĠRec onnaissance
ĠPhil osophical
Ġprocess ed
Ġlaun ches
ĠDis raeli
ĠFre ud
ĠLiber ia
ĠEnter prises
Ġcontain er
ĠMic he
Ġinduct ees
Ġinnov ations
abet es
ĠThor nton
ĠPle asant
Architect ure
B ell
D omin
P u
n om
he a
ĠF Ã©
ĠG unn
ĠN one
th y
18 50
Ġschool ing
Ġ17 77
ĠPl atinum
ĠGu est
ĠComp anion
ĠSw ift
Ġmark er
sequ ential
Ġident ities
ĠPal atinate
After math
yr us
Ġapplic able
Ġpsych ologist
ĠAsh ley
Ġtarget ing
Ġcalc ulation
rec ord
ĠSav annah
Ġvert ices
ĠDJ s
Ġinvent ory
ĠBlu etooth
ĠPul itzer
Ġsteal ing
ĠVerb ands
raul ic
ĠASC II
L ew
c u
m ount
p end
s ource
Ġthe rop
Ġo mitted
Ġp amph
Ġm ethyl
ĠS ale
il in
ĠB iz
ĠH ess
ĠI li
Ġbe es
Ġex agger
ind y
Ġloc ate
Ġloc ks
ĠAn ita
Ġem bro
Ġann ot
ĠEx eter
ĠComp uting
aul d
Ġhand ic
ĠTurk men
mond s
akh t
Ã¢ nia
á¹ Ń
ĠChall enger
Ñģ Ðº
ĠKap oor
Ġforg otten
ĠRivers ide
Ġmini ature
Ġmedall ists
Ġbenz odiazep
ĠVaugh an
O tt
c ur
ð Ĳ
Ġs oprano
es ium
ent on
Ġre jection
ĠH ust
ĠR anger
ĠE rie
ĠJ eh
Ġde port
ge e
Ġcomp anions
Ġper mits
Ġev angel
Ġtra vers
ism atic
ĠChrist ina
ĠBe z
ĠFl at
ĠSy mb
Ġcr ushed
ecess ary
rate gy
Ġconver ting
Ġ180 3
ĠKy iv
Ġcontroll ers
ĠRand olph
ĠVeter ans
ĠVolunte er
ĠOdys sey
Fig ure
ĠReserv oir
C I
C ong
L V
U se
y as
it one
Ġp ix
Ġm alls
ol ades
ol utions
ĠM ard
ĠM insk
ĠB eech
Ġl odge
ĠD ix
ĠThe od
ĠF ou
ĠN ut
and ering
ĠJ h
ĠK iller
end ish
ĠV ocals
Ġplay able
Ġup held
Ġatt achment
Ġwork place
Ġinter red
ĠGe ographic
Ġfore ver
ĠDep ot
Ġfail ures
pro t
ĠDem on
ĠGr im
Ġmother s
ĠTom orrow
Ġche aper
Ġcal m
Ġprincip ally
Ġbank er
Ġlog ging
ĠJud ith
ĠDev ils
Ġprin ces
ĠSu ite
ĠDam ascus
Phil ip
ĠGuy ana
ĠEle anor
ĠMong olia
ĠBenedict ine
Ġcoe fficient
ĠAub urn
Kore an
ĠPtole my
auth ored
A re
z t
Î ·
on n
Ġp ushing
ou k
ĠA mp
ĠB ord
ĠD res
ov al
ast ies
Ġsp erm
ise um
ax ies
ĠCal c
Ġdem ographic
Ġcr ater
bo ats
An imal
Ġbroadcast ers
Wh y
ĠCoast al
Ġimplement ing
ĠJournal ism
ĠDesign ation
Ġarchae ology
Ġstorm s
Ð¾Ð ²
Ġquad rup
Ġcros sover
" âĢĶ
N ear
N ations
R a
h istory
i ographical
u ates
Ġm ath
ig raph
ĠD ome
ra red
ĠF uk
ĠW ere
ary n
Ġsh ores
Ġcont ests
ĠAd vert
Ġref in
Ġdeb ated
Ġpract icing
ĠCons umer
ĠEv ents
Ġ180 1
Ġmel ting
ĠCob b
Ġuncertain ty
Tor onto
ĠBent ley
Ġtrigg ered
ĠRuther ford
B ab
B oys
M amm
ĠT R
ol er
ĠP oker
ĠN S
Ġ" "
ĠK ro
Ġcomp utation
Ġres istant
Ġdis asters
Ġsc rapped
Ġgu ilt
lin er
ĠHol t
ĠÃ ľ
Ġsil ence
ĠMah mud
Rec urring
Ġtim ing
Ġbad ge
ĠHy per
Ġsan ctions
Short ly
ĠIceland ic
Ġpret ty
Ġsymm etry
Ġic onic
C lin
J ason
K evin
L o
S ac
l Ã©
Ġb ic
Ġd warf
Ġl ymph
id ium
ĠI L
ĠR ost
ĠG avin
ĠW ess
Ġ20 24
Ġen velop
ert ation
Ġ11 4
ĠTurk ic
ĠMark ets
Ġflow ering
Ind ependent
ĠGood s
ĠDec ision
Ġillust ration
Ġbal anced
ĠBrew ery
Ġacceler ation
Ġcanon ical
ĠLif etime
Ġnewsc ast
Ġnas al
A ircraft
J oh
O ak
S ah
f alls
Ġf ountain
Ġd ow
ĠT ina
ĠB onds
iv ist
ĠH of
im acy
ĠR M
ra j
ĠL ill
ĠE ighth
Ġpro stitution
art y
ran n
rib uted
ĠSp ur
ĠOr ders
ĠIs mail
ĠGl oria
ĠChar lemagne
Ġlower ed
Ind ustrial
ĠOl ive
Ġpath ways
Ġtim et
Ġsurg ical
Ġsatisf ied
Ġrecept ions
Ġevac uation
Ġ(â ĨĴ
ĠLik ewise
h ole
t ec
ĠC rete
ĠC umberland
ĠP seud
ĠL ump
ĠF unk
th ia
Ġ18 17
ĠCom ing
Ġwhere in
Ġdec ent
air n
ĠCent ro
ĠBro oke
Ġref lex
16 00
Ġadv iser
ym ns
Ġmag ist
Ġgl obe
ĠLa os
Ġfe as
Ġfoc al
Ġclear ance
Ġdu et
met re
Ġ180 8
ĠCop per
ĠTy rone
Ġrefuge e
ĠFu ji
ĠHas an
ĠMong ol
Ġreorgan ized
Ġtoler ance
Ġecosystem s
Ġrejoin ed
ustain able
C ome
E U
I r
Ġs au
es igned
ĠS ug
Ġd ug
ĠT ap
est own
Ġwh it
og ly
ost ers
ob o
ĠZ am
Ġdisc rete
Ġ11 3
ĠTr uck
ops y
Un incorporated
Ġaut ism
Ġweek ends
Ġtransl ators
Ġtre asure
Ġeight eenth
Ġprem ium
ocal yp
ĠBang kok
ĠStat utory
Ġresemb lance
Ġprint ers
Ġrent ed
ĠSchw artz
Ġtum or
Ġwick ets
Eth nic
Ġoverth row
Ġcha os
Ġmoist ure
Dig ital
D un
H I
t ree
re lease
il ot
ĠB ore
ĠF ife
ĠG ibb
ĠJ ian
Ġr all
ĠCh u
Ġch ambers
ĠV ander
Ġar ises
ach ute
ident ified
ĠAm al
10 4
ĠAnd es
Ġpresent ers
Ġindivid ually
Ġbi ologist
ĠMac K
ĠEv a
Ġconstruct ing
Ġunc overed
Ġamb ush
Ġsens ory
Ġcondition ing
Ġwant ing
Ġthick ness
Ġrib bon
Ġabb ot
ĠHern andez
Ġconfron ted
ĠPÃ© rez
ĠUtt ar
ĠÄ°z mir
Ġacquis itions
) ".
D ick
N U
T win
j ug
n m
en ium
or ie
ĠC Ã©
ĠM ask
Ġn od
Ġth umb
ĠD raw
ĠF em
ĠG erry
up ta
ĠCh ak
cl osure
Ġoff set
ĠSh adows
aus ole
Ġear s
ĠCal d
ĠGu err
Ġstr at
udd ers
pro of
Ġassist ing
ĠGo ing
ĠMiss ile
Ġfa Ã§
lit re
ĠBab ylonian
ĠHuman ities
ĠWild cats
ĠAst ros
ĠBrad y
Ġbra ke
ĠGre co
Ġfranch ises
ĠTerrit orial
Ġcru isers
Nor way
Ġintention ally
Ġmamm al
gart en
ĠHumph rey
Ġinterv als
ĠEis enhower
Ġsuperm ark
ĠHyder abad
B udd
L ists
T rade
b etween
c oll
in ely
Ġf ond
Ġ1 19
ĠB ridges
Ġl enses
ies el
ĠU FC
ĠSt ap
ran i
ĠAl umni
ĠSc ulpt
Ġmod ules
Ġresp iratory
Ġdevelopment al
ĠEm manuel
Ġins ult
medi ately
ih u
Ġpromot er
Ġess ence
ĠGar ry
ĠCorn ish
ĠNic ole
ĠDomin ion
ĠBuck ley
Cap tain
Ġprofit able
ĠResp ons
Foss il
ĠAar hus
Ġpeas ants
B es
y ad
it ud
Ġin duce
ĠM s
ĠR ag
Ġon ward
ag raph
od erm
ew ays
man cip
Ġ18 23
Ġj umps
Ġen force
Ġ6 50
ily n
ĠCl ock
oss a
ĠMay er
ĠAm os
anc ock
ĠCor ridor
Ġ24 0
ĠMy st
Le od
Ġswim mers
ĠNet works
ĠNorm andy
ĠRup ert
ĠSchwar zen
Ġsummon ed
Ġlandsc apes
Ġanalys es
( )
B urn
C a
O K
b et
s ided
Ġt apes
Ġa fore
ĠC hern
Ġh ollow
ĠT oll
st reet
ĠB Ã¼
Ġn ave
ĠR ally
ĠF ate
ĠSt ras
ĠCh ow
ĠTh al
Ġj ockey
ĠCol lections
iet al
Ġdec imal
Ġrem astered
Ġ17 50
Ġ17 83
ĠAct ive
Ġorigin ates
ush i
Com mercial
Ġz ool
ĠWe iss
Ġtransfer ring
ĠBoy le
car bon
anth a
Tax onomy
ĠTob ago
Ġacceler ated
Ġflex ibility
Fin ancial
ĠMennon ite
D eb
F un
S el
c ode
g ment
al c
le k
le et
st ud
ol om
Ġn iece
ĠD ex
ĠW J
her son
ĠJ ump
Ġcon ced
ĠO R
up a
ĠU TC
Ġex otic
man ship
ĠAl s
ĠY az
orn ings
urn ame
Ġout right
Ġout fit
18 00
ĠInd us
Ġtrans fers
ĠNo ise
Ġposs ibilities
ĠArt icles
Ġcirc us
ĠIr vine
ĠKn own
Ã¤ t
ĠVer lag
Le on
ĠCas ino
Ġmind s
ĠConc ern
ĠErn ie
dr iven
ĠMaj esty
ĠPhot ography
ĠSoph ia
Ġsymm etric
ĠCert ificate
Ġtrig ger
ĠParalymp ics
D a
E arth
L ear
P ale
l v
w ara
at ro
ĠS ears
ad ena
ĠP aint
iv ian
ot ional
ĠI EEE
ĠD uchess
ow ment
est inal
ĠK Ã¶n
ud er
qu el
ĠV A
ĠAl ess
Ġover c
ĠReg ina
Ġair plane
Ġdisc ourse
ĠRep ubl
Ġ11 2
Ġaddition ally
Ġcop ied
ĠFre ed
ĠRom antic
ĠLy ons
Ġple aded
ĠPass ion
ĠArchitect s
ĠRus so
ĠMÃ© xico
---- ----
Ġgamb ling
H all
S n
c ool
g em
Ġs our
Ġb ubble
ĠL oy
ĠL una
Ġst ays
ĠW oll
Ġal ias
ab h
cl ock
aus en
Ġexp ans
Ġ17 89
ai us
ai res
ĠMan ilow
ae an
ĠAng us
Ġred esigned
Ġadminist rators
Ġfunction ality
Ġobserv ing
ĠHow ell
ih ad
iro t
ĠRel ief
ĠEll iot
Ġcarbon ate
William s
Ġimag ination
ĠMaur it
Ġrecru iting
Ġgrav itational
Ġgrap es
ĠKrak Ã³w
L anguage
T ai
b eth
r ush
Ġa z
Ġin duction
Ġb ags
ĠC ic
us ive
ĠR uf
ĠD ust
ĠL akers
ĠF ind
Ġst akes
ik ini
Ġall oy
Ġreg ulate
Ġind ication
Ch ild
af ts
ĠEx odus
Ġsk ier
ĠAct ing
Ġopp ose
Ã³ pez
ĠRes ort
ĠTer esa
Ġdam aging
ĠJud ah
ĠBal let
str Ã¶m
ĠAbb ott
ĠBed e
Ġmor ality
War ner
ĠNapole onic
Univers al
Ġpersu ade
Ġkidn apping
Ġderiv atives
Ġparad ox
ogl ob
ĠDÃ¡ il
ĠCharg ers
F all
T a
W he
c ence
en b
ĠS V
ĠC ris
ĠB uildings
ig ue
ĠThe ology
ĠN ay
ac ial
cl ature
ĠUn ions
man y
Ġ18 13
ĠCol iseum
ĠLe h
inn ey
ced ented
Ġfam ed
Ġpres ided
Ġdown hill
ĠItal ia
Ġgrad ient
ĠCap itals
Ġden ote
Ġceleb rating
ĠHaw ke
ĠAnth ology
organ ic
ĠSultan ate
Ġstret ched
Ġupd ates
ĠLib by
Ġrecru its
Ġprompt ing
ĠSi em
Ġlad der
Ġpreval ence
Ox ford
Ġtraff icking
M U
M arsh
R ah
f ur
m ounted
ĠC L
ĠC ertain
ol m
ig m
ig hed
ĠR iga
ut onium
ĠD ro
Ġst ressed
ks h
cl er
Ġk ern
Ġcl ash
ĠSp ot
ĠIs abella
ĠAm es
Ġcontin ually
Ġshort age
Ġprofess ors
ĠBer ber
ĠMor se
Ġreal ised
ipp ers
Ã¸ nd
AR C
ĠAut umn
ĠGib raltar
ĠGoth am
Ġchlor ine
ĠChen nai
ĠRab bit
Ġcosm ic
Ġansw ered
Play Station
ĠCha os
Ġadvertis ement
Ġmetaph or
Ġlaure ate
Ġtroubl es
Ġdegrad ation
ocalyp se
O D
W all
c am
n ard
Ù İ
re ys
Ġc ites
Ġf ingers
ĠC ain
ĠM eat
Ġas ylum
ĠG ear
Ġal iens
op ping
ond uctor
Ġrec omb
ĠBr ass
Ġsepar ating
Ġproduct ivity
Ġcontrib utes
ĠAp ache
Ġhom age
Ġnetwork ing
Ġdefin ite
Ġsn akes
Ġspect rosc
Ġvot er
ĠPatri ot
Ġcustom ary
ĠMack enzie
ĠFight ers
Ġanalog ous
ĠLot us
Ġrede velopment
educ ational
ĠNass au
Emer gency
ĠKens ington
4 50
B ased
O cc
S af
r er
r usted
he rence
Ġs ou
le ad
Ġh ors
ĠM use
us an
us el
ĠH ector
ĠG ru
Ġst raw
Ġv isc
end en
uc ket
ĠY o
Ġen forced
pe x
ĠZ immer
Ġref ract
ĠSw ans
epend ence
ĠChe rokee
Ġprem ature
John ny
En ter
ĠConfeder acy
Ġsuperv ised
Ġgolf ers
Ġextract ed
lif ting
ĠBritt any
Ġbesie ged
Lith obius
H ig
H ell
M DC
V ari
W olf
Ġs ank
al ach
Ġc os
Ġd rying
ĠT ick
ĠJ ain
ug es
ĠV ishn
ie le
Ġ13 5
ĠAb el
Ġref usal
int roduced
Ġstat utory
ĠPer kins
Ġreal ism
ĠTrans ylvania
ĠTom atoes
Ġapprox imate
Ġdram as
Ġfarm land
ĠFre estyle
Ġpay load
ĠSol id
Ġbra kes
Ġrepro ductive
Ġphysic ists
Ġrig id
ĠFres nel
ĠVenet ian
ĠChrys ler
Ġafore mentioned
K K
S ty
e au
r ines
z ai
Î º
Ð ¹
Ġt ut
Ġc ure
Ġf ederation
et us
et to
ĠN it
Ġwh oles
own s
orn a
ĠAr lington
18 56
Ġsub group
ident al
Ġqu otes
ony ms
Ġland marks
13 5
Ġdeb ates
Ġeconom ies
Ġexpress es
osaur s
ĠAlb u
ĠÅ ģ
Ġdemonst rating
Ġfellow ship
Ġpack aging
Ġfeed s
Ġfr ust
Ġcart ridge
Ġcas ino
Ġstret ching
ĠCarn ival
Ġprovision al
Ġsle eve
Oh io
Ġinequ ality
ĠGue vara
C N
I ss
b ins
i Ã¡n
Ġs we
ro kes
ĠS ok
ĠM au
ĠP az
ĠP esh
ĠR it
ĠJ ura
Ġr ink
ĠCh itt
Ġcl ans
ans ing
ĠDe velop
Ġmar riages
Ġ11 1
Ġ11 6
Ġrest ing
Ġport able
Ġvarious ly
ĠRes ource
Ġcond itional
ĠâĢ ¢
Ġcapt ivity
Ã§ Ã£o
Ġsurround ings
ĠLim its
ĠRod gers
ĠStat us
ening rad
Ġethnic ity
ĠMoh amed
ĠSpart a
Ġaccum ulated
ĠLen in
ĠEthiop ian
Ġrept iles
B F
B P
e ight
Î ¯
Ġt iles
as co
ĠS idd
ĠC oss
Ġre nder
ĠB ologna
ĠP eck
ĠD iplom
ĠL j
ĠE asy
Ġcon ject
ĠU b
ĠSt rip
se ven
ep s
Ġad mits
ĠSh ia
Ġ17 00
ĠSy riac
ĠSec urities
ĠMon sters
Ġview er
Ġphot ographers
ĠGra f
Ġpos itively
ĠHor ace
Inter view
Ġsed iments
Ġfrag ment
ĠEqu ipment
Ġhunt ers
Ġpostp oned
ĠMÄģ ori
ĠJub ilee
Ġjewel ry
F ederal
M innesota
h wa
w ife
Ġt ense
ar rass
Ġp sy
ĠT ort
am ite
ĠH umb
ĠL us
Ġhe redit
Ġpro be
qu ist
uc le
Ġle an
Ġcomp iler
cl ed
Ġ18 16
Ġbut tons
ĠAr r
ob il
Ġunder way
Ġunder gone
oss ibly
Ġcount ing
anc ies
Ġmark ings
omb ie
ĠAnt oine
Ġrecogn izes
ĠCong regation
Ġche cks
ĠMil o
ĠSer ra
Ġmem oirs
Ġrepe aled
gu itar
ĠBh ar
Ġwild erness
ĠFellow s
lock ed
ĠKat ie
Ġshif ts
Ġles bian
ĠBeth lehem
Ġscen ario
Ġnutri ents
ĠMesopotam ia
f u
w aters
Ċ ĠĠĠĠĠĠĠ
ar ist
ch us
ĠP omp
ĠD il
ĠF ees
ĠG und
ĠW ille
op ol
est ro
Ġv iable
Ġv arsity
ak in
ĠSt y
ĠV ert
ran ked
Ġun aware
aw an
ific ent
ĠCar ac
ĠMc P
Ġla und
Ġinf ring
ĠDr ums
Ġcour ty
ĠInc ome
Ġchief ly
pre viously
ĠElect rical
Ġhar bor
ĠHindu ism
ĠMatthew s
Ġsymp athetic
rific ation
Ġdimin ished
Ġunanim ously
Ġcontempor aries
Anth ony
Symph ony
G r
P sych
T ay
c ru
Ġb un
ĠC umm
ĠT ill
ĠT ip
ĠM eng
Ġl av
ĠP oor
ut ive
ĠG aming
ĠW ey
ĠO verseas
ĠK ilm
Ġcont empl
ress ing
Ġ- --
Ġpre view
Ġsong writers
ales e
ĠAfter wards
Ġdet achment
Ġconc ur
Ġpat rons
Ġhalf way
Ġconv inc
ĠCD s
Ġforest ry
ĠYoung er
Ġtable t
Ġrecover ing
Ġrob bery
Ġparallel s
Road s
Ġcryst als
direct or
ĠTyp ically
represent ing
ĠCaled onian
ĠLaf ayette
Ġlineback er
Ġenslav ed
F er
G T
O ct
Ġm ys
ĠM aw
us er
ĠL oh
ĠN il
th alm
end ale
Ġsh aft
pp en
ign y
Ġplay wrights
ĠAl low
inal d
18 47
Ġdef ects
Ġpop ul
Ġem blem
Ġgu ides
Ġele phant
ĠBe ir
Ġprom ises
ĠFl int
ĠEl i
Ġspecial ty
Ġentire ty
Ġopt imal
ĠSer ver
Ġtemper ate
Ġdom est
ĠGal act
Ġtim eline
Christ opher
gest ion
Ġmerc ury
ĠClif ton
Ġculmin ated
Ġtransp arent
ĠSpl it
Ġheredit ary
B enz
T erry
U D
b ler
b ably
c ulture
Ġa ka
Ġh ymn
ĠP avilion
Ġe cho
ĠH ancock
ter a
Ġg land
ĠG E
ĠN W
ag us
oc arp
ĠUn ity
Ġass umes
ĠCl an
ĠOr b
Ġ7 50
yl ene
Ġinst ability
St ory
ĠBe aver
16 0
ĠBr at
ĠEn emy
Ġ0 2
ĠGr ass
Ġmean while
ux ley
Ġgra ins
Ġsat irical
Ġsusp ects
Ġsusp icion
aph ael
Ep isodes
Ġintellect uals
ĠRand all
ĠRhodes ia
Ġculmin ating
ĠCann es
Pakistan i
Ġhab its
Ġbure auc
C ole
r t
Ä Ĺ
is ible
Ġm ast
ĠC annon
ĠP ied
ĠH oy
ay n
ĠG are
Ġpl aster
Ġro wing
Ġcan als
18 48
18 57
ĠSh oot
ĠZ ur
ĠReg ular
Ġnon etheless
arn ock
Ġpriv acy
ĠGroup s
Ġconsist ency
Con nell
ĠLab s
ĠConn or
Ġconver ts
ĠPers p
Ġvac ated
ĠUs ed
ĠNic ola
ĠTrib ute
Phil ipp
Ġoverl ap
Ġcrowd s
Ñģ ÑĤ
Ġaccord ion
ĠSwan sea
Mult i
Ġisot ope
Ġsket ches
ĠHew itt
E nt
I mm
h ang
j ana
w on
ĠS ank
ĠT up
ĠP ond
ĠH att
ĠD iss
ĠThe me
ĠL ucky
ĠN E
em at
ĠW o
and e
ĠK arm
up id
ov sk
Ġle isure
Ġsh ocked
Ġcl ad
ors k
Ġra ced
Ġsup reme
emb ley
ĠMe asures
tain ing
Ġpopular ized
Ġlight weight
ij e
Ġdi aspora
enth al
Ġpra ising
Ġhero ic
Ġharm ful
Elect ric
ĠPier ce
ĠEth ics
ĠEnt ry
Ġexcell ence
Ġru ined
Ġbin omial
Ġhomosexual ity
rews bury
ĠIber ian
ĠLoren zo
Ġinadequ ate
ĠLein ster
D ance
G ar
H ouses
I ra
J ay
L ink
f ax
h yd
en ic
Ġc ache
Ġh iring
ad ar
id ia
ĠL itt
[...]
