{"<s>":0,"<pad>":1,"</s>":2,"<unk>":3,"<mask>":4,"!":5,"\"":6,"#":7,"$":8,"%":9,"&":10,"'":11,"(":12,")":13,"*":14,"+":15,",":16,"-":17,".":18,"/":19,"0":20,"1":21,"2":22,"3":23,"4":24,"5":25,"6":26,"7":27,"8":28,"9":29,":":30,";":31,"<":32,"=":33,">":34,"?":35,"@":36,"A":37,"B":38,"C":39,"D":40,"E":41,"F":42,"G":43,"H":44,"I":45,"J":46,"K":47,"L":48,"M":49,"N":50,"O":51,"P":52,"Q":53,"R":54,"S":55,"T":56,"U":57,"V":58,"W":59,"X":60,"Y":61,"Z":62,"[":63,"\\":64,"]":65,"^":66,"_":67,"`":68,"a":69,"b":70,"c":71,"d":72,"e":73,"f":74,"g":75,"h":76,"i":77,"j":78,"k":79,"l":80,"m":81,"n":82,"o":83,"p":84,"q":85,"r":86,"s":87,"t":88,"u":89,"v":90,"w":91,"x":92,"y":93,"z":94,"{":95,"|":96,"}":97,"~":98,"¡":99,"¢":100,"£":101,"¤":102,"¥":103,"¦":104,"§":105,"¨":106,"©":107,"ª":108,"«":109,"¬":110,"®":111,"¯":112,"°":113,"±":114,"²":115,"³":116,"´":117,"µ":118,"¶":119,"·":120,"¸":121,"¹":122,"º":123,"»":124,"¼":125,"½":126,"¾":127,"¿":128,"À":129,"Á":130,"Â":131,"Ã":132,"Ä":133,"Å":134,"Æ":135,"Ç":136,"È":137,"É":138,"Ê":139,"Ë":140,"Ì":141,"Í":142,"Î":143,"Ï":144,"Ð":145,"Ñ":146,"Ò":147,"Ó":148,"Ô":149,"Õ":150,"Ö":151,"×":152,"Ø":153,"Ù":154,"Ú":155,"Û":156,"Ü":157,"Ý":158,"Þ":159,"ß":160,"à":161,"á":162,"â":163,"ã":164,"ä":165,"å":166,"æ":167,"ç":168,"è":169,"é":170,"ê":171,"ë":172,"ì":173,"í":174,"î":175,"ï":176,"ð":177,"ñ":178,"ò":179,"ó":180,"ô":181,"õ":182,"ö":183,"÷":184,"ø":185,"ù":186,"ú":187,"û":188,"ü":189,"ý":190,"þ":191,"ÿ":192,"Ā":193,"ā":194,"Ă":195,"ă":196,"Ą":197,"ą":198,"Ć":199,"ć":200,"Ĉ":201,"ĉ":202,"Ċ":203,"ċ":204,"Č":205,"č":206,"Ď":207,"ď":208,"Đ":209,"đ":210,"Ē":211,"ē":212,"Ĕ":213,"ĕ":214,"Ė":215,"ė":216,"Ę":217,"ę":218,"Ě":219,"ě":220,"Ĝ":221,"ĝ":222,"Ğ":223,"ğ":224,"Ġ":225,"ġ":226,"Ģ":227,"ģ":228,"Ĥ":229,"ĥ":230,"Ħ":231,"ħ":232,"Ĩ":233,"ĩ":234,"Ī":235,"ī":236,"Ĭ":237,"ĭ":238,"Į":239,"į":240,"İ":241,"ı":242,"Ĳ":243,"ĳ":244,"Ĵ":245,"ĵ":246,"Ķ":247,"ķ":248,"ĸ":249,"Ĺ":250,"ĺ":251,"Ļ":252,"ļ":253,"Ľ":254,"ľ":255,"Ŀ":256,"ŀ":257,"Ł":258,"ł":259,"Ń":260,"Ġt":261,"he":262,"Ġa":263,"in":264,"er":265,"on":266,"Ġthe":267,"re":268,"an":269,"Ġo":270,"at":271,"en":272,"ed":273,"Ġs":274,"or":275,"is":276,"al":277,"es":278,"Ġw":279,"it":280,"ar":281,"Ġof":282,"nd":283,"Ġc":284,"Ġin":285,"Ġf":286,"Ġb":287,"ic":288,"Ġp":289,"as":290,"ing":291,"Ġand":292,"ion":293,"ro":294,"le":295,"Ġto":296,"Ġm":297,"ĠS":298,"Ġd":299,"ou":300,"ĠA":301,"ĠC":302,"ent":303,"il":304,"Ġh":305,"ĠT":306,"Ġ1":307,"st":308,"om":309,"el":310,"Ġ(":311,"am":312,"ol":313,"Ġre":314,"ĠM":315,"ct":316,"ĠB":317,"Ġl":318,"ad":319,"ur":320,"et":321,"Ġn":322,"ch":323,"ation":324,"ĠP":325,"iv":326,"Ġth":327,"Ġe":328,"ers":329,"Ġ2":330,"ig":331,"us":332,"ly":333,"id":334,"ĠH":335,"ot":336,"ĠI":337,"ir":338,"Ġwas":339,"ce":340,"im":341,"Ġfor":342,"ĠR":343,"Ġon":344,"Ġ19":345,"ay":346,"ter":347,"Ġis":348,"Ġg":349,"ut":350,"ĠD":351,"Ġas":352,"ĠThe":353,"ow":354,"ra":355,"ĠL":356,"ist":357,"ĠF":358,"ith":359,"Ġbe":360,"un":361,"ĠG":362,"00":363,"ĠN":364,"em":365,"Ġst":366,"ul":367,"th":368,"ĠW":369,"her":370,"and":371,"Ġwith":372,"Ġby":373,"âĢ":374,"Ġal":375,"ĠE":376,"um":377,"os":378,"ag":379,"ver":380,"ĠJ":381,"'s":382,"rom":383,"ac":384,"op":385,"Ġan":386,"Ġcon":387,"est":388,"Ġwh":389,"ri":390,"Ġat":391,"âĢĵ":392,"ĠO":393,"od":394,"Ġthat":395,"Ġfrom":396,"oc":397,"Ġv":398,"Ġ\"":399,"ian":400,"ec":401,"ab":402,"av":403,"ain":404,"ies":405,"Ġhe":406,"ity":407,"Ġpro":408,"all":409,"res":410,"if":411,"Ġcom":412,"ĠK":413,"ate":414,"Ġit":415,"up":416,"art":417,"ew":418,"ort":419,"ia":420,"ĠU":421,"ill":422,"ber":423,"ud":424,"ard":425,"Ġde":426,"Ġor":427,"igh":428,"ub":429,"ich":430,"Ġ200":431,"ak":432,"ĠSt":433,"19":434,"ap":435,"ment":436,"ore":437,"ld":438,"Ġare":439,"ip":440,"Ġpl":441,"qu":442,"ear":443,"ant":444,"Ġhis":445,"ess":446,"ated":447,"ish":448,"Ġr":449,"The":450,"ĠIn":451,"ov":452,"Ġex":453,"ive":454,"ary":455,"ial":456,"ge":457,"Ġ20":458,"nt":459,"end":460,"mer":461,"Ġse":462,"og":463,"ĠCh":464,"Ġch":465,"ug":466,"our":467,"ast":468,"se":469,"ong":470,"ere":471,"ine":472,"ell":473,"ust":474,"ĠV":475,"und":476,"ction":477,"ame":478,"ord":479,"ks":480,"ical":481,"uc":482,"so":483,"ure":484,"ost":485,"ĠâĢĵ":486,"fer":487,"Ġwere":488,"ran":489,"),":490,"Ġwhich":491,"Ġle":492,"ire":493,"ep":494,"Ġsp":495,"ther":496,"ect":497,"ight":498,"ue":499,"Ġalso":500,"tern":501,"rit":502,"Ġcomp":503,"ie":504,"Ġsh":505,"pp":506,"ry":507,"ces":508,"are":509,"ff":510,"cl":511,"Ġy":512,"Ġk":513,"ous":514,"ĠUn":515,"ations":516,"ass":517,"ition":518,"ign":519,"ric":520,"Ġun":521,"ĠĊ":522,"Ġ201":523,"Ġus":524,"ĠHe":525,"Ġnot":526,"man":527,"ave":528,"irst":529,"age":530,"Ġar":531,"ide":532,"Ġ199":533,"land":534,"iz":535,"ts":536,"ack":537,"Ġcl":538,"Ġhad":539,"ory":540,"per":541,"ome":542,"Ġhas":543,"ond":544,"Ġplay":545,"ount":546,"erv":547,"Ġcont":548,"hed":549,"Ġint":550,"ork":551,"ang":552,"ng":553,"port":554,"Ġte":555,"ater":556,"Ġres":557,"ican":558,"Ġwhe":559,"own":560,"Ġ3":561,"ational":562,"Ġfirst":563,"ok":564,"ice":565,"fter":566,"ib":567,"ence":568,"Ġits":569,"ult":570,"ĠAl":571,"ĠY":572,"Ġ18":573,"amp":574,"ach":575,"ey":576,"Ġad":577,"Ġro":578,"ĠTh":579,"te":580,"ions":581,"Ġtheir":582,"ree":583,"wo":584,"In":585,"Ġpart":586,"ph":587,"ens":588,"ime":589,"ĠIt":590,"ates":591,"orn":592,").":593,"Ġab":594,"pt":595,"Ġac":596,"eg":597,"pl":598,"ound":599,"ru":600,"Ġbut":601,"ool":602,"ally":603,"ited":604,"out":605,"clud":606,"Ġhave":607,"Ġwho":608,"ĠAr":609,"over":610,"merican":611,"ark":612,"Ġone":613,"low":614,"Ġj":615,"ik":616,"ould":617,"Ġapp":618,"ors":619,"act":620,"ace":621,"aw":622,"Ġman":623,"ugh":624,"20":625,"Ġper":626,"Ġyear":627,"ath":628,"ite":629,"ubl":630,"ile":631,"ents":632,"ild":633,"Ġrec":634,"les":635,"Ġthis":636,"Ġbec":637,"for":638,"ress":639,"Ġinclud":640,"Ġdis":641,"ee":642,"uring":643,"wn":644,"ivers":645,"Ġother":646,"Ġag":647,"uch":648,"ade":649,"ilm":650,"Ġ198":651,"ences":652,"Ġen":653,"gh":654,"Ġtwo":655,"Ġsc":656,"Ġbeen":657,"vel":658,"ons":659,"chool":660,"ĠNew":661,"old":662,"able":663,"eb":664,"ob":665,"ely":666,"ased":667,"oy":668,"Ġher":669,"Ġim":670,"eop":671,"ember":672,"Ġ4":673,"oin":674,"iss":675,"ind":676,"ail":677,"Ġdes":678,"ss":679,"ied":680,"ings":681,"ĠMar":682,"als":683,"Ġcomm":684,"we":685,"red":686,"ward":687,"io":688,"Ġ-":689,"ics":690,"Ġafter":691,"urn":692,"ĠĠ":693,"eople":694,"ted":695,"Re":696,"ĠCom":697,"pe":698,"ance":699,"hip":700,"oot":701,"ury":702,"ood":703,"orld":704,"Ġ197":705,"way":706,"Ġover":707,"Ġcan":708,"ron":709,"ough":710,"ĠAmerican":711,"Ġinto":712,"Ġnew":713,"ral":714,"Ġthey":715,"ft":716,"Ġup":717,"ferences":718,"ans":719,"Ġall":720,"ase":721,"ton":722,"Ġev":723,"Ġ5":724,"outh":725,"ished":726,"Ġoff":727,"ah":728,"Ġout":729,"ne":730,"reat":731,"du":732,"Âł":733,"Ġra":734,"Ġgro":735,"ram":736,"lect":737,"ision":738,"olog":739,"oh":740,"rans":741,"ball":742,"gan":743,"ex":744,"Ġtra":745,"Ġact":746,"200":747,"ren":748,"Ġpre":749,"der":750,"Ġund":751,"rough":752,"Ġfilm":753,"ock":754,"Ġatt":755,"duc":756,"References":757,"one":758,"Ġcol":759,"rib":760,"ose":761,"ious":762,"cess":763,"Ġcons":764,"Ġtime":765,"ames":766,"Ġserv":767,"inal":768,"ĠDe":769,"orth":770,"ever":771,"Ġcent":772,"Ġlin":773,"18":774,"ict":775,"ĠCol":776,"Ġkn":777,"Ġbet":778,"Ġreg":779,"che":780,"ĠLe":781,"ener":782,"Ġform":783,"Ġloc":784,"ins":785,"Ġ196":786,"ists":787,"iversity":788,"Ġmore":789,"ick":790,"ĠSh":791,"Ġpol":792,"ake":793,"ities":794,"Ġunder":795,"Ġwork":796,"form":797,"Ġsec":798,"ular":799,"Ġco":800,"ix":801,"ince":802,"Ġmost":803,"Ġwhen":804,"oth":805,"ĠUnited":806,"att":807,"ween":808,"Ġwould":809,"Ġpr":810,"Ġsy":811,"Ġbu":812,"Ġhim":813,"Ġind":814,"Ġused":815,"rad":816,"aus":817,"ale":818,"az":819,"Ġrel":820,"Ġonly":821,"ason":822,"ĠPro":823,"iel":824,"cent":825,"Ġme":826,"Ġ6":827,"lish":828,"ll":829,"ĠSp":830,"ual":831,"ollow":832,"Ġest":833,"Ġass":834,"Ġsub":835,"Ġpubl":836,"aj":837,"Ex":838,"Ġsup":839,"ife":840,"Ġbetween":841,"ann":842,"Ġpeople":843,"oun":844,"ĠZ":845,"Ġyears":846,"ĠEng":847,"ĠAn":848,"Ġduring":849,"ĠCon":850,"Ġshe":851,"ident":852,"ĠSc":853,"eat":854,"Ġsuch":855,"overn":856,"emb":857,"ternal":858,"iet":859,"ĠInd":860,"ily":861,"inn":862,"Ġbo":863,"ced":864,"Ġear":865,"ier":866,"Ġret":867,"ck":868,"ism":869,"Ġinter":870,"Ġwhere":871,"Ġstud":872,"ative":873,"ific":874,"Ġnum":875,"usic":876,"Ġagain":877,"Ġqu":878,"ten":879,"ĠCl":880,"ĠOr":881,"Ġdec":882,"Ġfound":883,"Ġthrough":884,"Ġrem":885,"eries":886,"ĠThis":887,"ĠUniversity":888,"bum":889,"ating":890,"Ġso":891,"ev":892,"Ġthan":893,"erm":894,"ootball":895,"erman":896,"ars":897,"Ġteam":898,"Ġabout":899,"Ġthere":900,"resent":901,"any":902,"Ġam":903,"Ġthem":904,"\".":905,"Ġtrans":906,"fore":907,"Ġthree":908,"round":909,"Ġ7":910,"ern":911,"Ġlinks":912,"ley":913,"Ġsome":914,"air":915,"arg":916,"istory":917,"raph":918,"cc":919,"Ġdist":920,"hen":921,"Ġ194":922,"ohn":923,"\",":924,"Ã©":925,"Ġdef":926,"Ġpop":927,"Ġ195":928,"Ġrele":929,"External":930,"ash":931,"Ġlater":932,"Ġfollow":933,"Ġend":934,"Ġknown":935,"ĠBrit":936,"Ġspec":937,"Ġprov":938,"Ġthen":939,"oss":940,"pr":941,"Ġschool":942,"Ġph":943,"irect":944,"velop":945,"ject":946,"ober":947,"Ġmov":948,"ower":949,"Ġed":950,"ures":951,"Ġset":952,"ments":953,"ĠStates":954,"ague":955,"iver":956,"enn":957,"199":958,"Ġcall":959,"stem":960,"Ġwrit":961,"||":962,"Ġsing":963,"ield":964,"ert":965,"els":966,"ional":967,"Ġinv":968,"Ġmade":969,"iam":970,"Ġalbum":971,"mp":972,"uro":973,"ĠAs":974,"ank":975,"erson":976,".\"":977,"its":978,"pen":979,"ĠAust":980,"Ġent":981,"ike":982,"ĠIs":983,"ement":984,"Ġsecond":985,"Ġrecord":986,"ĠCan":987,"Ġbecame":988,"Ġ8":989,"Ġart":990,"Ġbeing":991,"ĠBl":992,"ise":993,"Ġfl":994,"Ġbl":995,"ouse":996,"Ġexp":997,"Ġmod":998,"eth":999,"Ġmon":1000,"ina":1001,"Ġdo":1002,"ĠWorld":1003,"Ġ17":1004,"ines":1005,"uss":1006,"ived":1007,"Ġinc":1008,"Ġwell":1009,"Ġacc":1010,"Ġmany":1011,"ĠWar":1012,"ve":1013,"ays":1014,"Ġestab":1015,"lev":1016,"iew":1017,"Ġmay":1018,"ĠJohn":1019,"Ġcount":1020,"very":1021,"stit":1022,"owever":1023,"cy":1024,"urch":1025,"ution":1026,"ĠAt":1027,"ium":1028,"000":1029,"Ġgroup":1030,"ax":1031,"Ġ10":1032,"Ġincluding":1033,"ĠFran":1034,"other":1035,"ĠGerman":1036,"ĠQ":1037,"ograph":1038,"ĠComm":1039,"ont":1040,"arl":1041,"ys":1042,"ctions":1043,"rist":1044,"Ġorig":1045,"Ġseason":1046,"ĠFor":1047,"Ġlead":1048,"Ġ9":1049,"ĠNo":1050,"Ġfour":1051,"Ġadd":1052,"ians":1053,"Ġ2006":1054,"ural":1055,"Ġchar":1056,"rid":1057,"Ġfam":1058,"Ġwhile":1059,"Ġno":1060,"Ġhigh":1061,"ĠAd":1062,"ues":1063,"ute":1064,"ĊĊ":1065,"til":1066,"Ġmed":1067,"Ġsur":1068,"Ġdevelop":1069,"Ġseries":1070,"elf":1071,"Ġ15":1072,"rict":1073,"let":1074,"Ġsign":1075,"ĠSchool":1076,"ract":1077,"Ġoper":1078,"Ġdif":1079,"Ġmain":1080,"ternational":1081,"ired":1082,"ĠPh":1083,"ĠNational":1084,"Ġ16":1085,"Ġboth":1086,"Ġnumber":1087,"led":1088,"Ġown":1089,"son":1090,"une":1091,"iving":1092,"ept":1093,"cept":1094,"ather":1095,"Ġsystem":1096,"ĠBritish":1097,"ient":1098,"ty":1099,"Ġbefore":1100,"uth":1101,"Ġname":1102,"by":1103,"ĠCount":1104,"Ġgener":1105,"Ġbro":1106,"Ġgovern":1107,"ized":1108,"gram":1109,"Ġrep":1110,"my":1111,"Ġshow":1112,"Ġcar":1113,"Ġ193":1114,"ird":1115,"ually":1116,"Ġagainst":1117,"sp":1118,"Ġdirect":1119,"Ġmin":1120,"amed":1121,"Ġuntil":1122,"Ġvar":1123,"Ġem":1124,"ott":1125,"ĠSouth":1126,"Ġcap":1127,"ology":1128,"ĠReg":1129,"ĠOn":1130,"imes":1131,"ants":1132,"hes":1133,"Ġ.":1134,"Ġext":1135,"ĠShe":1136,"Ġsever":1137,"ull":1138,"ĠJan":1139,"ai":1140,"oci":1141,"21":1142,"ajor":1143,"Ġplayers":1144,"Ġsong":1145,"ause":1146,"au":1147,"ered":1148,"Ġgu":1149,"Ġback":1150,"ĠPl":1151,"Ġfootball":1152,"ĠYork":1153,"ives":1154,"Ġsm":1155,"ved":1156,"eng":1157,"Ġcre":1158,"Ġob":1159,"Ġfin":1160,"Ġuse":1161,"ĠMay":1162,"Ġcalled":1163,"ĠAustral":1164,"ke":1165,"duced":1166,"ained":1167,"Ġ||":1168,"Ġarea":1169,"aid":1170,"ages":1171,"Ġmusic":1172,"lege":1173,"Ġoffic":1174,"Ġne":1175,"Ġpolit":1176,"Ġprodu":1177,"201":1178,"ared":1179,"Ġ&":1180,"ĠCanad":1181,"ross":1182,"Ġbas":1183,"ible":1184,"arm":1185,"ister":1186,"ĠEuro":1187,"ulation":1188,"rand":1189,"ths":1190,"Ġdesign":1191,"ruct":1192,"ica":1193,"Ġformer":1194,"Ġbuild":1195,"oman":1196,"osed":1197,"icip":1198,"198":1199,"ior":1200,"ility":1201,"ris":1202,"Ġstate":1203,"the":1204,"Ġdeath":1205,"fl":1206,"uary":1207,"embers":1208,"ĠCent":1209,"ĠAm":1210,"ampions":1211,"vent":1212,"ting":1213,"ets":1214,"Ġthese":1215,"Ġfeat":1216,"ful":1217,"ĠNorth":1218,"ially":1219,"Ġlong":1220,"Ġdep":1221,"ene":1222,"ugust":1223,"Ġgame":1224,"yl":1225,"inc":1226,"Ġdr":1227,"Ġopen":1228,"Ġcontin":1229,"ĠWh":1230,"Ġinst":1231,"ange":1232,"omen":1233,"Ġimp":1234,"Ġgo":1235,"Ġearly":1236,"ĠMan":1237,"con":1238,"ission":1239,"Ġrun":1240,"Ġseveral":1241,"born":1242,"Ġsame":1243,"ically":1244,"âĢĶ":1245,"ring":1246,"ital":1247,"ret":1248,"osition":1249,"ices":1250,"Ġair":1251,"Ġ12":1252,"ook":1253,"ĠII":1254,"isc":1255,"angu":1256,"Ġany":1257,"eter":1258,"ĠGe":1259,"Ġsuc":1260,"istor":1261,"ĠJu":1262,"Ġbel":1263,"aking":1264,"ĠTe":1265,"ony":1266,"ĠBro":1267,"ove":1268,"ĠKing":1269,"Ġprogram":1270,"Ġeff":1271,"ĠEurope":1272,"Ġreleased":1273,"ae":1274,"ĠAss":1275,"Ġ'":1276,"ains":1277,"Ġcentury":1278,"Ġwill":1279,"rent":1280,"Ġcare":1281,"rop":1282,"Ġdisc":1283,"ven":1284,"ĠNov":1285,"levision":1286,"Ġstation":1287,"Ġann":1288,"Ġsim":1289,"ĠCity":1290,"ĠCar":1291,"wards":1292,"Ġcharact":1293,"ĠEnglish":1294,"por":1295,"eptember":1296,"Ġplayed":1297,"ĠMarch":1298,"Ġlife":1299,"ctober":1300,"Ġpublic":1301,"Ġsince":1302,"Ġcur":1303,"ner":1304,"ĠPr":1305,"ĠBar":1306,"oint":1307,"17":1308,"Ġelect":1309,"ĠRe":1310,"ĠCal":1311,"ĠLeague":1312,"Ġcity":1313,"Ġorgan":1314,"Ġstart":1315,"amb":1316,"ilt":1317,"Ch":1318,"ĠChrist":1319,"ided":1320,"ĠAugust":1321,"af":1322,"ster":1323,"ĠAf":1324,"Ġ2005":1325,"ox":1326,"chn":1327,"Ġnear":1328,"ĠCounty":1329,"mber":1330,"ilit":1331,"Ġwon":1332,"lished":1333,"ued":1334,"St":1335,"Ġmar":1336,"Ġpres":1337,"Ġreturn":1338,"anc":1339,"Ġrece":1340,"lex":1341,"Ġele":1342,"ĠAll":1343,"See":1344,"fess":1345,"197":1346,"ĠGu":1347,"orm":1348,"Ġmat":1349,"Ġwe":1350,"Ġsupport":1351,"ĠEd":1352,"Ġresp":1353,"ator":1354,"10":1355,"sh":1356,"ured":1357,"ales":1358,"pril":1359,"ĠBe":1360,"com":1361,"Ġocc":1362,"Ġbir":1363,"ĠThey":1364,"ling":1365,"Ġdesc":1366,"ised":1367,"yn":1368,"cember":1369,"min":1370,"ham":1371,"ĊĠ":1372,"Ġcommun":1373,"American":1374,"Ġhead":1375,"Ġsmall":1376,"ended":1377,"Ġfollowing":1378,"ĠJanuary":1379,"ried":1380,"ience":1381,"ane":1382,"ode":1383,"Ġ14":1384,"ality":1385,"ble":1386,"Ġmajor":1387,"Ġpass":1388,"Ġworld":1389,"ĠPol":1390,"Ġland":1391,"Ġeach":1392,"Ġclass":1393,"yp":1394,"Ġband":1395,"Ġdiffer":1396,"ze":1397,"Ġterm":1398,"Ġmet":1399,"Ġ13":1400,"Ġtown":1401,"illion":1402,"Ġgovernment":1403,"alth":1404,"Ġbased":1405,"ĠSeptember":1406,"Ġalong":1407,"Ġtr":1408,"tle":1409,"ights":1410,"ography":1411,"Ġbegan":1412,"22":1413,"ĠOctober":1414,"ĠUS":1415,"Ã¡":1416,"Ġvers":1417,"rench":1418,"reen":1419,"hem":1420,"ined":1421,"On":1422,"Ġgames":1423,"ĠJune":1424,"century":1425,"row":1426,"ĠRep":1427,"Ġfamily":1428,"Ġ2000":1429,"arge":1430,"ords":1431,"Ġmembers":1432,"ival":1433,"Ġlaw":1434,"Ġchild":1435,"Ġdid":1436,"gy":1437,"aving":1438,"Ġcould":1439,"ĠJuly":1440,"apan":1441,"Ġplace":1442,"to":1443,"ĠWill":1444,"Ġrev":1445,"ampionship":1446,"ĠWest":1447,"ĠEx":1448,"ĠState":1449,"ĠSe":1450,"Ġ2004":1451,"Ġclub":1452,"Ġ11":1453,"atic":1454,"ket":1455,"Ġestablished":1456,"ung":1457,"ebru":1458,"ebruary":1459,"Ġprom":1460,"..":1461,"ĠCo":1462,"Ġeng":1463,"ĠApril":1464,"orks":1465,"Ġappear":1466,"Ġstr":1467,"aced":1468,"ature":1469,"ĠDecember":1470,"iety":1471,"Ġnamed":1472,"aster":1473,"ats":1474,"ese":1475,"ĠAb":1476,"Ġsuccess":1477,"rol":1478,"ille":1479,"ides":1480,"ĠHowever":1481,"ards":1482,"side":1483,"ĠNovember":1484,"Ġplayer":1485,"Ġconst":1486,"ĠOrder":1487,"ĠAfter":1488,"Ġtit":1489,"que":1490,"uck":1491,"ĠAnd":1492,"Ġaround":1493,"Ġref":1494,"ĠHigh":1495,"iod":1496,"Ġnow":1497,"Ġperson":1498,"ĠĠĠĠ":1499,"Ġpar":1500,"rew":1501,"uthor":1502,"Ġyou":1503,"though":1504,"rem":1505,"use":1506,"ple":1507,"ĠMc":1508,"ĠFl":1509,"16":1510,"estern":1511,"ĠCollege":1512,"ĠHar":1513,"ified":1514,"Ġconsid":1515,"ivision":1516,"15":1517,"Ġhome":1518,"Ġsingle":1519,"Ġwar":1520,"ĠMin":1521,"ery":1522,"Ġleg":1523,"ration":1524,"med":1525,"iness":1526,"ĠGeor":1527,"Ġ2003":1528,"idd":1529,"Ġbus":1530,"earch":1531,"sc":1532,"ĠRec":1533,"196":1534,"Ġlocal":1535,"Ġlist":1536,"oad":1537,"ford":1538,"Ġep":1539,"Ġbecause":1540,"lymp":1541,"ording":1542,"Ġ2007":1543,"Ġmanag":1544,"Ġlarg":1545,"Ã¼":1546,"ĠĊĠĊ":1547,"aur":1548,"urg":1549,"ately":1550,"ries":1551,"Ġrest":1552,"augh":1553,"Ġdue":1554,"ald":1555,"ourn":1556,"ounc":1557,"ently":1558,"omin":1559,"ĠFebruary":1560,"Ġlast":1561,"adem":1562,"Ġpo":1563,"Ġnational":1564,"Ġcareer":1565,"ĠHis":1566,"ĠFrench":1567,"ĠComp":1568,"Ġheld":1569,"ively":1570,"ata":1571,"Ġlarge":1572,"Ġcompet":1573,"Ġinclude":1574,"ourt":1575,"aim":1576,"Ġ2001":1577,"Ġpopulation":1578,"Ġtelevision":1579,"Ġsk":1580,"Ġrequ":1581,"ĠPart":1582,"uk":1583,"Ġpower":1584,"Ġline":1585,"yle":1586,"Ġold":1587,"uman":1588,"ublic":1589,"Ġlocated":1590,"ĠPar":1591,"ffic":1592,"ĠJapan":1593,"Ġrefer":1594,"ization":1595,"ches":1596,"Ġallow":1597,"ĠSy":1598,"ged":1599,"ridge":1600,"Ġsoc":1601,"Ġsl":1602,"Ġdet":1603,"ondon":1604,"ĠAir":1605,"Al":1606,"Ġstand":1607,"ĠAng":1608,"Ġmen":1609,"day":1610,"Ġresult":1611,"ored":1612,"umb":1613,"23":1614,"Ġvill":1615,"13":1616,"ĠSw":1617,"Ġorder":1618,"Ġ,":1619,"Ġdifferent":1620,"iven":1621,"Ġbuilt":1622,"attle":1623,"ilitary":1624,"conom":1625,"Ġappro":1626,"Ġtook":1627,"Ġif":1628,"ĠPark":1629,"ĠAfric":1630,"Ġhistory":1631,"Ġoften":1632,"Ġleft":1633,"Ġcompany":1634,"vers":1635,"ĠDav":1636,"aul":1637,"Ġpresent":1638,"ody":1639,"ext":1640,"oph":1641,"eder":1642,"ison":1643,"ink":1644,"hern":1645,"Ġreport":1646,"Ġmark":1647,"Ġhel":1648,"Ġpublished":1649,"ĠSec":1650,"Ġwithin":1651,"anguage":1652,"dom":1653,"ana":1654,"ĠEl":1655,"Ġshort":1656,"Ġlit":1657,"12":1658,"oo":1659,"Ġ2008":1660,"Ġfilms":1661,"Ġmember":1662,"Ġtrad":1663,"Ġevent":1664,"Ġdown":1665,"line":1666,"akes":1667,"ief":1668,"urther":1669,"ness":1670,"par":1671,"raft":1672,"Ġincre":1673,"Ġperiod":1674,"Ġ2010":1675,"Ġcamp":1676,"ped":1677,"ler":1678,"Th":1679,"Ġnorth":1680,"ĠBr":1681,"ĠRuss":1682,"ĠAct":1683,"ĠHer":1684,"uf":1685,"ĠCup":1686,"Ġrepl":1687,"orthern":1688,"reet":1689,"itional":1690,"ĠLondon":1691,"ĠX":1692,"ument":1693,"adio":1694,"Ġlike":1695,"50":1696,"ves":1697,"Ġ1999":1698,"ington":1699,"Ġincluded":1700,"Ġcountry":1701,"Ġav":1702,"alk":1703,"Ġequ":1704,"Ġcharacter":1705,"Ġfinal":1706,"Ġfive":1707,"Ġdescrib":1708,"oon":1709,"Ġdem":1710,"Ġcor":1711,"unicip":1712,"Ġstill":1713,"ĠMed":1714,"Ġsix":1715,"ps":1716,"ected":1717,"Ġ2002":1718,"ĠSoc":1719,"Ġday":1720,"Ġeduc":1721,"lin":1722,"14":1723,"ency":1724,"ideo":1725,"tt":1726,"Ġoriginal":1727,"ĠWilliam":1728,"Ġwater":1729,"omb":1730,"Ġnon":1731,"ms":1732,"Ġcommon":1733,"ĠThere":1734,"oll":1735,"Ġthough":1736,"Ġ$":1737,"esp":1738,"Ġ2009":1739,"epend":1740,"ociation":1741,"Ġsaid":1742,"Ġvery":1743,"lands":1744,"ĠMe":1745,"Ġcult":1746,"Ġadv":1747,"ino":1748,"ĠSup":1749,"ones":1750,"Ġcomple":1751,"Ġjust":1752,"inning":1753,"Ġbirths":1754,"ĠEn":1755,"ning":1756,"ĠTr":1757,"ouncil":1758,"ara":1759,"aces":1760,"ius":1761,"int":1762,"sk":1763,"He":1764,"ĠItal":1765,"ilar":1766,"Ġtop":1767,"ĠCor":1768,"Ġ2011":1769,"Ġanother":1770,"itions":1771,"Ġeven":1772,"vious":1773,"Ġimport":1774,"Ġamong":1775,"eal":1776,"Ġbook":1777,"ether":1778,"ĠAg":1779,"Ġjoin":1780,"Ġthose":1781,"Ġ190":1782,"Ġthird":1783,"Ġled":1784,"ĠPhil":1785,"Ġeffect":1786,"Ġserved":1787,"Ġkill":1788,"ĠOlymp":1789,"Ġcurrent":1790,"Ġopp":1791,"ĠCanada":1792,"ĠEngland":1793,"Ġauthor":1794,"Ġposs":1795,"iforn":1796,"tal":1797,"cast":1798,"urs":1799,"ruction":1800,"Ġval":1801,"Ġvis":1802,"Ġhand":1803,"Ġsouth":1804,"ulations":1805,"rest":1806,"Ġwomen":1807,"Ġdeb":1808,"ugg":1809,"Ġ30":1810,"Ġrepresent":1811,"Ġorigin":1812,"Ġreceived":1813,"History":1814,"ĠGl":1815,"Ġbuilding":1816,"ases":1817,"tain":1818,"ĠChurch":1819,"Ġarch":1820,"ĠDist":1821,"olution":1822,"Ġexamp":1823,"Ġprofess":1824,"Ġ1998":1825,"alt":1826,"uted":1827,"alf":1828,"Ġservice":1829,"Ġ192":1830,"Ġstat":1831,"ifornia":1832,"ĠInternational":1833,"Ġaff":1834,"Ġcr":1835,"Ġcrit":1836,"na":1837,"ering":1838,"ize":1839,".,":1840,"ops":1841,"Ġexper":1842,"ĠEast":1843,"aint":1844,"Ġsold":1845,"Ġiss":1846,"Ġfield":1847,"ories":1848,"Ġla":1849,"Ġport":1850,"omet":1851,"eneral":1852,"ĠAc":1853,"Ġread":1854,"Ġperform":1855,"ĠMich":1856,"read":1857,"ĠMon":1858,"Ġlevel":1859,"eek":1860,"ef":1861,"Ġlate":1862,"ĠSch":1863,"ĠRiver":1864,"Ġmuch":1865,"Ġprocess":1866,"Ġexpl":1867,"rain":1868,"ole":1869,"ĠAustralia":1870,"bert":1871,"work":1872,"Ġversion":1873,"Ġbeg":1874,"Ġposition":1875,"itar":1876,"ript":1877,"astern":1878,"Ġborn":1879,"Ġtechn":1880,"riend":1881,"umn":1882,"194":1883,"Ġhistor":1884,"ĠCalifornia":1885,"ĠIndian":1886,"olic":1887,"Ġfac":1888,"reg":1889,"Ġconc":1890,"ense":1891,"Ġ2012":1892,"ym":1893,"Ġfore":1894,"Ġant":1895,"ours":1896,"Ġfun":1897,"Ġfre":1898,"ĠSan":1899,"oyal":1900,"Ġdied":1901,"osp":1902,"ĠBer":1903,"Ġchang":1904,"Ġepis":1905,"ummer":1906,"Ġmag":1907,"Ġpost":1908,"Ġpat":1909,"Ġwhat":1910,"ĠChampionship":1911,"Ġson":1912,"ivil":1913,"Ġ25":1914,"Ġchildren":1915,"ander":1916,"âĢĻ":1917,"Ġmake":1918,"ges":1919,"ael":1920,"Ġactiv":1921,"ĠArt":1922,"Ġestablish":1923,"Ġbest":1924,"ĠAmer":1925,"Ġusing":1926,"ploy":1927,"Ġsit":1928,"Ġproduced":1929,"ÃŃ":1930,"roup":1931,"Ġinvol":1932,"lection":1933,"ĠNor":1934,"ĠPres":1935,"of":1936,"formation":1937,"Ġpartic":1938,"Ġ189":1939,"Ġturn":1940,"Ġwin":1941,"irc":1942,"Ġ0":1943,"ka":1944,"Ġprot":1945,"Ġpopular":1946,"ĠHouse":1947,"195":1948,"Ġcame":1949,"Ġfact":1950,"flu":1951,"bo":1952,"co":1953,"Ġcover":1954,"Ġmillion":1955,"Ã¶":1956,"Ġnov":1957,"ĠYou":1958,"BC":1959,"Ġvarious":1960,"reek":1961,"Ġbecome":1962,"ĠRoman":1963,"Ġrail":1964,"aff":1965,"eh":1966,"ched":1967,"Ġ24":1968,"Ġprop":1969,"ĠAnt":1970,"Ġside":1971,"ĠBy":1972,"lear":1973,"ama":1974,"eed":1975,"Ġmoved":1976,"thern":1977,"Ġrole":1978,"Ġtem":1979,"rag":1980,"ote":1981,"ots":1982,"Ġbusiness":1983,"ĠOne":1984,"Ġgeneral":1985,"ĠTur":1986,"Ġintro":1987,"Ġel":1988,"Ġgiven":1989,"ray":1990,"ĠPort":1991,"Ġstruct":1992,"Ġsite":1993,"Ġinternational":1994,"Ġspecies":1995,"hel":1996,"iron":1997,"useum":1998,"Ġhost":1999,"Ġprevious":2000,"ney":2001,"ĠHol":2002,"outhern":2003,"acks":2004,"avy":2005,"app":2006,"ĠPer":2007,"Ġengine":2008,"ead":2009,"ĠEuropean":2010,"ounced":2011,"Ã³":2012,"Ġgreat":2013,"Ġsimilar":2014,"Ġdel":2015,"An":2016,"ĠBo":2017,"ush":2018,"ĠAward":2019,"Ġsw":2020,"ological":2021,"ament":2022,"forman":2023,"Com":2024,"ape":2025,"mit":2026,"Ġfew":2027,"ention":2028,"ĠÃ":2029,"Ġdistrict":2030,"Ġmale":2031,"ĠBel":2032,"Ġwritten":2033,"artment":2034,"ĠChar":2035,"Ġ2013":2036,"Ġhouse":2037,"Ġproject":2038,"Ġway":2039,"ĠThese":2040,"iber":2041,"Ar":2042,"off":2043,"Ġevery":2044,"abor":2045,"Ġproduction":2046,"ivid":2047,"ĠRes":2048,"ĠAustralian":2049,"Ġeconom":2050,"Ġ1990":2051,"Ġinit":2052,"Ġvillage":2053,"rote":2054,"ĠRed":2055,"Ġclaim":2056,"duct":2057,"ront":2058,"11":2059,"Ġ2014":2060,"ming":2061,"Ġprim":2062,"ico":2063,"Ġregion":2064,"Ġhaving":2065,"Ġcomb":2066,"Ġexample":2067,"uel":2068,"Ġweb":2069,"ĠDavid":2070,"Un":2071,"193":2072,"Ġhig":2073,"Ġtitle":2074,"ĠDistrict":2075,"Ġdevelopment":2076,"Ġmunicip":2077,"Ġstudents":2078,"Ġgl":2079,"sequ":2080,"hers":2081,"ĠParty":2082,"Ġter":2083,"rian":2084,"li":2085,"Ġofficial":2086,"Ġmult":2087,"Ġconsidered":2088,"Ġhowever":2089,"Am":2090,"ĠBra":2091,"Ġareas":2092,"anish":2093,"yd":2094,"ĠArmy":2095,"Ġbre":2096,"ĠAmerica":2097,"Ġmilitary":2098,"Ġship":2099,"ances":2100,"ean":2101,"self":2102,"minist":2103,"Ġtimes":2104,"orts":2105,"otes":2106,"ĠBas":2107,"ĠSm":2108,"iment":2109,"ĠGermany":2110,"ett":2111,"Ġfather":2112,"ogn":2113,"aken":2114,"Ġcreated":2115,"Ġcoach":2116,"urb":2117,"ination":2118,"Ġtrain":2119,"ĠIndia":2120,"ĠDivision":2121,"Ġinf":2122,"Ġvol":2123,"Ġpolitical":2124,"Ġ188":2125,"Ġ1980":2126,"Ġproduc":2127,"ached":2128,"ĠStreet":2129,"|-":2130,"Ġlim":2131,"ĠQu":2132,"Ġbeh":2133,"ope":2134,"Ġsol":2135,"Ġworks":2136,"Ġconf":2137,"ule":2138,"ĠEm":2139,"ĠUnion":2140,"arch":2141,"ators":2142,"Ġyoung":2143,"Ġsent":2144,"Ġnext":2145,"men":2146,"ĠLa":2147,"Ġbroad":2148,"ĠRober":2149,"ger":2150,"Ġtw":2151,"Ġspecial":2152,"ests":2153,"ician":2154,"Ġneed":2155,"Ġtake":2156,"Ġwent":2157,"Ġcontrol":2158,"Ġgen":2159,"ago":2160,"Ġtyp":2161,"Ġwithout":2162,"field":2163,"Ġstyle":2164,"esc":2165,"ĠQue":2166,"less":2167,"ournal":2168,"rab":2169,"Ġtri":2170,"ream":2171,"iddle":2172,"Ġ2015":2173,"Ġopened":2174,"iction":2175,"ĠGeorge":2176,"Ġtotal":2177,"ĠRoad":2178,"Ġident":2179,"Ġattem":2180,"itor":2181,"ĠMor":2182,"rated":2183,"ĠVal":2184,"ĠLou":2185,"ĠKingdom":2186,"Ġindust":2187,"Ġgroups":2188,"ĠRich":2189,"ĠFrance":2190,"Ġpri":2191,"van":2192,"Ġpoint":2193,"irl":2194,"site":2195,"Ġmodern":2196,"erb":2197,"Ġ23":2198,"Ġinflu":2199,"itect":2200,"Ġage":2201,"Ġ2016":2202,"ĠDep":2203,"Ġlanguage":2204,"ources":2205,"arn":2206,"ketball":2207,"raw":2208,"lic":2209,"ha":2210,"'t":2211,"iers":2212,"aining":2213,"Ġpract":2214,"Ġ21":2215,"ither":2216,"ĠClub":2217,"Ġsee":2218,"Ġvideo":2219,"ĠRecords":2220,"iol":2221,"icle":2222,"ĠCath":2223,"era":2224,"ably":2225,"ĠCanadian":2226,"ĠProv":2227,"oe":2228,"ĠAssociation":2229,"Ġhuman":2230,"Ġimportant":2231,"oor":2232,"ĠGovern":2233,"Ġannounced":2234,"uter":2235,"Ġright":2236,"rack":2237,"ĠCouncil":2238,"As":2239,"ĠBlack":2240,"Ġcommunity":2241,"ĠHall":2242,"ĠRev":2243,"Ġaut":2244,"Ġpe":2245,"Ġgr":2246,"Ġcaus":2247,"ecut":2248,"Ġproper":2249,"ĠPal":2250,"ĠWhen":2251,"now":2252,"Ġwrote":2253,"ville":2254,"xt":2255,"ype":2256,"ested":2257,"Ġless":2258,"Ä±":2259,"Ġdest":2260,"Ġdescribed":2261,"ĠPaul":2262,"lected":2263,"Ġparticular":2264,"atter":2265,"Ġperforman":2266,"Ġvoc":2267,"ĠJames":2268,"Ġroad":2269,"Ġaward":2270,"ccording":2271,"Ġcond":2272,"Ġdeveloped":2273,"Ġreal":2274,"bor":2275,"ĠDr":2276,"eared":2277,"apt":2278,"cer":2279,"People":2280,"rick":2281,"ellow":2282,"utes":2283,"Ġ22":2284,"ĠJew":2285,"Ġfull":2286,"Pro":2287,"eball":2288,"Ġstory":2289,"ising":2290,"idence":2291,"Ġcontinued":2292,"most":2293,"odes":2294,"Ġhalf":2295,"Ġgrad":2296,"Ġattack":2297,"uation":2298,"acy":2299,"ma":2300,"Ġschools":2301,"Ġrul":2302,"wh":2303,"ertain":2304,"ĠFootball":2305,"Ġstarted":2306,"ĠScott":2307,"Ġview":2308,"stitute":2309,"Ġ27":2310,"itz":2311,"Ġren":2312,"ĠDuring":2313,"ston":2314,"used":2315,"wood":2316,"Ġreturned":2317,"ari":2318,"Ġ[":2319,"ĠThom":2320,"ĠChristian":2321,"30":2322,"Ġ186":2323,"ids":2324,"uit":2325,"Ġ26":2326,"ĠServ":2327,"Ġindepend":2328,"Ġguitar":2329,"etwork":2330,"Ġpoin":2331,"Ġoffer":2332,"ĠGeneral":2333,"ili":2334,"ĠRoyal":2335,"Ġdiv":2336,"ĠRegulations":2337,"Ġ2017":2338,"Ġleague":2339,"ĠâĢ":2340,"Ġevents":2341,"After":2342,"ways":2343,"de":2344,"ference":2345,"istan":2346,"Ġ1997":2347,"Ġexist":2348,"play":2349,"here":2350,"Ġbody":2351,"rap":2352,"Ġanim":2353,"uff":2354,"Ġmater":2355,"Ġstations":2356,"val":2357,"Ġdoes":2358,"udd":2359,"ethod":2360,"istic":2361,"reland":2362,"ification":2363,"ĠMag":2364,"berg":2365,"ĠAlex":2366,"anies":2367,"ensive":2368,"atural":2369,"Ġrelations":2370,"ending":2371,"Ġgrow":2372,"Ġformed":2373,"ying":2374,"ills":2375,"Ġindivid":2376,"aper":2377,"Ġhold":2378,"Ġ2018":2379,"Ġround":2380,"Ġ187":2381,"Ġ1996":2382,"iles":2383,"ults":2384,"Ġcase":2385,"ĠMal":2386,"Ġfind":2387,"itive":2388,"Ġlow":2389,"craft":2390,"arent":2391,"Ġsepar":2392,"ras":2393,"ĠStud":2394,"Ġappeared":2395,"Ġdays":2396,"right":2397,"Ġ28":2398,"Ġz":2399,"Ġalbums":2400,"Ġaddition":2401,"Ġbi":2402,"ĠGreat":2403,"Ġ100":2404,"ĠMart":2405,"Ġmy":2406,"year":2407,"Ġservices":2408,"Ġfurther":2409,"Ġrelig":2410,"ports":2411,"Ġphys":2412,"ĠPress":2413,"):":2414,"arly":2415,"hib":2416,"ibr":2417,"Ġalthough":2418,"Ġrock":2419,"Ġfriend":2420,"ĠPresident":2421,"=\"":2422,"ashington":2423,"ctor":2424,"Ġdeaths":2425,"ware":2426,"Ġmer":2427,"Ġshould":2428,"ipp":2429,"ground":2430,"ishing":2431,"ĠArch":2432,"ells":2433,"Ġothers":2434,"leg":2435,"ĠWestern":2436,"roll":2437,"Ġavail":2438,"arliam":2439,"ĠPat":2440,"ential":2441,"Ġtrack":2442,"CA":2443,"Ġcross":2444,"Ġlost":2445,"Ġ1970":2446,"ĠIreland":2447,"Ġsurv":2448,"ements":2449,"Ġfounded":2450,"view":2451,"ĠMy":2452,"Ġeducation":2453,"viron":2454,"25":2455,"ĠTrans":2456,"Ġbelie":2457,"aut":2458,"Ġlive":2459,"me":2460,"Ġgood":2461,"ockey":2462,"Ġchurch":2463,"Ġeast":2464,"arliament":2465,"ĠWith":2466,"ĠRail":2467,"ĠMusic":2468,"atch":2469,"Ġbrother":2470,"ĠCro":2471,"Ġground":2472,"Ġpriv":2473,"ĠJos":2474,"Ġfe":2475,"ĠSk":2476,"ĠâĢĶ":2477,"ades":2478,"Ġlight":2479,"nel":2480,"cks":2481,"ĠBay":2482,"oks":2483,"Ġide":2484,"ĠTurk":2485,"Ġnever":2486,"Ġhon":2487,"ĠSl":2488,"imately":2489,"Ġrecorded":2490,"Ġstrong":2491,"Ġjoined":2492,"ĠMex":2493,"ademy":2494,"Ġfem":2495,"ateg":2496,"Ġhimself":2497,"ij":2498,"Ġpresident":2499,"Ġder":2500,"ĠLaw":2501,"Ġsocial":2502,"ĠTV":2503,"ĠUK":2504,"aries":2505,"ĠCourt":2506,"ya":2507,"ĠFirst":2508,"Ġet":2509,"aches":2510,"Ġsqu":2511,"ien":2512,"Ġworked":2513,"Ġteams":2514,"ability":2515,"Ġten":2516,"Ġmaking":2517,"ĠKh":2518,"Ġ2019":2519,"Ġ1995":2520,"ĠAngel":2521,"ificant":2522,"mon":2523,"Ġsongs":2524,"Ġlargest":2525,"Ġfail":2526,"Eng":2527,"Ġanal":2528,"ĠPri":2529,"Ġnovel":2530,"atin":2531,"Ġmaterial":2532,"eph":2533,"burg":2534,"Ġins":2535,"Ġmid":2536,"ĠVir":2537,"ĠCommun":2538,"Ġ1994":2539,"ĠZeal":2540,"Ġdev":2541,"ĠIsland":2542,"Ġvict":2543,"Ġradio":2544,"duction":2545,"gin":2546,"ĠHen":2547,"oviet":2548,"ĠCentral":2549,"Ġdirector":2550,"Ġmarried":2551,"oms":2552,"Ġbecom":2553,"iting":2554,"ilities":2555,"ida":2556,"inter":2557,"ership":2558,"Ġmust":2559,"Ġelection":2560,"ĠZealand":2561,"serv":2562,"24":2563,"ĠCatholic":2564,"It":2565,"ĠChina":2566,"Ġrelease":2567,"elt":2568,"ĠCompany":2569,"Ġwest":2570,"ĠSal":2571,"Ġwebsite":2572,"Ġmot":2573,"writ":2574,"ointed":2575,"ula":2576,"Ġavailable":2577,"ĠWashington":2578,"isl":2579,"Ġ2020":2580,"usical":2581,"ude":2582,"Ġepisode":2583,"ele":2584,"pro":2585,"Ġtro":2586,"Ġ()":2587,"ein":2588,"Ġresearch":2589,"endment":2590,"Ġrecogn":2591,"ĠMary":2592,"anted":2593,"Ġacross":2594,"Ġred":2595,"ĠBest":2596,"ores":2597,"ump":2598,"Ġproble":2599,"lim":2600,"igned":2601,"itte":2602,"ĠChe":2603,"atre":2604,"Ġsignificant":2605,"Ġdoc":2606,"mpire":2607,"ĠDem":2608,"ĠTra":2609,"ĠCont":2610,"Ġproduct":2611,"ĠMichael":2612,"Ġfollowed":2613,"Ġhelp":2614,"sy":2615,"ceed":2616,"Ġassoci":2617,"Ġbar":2618,"ĠDon":2619,"ĠSociety":2620,"Ġpoints":2621,"olit":2622,"alls":2623,"anding":2624,"Ġ1992":2625,"ĠOlympics":2626,"gen":2627,"Ġstar":2628,"Ġemploy":2629,"Ġparticip":2630,"Ġparty":2631,"oice":2632,"Ġinvest":2633,"Ġcirc":2634,"ĠSen":2635,"ĠLouis":2636,"asons":2637,"vironment":2638,"aughter":2639,"ique":2640,"Ġtog":2641,"ĠJapanese":2642,"rd":2643,"ĠRobert":2644,"icles":2645,"ĠList":2646,"Ġweek":2647,"Ġfree":2648,"bour":2649,"Ġcoll":2650,"ĠAfrican":2651,"Living":2652,"Ġhow":2653,"ria":2654,"ĠGroup":2655,"Ġseen":2656,"cient":2657,"Ġcompleted":2658,"Ġfire":2659,"ĠTex":2660,"Ġtogether":2661,"itch":2662,"Ġdeg":2663,"mar":2664,"Ġdi":2665,"Ġusually":2666,"Ġcast":2667,"Ġsugg":2668,"ĠGr":2669,"ĠRepublic":2670,"Ġmiss":2671,"Ġstates":2672,"Ġ29":2673,"ĠDay":2674,"Ġtaken":2675,"ĠGod":2676,"ume":2677,"Ġmodel":2678,"Pl":2679,"umni":2680,"ĠApp":2681,"Ġlaun":2682,"Ġassist":2683,"unk":2684,"oted":2685,"time":2686,"olf":2687,"Ġblack":2688,"Ġliter":2689,"ĠCap":2690,"Ġprofessional":2691,"Ġ/":2692,"Ġfund":2693,"atory":2694,"oul":2695,"ranch":2696,"aker":2697,"Ġmarket":2698,"Ġarr":2699,"40":2700,"ĠCharles":2701,"ĠSam":2702,"Ġaccess":2703,"fic":2704,"ĠRh":2705,"Ġ1960":2706,"roy":2707,"ĠMark":2708,"Ġsuccessful":2709,"eep":2710,"ĠYear":2711,"Ġmean":2712,"uild":2713,"ĠMount":2714,"ĠIr":2715,"Ġadminist":2716,"Ġsound":2717,"aign":2718,"utions":2719,"II":2720,"ĠSim":2721,"Ġattempt":2722,"cle":2723,"ĠMac":2724,"cial":2725,"ĠCenter":2726,"Ġonce":2727,"Ġlab":2728,"Ġking":2729,"Ġeither":2730,"Ġphot":2731,"iqu":2732,"incip":2733,"Ġkey":2734,"Ġforces":2735,"Ġinformation":2736,"Ġplan":2737,"ederal":2738,"Ġspace":2739,"thlet":2740,"estival":2741,"nder":2742,"Ġcontrib":2743,"iation":2744,"Ġcost":2745,"Ġpolitician":2746,"Ġacqu":2747,"annel":2748,"Ġreview":2749,"eck":2750,"Ġmeet":2751,"ĠScot":2752,"ĠFranc":2753,"azine":2754,"Ġincludes":2755,"Ġthroughout":2756,"ĠBen":2757,"ought":2758,"Ġ1993":2759,"Ġtransl":2760,"aves":2761,"Ġ#":2762,"Ġcountries":2763,"Ġconstruction":2764,"Ġoffice":2765,"Ġ1991":2766,"ĠVict":2767,"Ġplaying":2768,"Ġwife":2769,"unt":2770,"Ġreported":2771,"hest":2772,"arian":2773,"Ġoriginally":2774,"ror":2775,"For":2776,"och":2777,"Ġcompanies":2778,"Ġtour":2779,"Ġcontract":2780,"Ġtreat":2781,"vert":2782,"Ġagre":2783,"elling":2784,"ĠAcademy":2785,"rig":2786,"Ġfeatures":2787,"ĠFrank":2788,"be":2789,"Ġenc":2790,"Ġmatch":2791,"Ġ(\"":2792,"erous":2793,"ishop":2794,"Ġwid":2795,"ĠWil":2796,"ĠGames":2797,"ĠAfrica":2798,"inese":2799,"lor":2800,"ĠMer":2801,"Ġentire":2802,"Ġconsist":2803,"west":2804,"Ġ50":2805,"ĠGold":2806,"ĠNe":2807,"ĠTer":2808,"gress":2809,"Ġtre":2810,"ocr":2811,"arth":2812,"ecutive":2813,"Ġkilled":2814,"ĠPeter":2815,"ception":2816,"ulated":2817,"ĠSome":2818,"Ġstudy":2819,"Ġpress":2820,"ducation":2821,"Ġaway":2822,"FL":2823,"Ġabove":2824,"chie":2825,"Ġworking":2826,"Ġintroduced":2827,"Ġarg":2828,"ĠBill":2829,"Ġmother":2830,"ĠWe":2831,"Ġ2021":2832,"Film":2833,"Ġpark":2834,"ĠInter":2835,"ĠAp":2836,"Ġmonths":2837,"TV":2838,"New":2839,"Ġimpro":2840,"Ġdebut":2841,"onst":2842,"Ġget":2843,"face":2844,"ows":2845,"ĠMet":2846,"Ġappointed":2847,"head":2848,"Ġregular":2849,"Ġput":2850,"olk":2851,"enc":2852,"Ġaver":2853,"ource":2854,"Ġrace":2855,"Ġmix":2856,"ota":2857,"ĠSing":2858,"ĠThomas":2859,"Treat":2860,"Sh":2861,"ĠColumb":2862,"ometimes":2863,"ĠTexas":2864,"align":2865,"De":2866,"Ġestablishments":2867,"order":2868,"ala":2869,"aps":2870,"Ġremained":2871,"âĢĿ":2872,"Ġhous":2873,"Ġarchitect":2874,"ĠCong":2875,"anded":2876,"ĠItalian":2877,"At":2878,"rel":2879,"oys":2880,"imate":2881,"Ġmedal":2882,"ĠGreen":2883,"emor":2884,"Ġparts":2885,"Ġeight":2886,"ems":2887,"rup":2888,"Ġrange":2889,"iding":2890,"Ġsigned":2891,"rey":2892,"Ġfight":2893,"ĠSoviet":2894,"go":2895,"Ġtest":2896,"edy":2897,"istry":2898,"ĠFrom":2899,"iter":2900,"rim":2901,"ĊĠĊ":2902,"ĠGrand":2903,"asing":2904,"Ġbooks":2905,"Ġgold":2906,"ĠInstitute":2907,"Ġdou":2908,"cher":2909,"ĠTown":2910,"ĠRussian":2911,"Ġperformance":2912,"Ġcivil":2913,",\"":2914,"Ġcapt":2915,"ĠMinister":2916,"Ġmount":2917,"Ġperformed":2918,"ĠGreek":2919,"mb":2920,"airs":2921,"ĠMuseum":2922,"urity":2923,"ĠTor":2924,"Ġleast":2925,"Ġbroadcast":2926,"Ġviol":2927,"ĠGo":2928,"Cl":2929,"ĠBut":2930,"ĠTom":2931,"Ġbasketball":2932,"ask":2933,"\")":2934,"Ġreplaced":2935,"Ġfunction":2936,"Ġchange":2937,"Ġmethod":2938,"Ġ=":2939,"Ġelected":2940,"Ġfoc":2941,"stitution":2942,"Ġcour":2943,"ittee":2944,"icago":2945,"ux":2946,"Ġsystems":2947,"ona":2948,"Ġdesigned":2949,"Ġfig":2950,"arily":2951,"lement":2952,"iff":2953,"anta":2954,"Ġmass":2955,"ĠRichard":2956,"osing":2957,"uz":2958,"ecially":2959,"ios":2960,"ites":2961,"ects":2962,"Ġser":2963,"ĠVol":2964,"ĠSpanish":2965,"Ġconduct":2966,"Ġeventually":2967,"ĠMiss":2968,"aching":2969,"Ġdiscover":2970,"ĠFin":2971,"Ġconn":2972,"Ġshows":2973,"NA":2974,"Ġstri":2975,"Ġreb":2976,"ĠMad":2977,"ĠHam":2978,"Ġobject":2979,".)":2980,"Ġill":2981,"ĠArab":2982,"Ġrights":2983,"ĠSecond":2984,"road":2985,"ĠBC":2986,"Ġcop":2987,"Ġfeatured":2988,"lam":2989,"Ġpast":2990,"Ġupon":2991,"ĠPet":2992,"Ġsubject":2993,"Treaties":2994,"idents":2995,"ĠFore":2996,"adium":2997,"Ġcharacters":2998,"ĠFilm":2999,"ena":3000,"Ġoccur":3001,"Ġfootballer":3002,"ĠLeg":3003,"medi":3004,"Ġsil":3005,"ees":3006,"Ġleading":3007,"ĠDan":3008,"ĠEmpire":3009,"ving":3010,"ĠOther":3011,"especially":3012,"ĠMel":3013,"ĠMus":3014,"Ġexpress":3015,"Ġfront":3016,"Ġdecl":3017,"Ġaud":3018,"atives":3019,"Ġcy":3020,"Ġfrequ":3021,"Ġdam":3022,"Ġseven":3023,"Ġgave":3024,"28":3025,"ĠDepartment":3026,"uns":3027,"rial":3028,"hood":3029,"ĠBur":3030,"Sp":3031,"Ġable":3032,"Ġ40":3033,"rought":3034,"ĠLos":3035,"Ġhit":3036,"Ġsubsequ":3037,"Ġpred":3038,"utch":3039,"ply":3040,"Ġ2022":3041,"Ġ1989":3042,"icated":3043,"Wh":3044,"ands":3045,"Ġsch":3046,"Ġpur":3047,"Ġrather":3048,"Ġ1988":3049,"Ġsinger":3050,"Ġtrib":3051,"Ġpot":3052,"rael":3053,"Ġrespons":3054,"icy":3055,"27":3056,"Ġ1986":3057,"etic":3058,"ugby":3059,"Sc":3060,"atal":3061,"ĠRock":3062,"sel":3063,"There":3064,"ĠIm":3065,"ĠHistory":3066,"Ġpain":3067,"anks":3068,"Ġinj":3069,"Ġlower":3070,"aged":3071,"ĠKn":3072,"oral":3073,"ĠTo":3074,"Ġcommer":3075,"Ġjud":3076,"26":3077,"ergy":3078,"Ġdata":3079,"km":3080,"ental":3081,"Ġrank":3082,"ĠMont":3083,"pts":3084,"uments":3085,"Ġcourt":3086,"Ġcentral":3087,"ufact":3088,"ĠRob":3089,"Ġmeas":3090,"ĠVictor":3091,"ĠFlor":3092,"icro":3093,"ĠPenn":3094,"itt":3095,"Ġdirected":3096,"Ġpossible":3097,"Ġtype":3098,"ĠBow":3099,"Ġclose":3100,"Ġterrit":3101,"ĠPlay":3102,"ĠVirgin":3103,"Ġbuildings":3104,"chan":3105,"ĠWhite":3106,"SA":3107,"ĠLake":3108,"This":3109,"hi":3110,"embly":3111,"asc":3112,"ension":3113,"Ġmultip":3114,"Ġhealth":3115,"ĠMur":3116,"ersey":3117,"Ġaircraft":3118,"Ġcapital":3119,"Ġsem":3120,"Ġaccount":3121,"ibrary":3122,"Ġculture":3123,"Ġhard":3124,"Ġinvolved":3125,"ĠSmith":3126,"uated":3127,"Ġstage":3128,"Ġhom":3129,"...":3130,"ires":3131,"aught":3132,"Ġcampaign":3133,"like":3134,"ĠKore":3135,"uture":3136,"ĠCarol":3137,"Ġ31":3138,"ĠBrown":3139,"ĠChinese":3140,"29":3141,"Ġprovided":3142,"het":3143,"ĠHill":3144,"Ġinstead":3145,"omm":3146,"Ġprivate":3147,"bon":3148,"Ġvocals":3149,"bl":3150,"ĠAtl":3151,"Ġoccup":3152,"Ġalumni":3153,"oid":3154,"Ġche":3155,"Ġphil":3156,"ĠHenry":3157,"Ġadded":3158,"ada":3159,"eated":3160,"Ġobserv":3161,"ĠWhile":3162,"Ġalmost":3163,"60":3164,"Äģ":3165,"ĠDes":3166,"ends":3167,"ship":3168,"Ġrailway":3169,"ĠChicago":3170,"Ġwinn":3171,"kn":3172,"zil":3173,"Ġcal":3174,"Ġfav":3175,"ĠIts":3176,"190":3177,"ĠAccording":3178,"2000":3179,"Ġbattle":3180,"Ġforce":3181,"ĠâĢľ":3182,"action":3183,"ĠSqu":3184,"Ġdaughter":3185,"Ġconv":3186,"Ġrespect":3187,"oper":3188,"Ġitself":3189,"ises":3190,"Ġcritic":3191,"Ġprote":3192,"Ġnatural":3193,"Ġvia":3194,"ĠSuper":3195,"Ġ1985":3196,"Ġapprox":3197,"ani":3198,"Ġfar":3199,"Ġespecially":3200,"Ġwhite":3201,"Ġactress":3202,"Ġmunicipality":3203,"ĠÂ":3204,"oz":3205,"Ġsaw":3206,");":3207,"ĠAngeles":3208,"Ġachie":3209,"Ġneigh":3210,"Ġlik":3211,"arter":3212,"ĠHistor":3213,"Ġjournal":3214,"Ad":3215,"Ġwhose":3216,"Ġcoast":3217,"back":3218,"Ġboard":3219,"Ġ1984":3220,"Ġap":3221,"Ġtourn":3222,"Ġknow":3223,"Ġcenter":3224,"porary":3225,"osaur":3226,"Ġtraining":3227,"ĠNorthern":3228,"ĠPe":3229,"2006":3230,"ĠJust":3231,"Ġ185":3232,"Ġtransfer":3233,"Ġfinished":3234,"ĠForce":3235,"ĠClass":3236,"Ġactor":3237,"abit":3238,"Ġcollege":3239,"Ġprovide":3240,"ecess":3241,"Ġ1987":3242,"Ġflow":3243,"fficial":3244,"Ġresults":3245,"ked":3246,"Early":3247,"Ġriver":3248,"Ġregard":3249,"Ġvir":3250,"ĠGeorg":3251,"Ġartists":3252,"Ġcomplex":3253,"inary":3254,"oses":3255,"ola":3256,"Ġaccept":3257,"Ġwriter":3258,"Ġ1979":3259,"Ġisland":3260,"ĠService":3261,"ospital":3262,"Ġmanager":3263,"clus":3264,"ĠĠĠĠĠĠĠĠ":3265,"ength":3266,"based":3267,"Ġreached":3268,"ĠMass":3269,"Ġsometimes":3270,"Ġinterest":3271,"Con":3272,"Ġgenerally":3273,"Ġstandard":3274,"Ġaverage":3275,"Ġbrought":3276,"Ġplaces":3277,"aval":3278,"ingu":3279,"ini":3280,"ado":3281,"Ġmeans":3282,"Ġdistrib":3283,"ooks":3284,"Ġcertain":3285,"ĠJun":3286,"Ġplaced":3287,"Ġsection":3288,"isions":3289,"ny":3290,"aters":3291,"Ġsouthern":3292,"eleb":3293,"ĠCons":3294,"Ġopt":3295,"Ġmovement":3296,"ĠOld":3297,"Ġstre":3298,"iences":3299,"ulture":3300,"Ġprincip":3301,"Ġfall":3302,"yr":3303,"Ġpers":3304,"Ġloss":3305,"ĠItaly":3306,"Ġscient":3307,"arts":3308,"Ġveh":3309,"Ġoutside":3310,"ĠCamp":3311,"Ġaction":3312,"vention":3313,"Ġnetwork":3314,"ero":3315,"Ġimm":3316,"ĠSir":3317,"Ġbirth":3318,"Ġchanged":3319,"80":3320,"Ġneg":3321,"ection":3322,"Ġnorthern":3323,"Ġwriters":3324,"Ã§":3325,"sych":3326,"Ġdisp":3327,"Ġstructure":3328,"istics":3329,"Ġthus":3330,"anguages":3331,"ĠGra":3332,"ĠCast":3333,"ounter":3334,"Ġunits":3335,"Ġ1982":3336,"Ġ1950":3337,"aying":3338,"Ġtravel":3339,"antic":3340,"board":3341,"ned":3342,"Ġdram":3343,"Ġnight":3344,"reme":3345,"bers":3346,"Ġ1983":3347,"Ġmedia":3348,"lier":3349,"Ġword":3350,"BA":3351,"SI":3352,"ender":3353,"Ġallowed":3354,"Ġprison":3355,"ĠParis":3356,"Ġchampionship":3357,"Ġwind":3358,"Ġspe":3359,"Ġsuper":3360,"Ġcut":3361,"ils":3362,"Ġhigher":3363,"Ġge":3364,"ĠAnn":3365,"Ġdocument":3366,"enced":3367,"Ġschol":3368,"Ġden":3369,"List":3370,"Ġfood":3371,"Ġaccording":3372,"Amendment":3373,"stra":3374,"ĠCommission":3375,"Ind":3376,"alled":3377,"Ġcreat":3378,"Ġclosed":3379,"ĠDel":3380,"rang":3381,"Ġtax":3382,"Ġtraditional":3383,"During":3384,"Ġabs":3385,"ĠSaint":3386,"ription":3387,"Ġdeterm":3388,"bit":3389,"Ġcurrently":3390,"asion":3391,"ĠBritain":3392,"ened":3393,"Ġsports":3394,"Ġmanufact":3395,"Ġproducer":3396,"ĠDen":3397,"Ġawarded":3398,"Ġindustry":3399,"Ġbank":3400,"Ã¤":3401,"ĠMod":3402,"Ġtheory":3403,"ĠMexico":3404,"Ġbase":3405,"Ġmusical":3406,"Ġuses":3407,"ultural":3408,"ĠFlorida":3409,"ĠHealth":3410,"ĠStar":3411,"ĠMil":3412,"Ġsex":3413,"ylvan":3414,"Ġstated":3415,"Ġscience":3416,"Ġ:":3417,"ros":3418,"ette":3419,"ĠParliament":3420,"bur":3421,"Ġesc":3422,"English":3423,"Ġplann":3424,"Ġsoft":3425,"Ġindependent":3426,"Ph":3427,"Ġpurch":3428,"Ġfarm":3429,"ibility":3430,"well":3431,"Ġdecided":3432,"known":3433,"Ġ1976":3434,"Ge":3435,"change":3436,"ye":3437,"ĠWales":3438,"ura":3439,"Ġclos":3440,"Ġdefeated":3441,"wer":3442,"nes":3443,"Te":3444,"Ġrelationship":3445,"elled":3446,"189":3447,"ĠStev":3448,"usp":3449,"enth":3450,"Ġ184":3451,"Ġtransport":3452,"Ġprimary":3453,"igan":3454,"Ġdeal":3455,"Ġrad":3456,"ĠJersey":3457,"Ġreading":3458,"ĠDis":3459,"Ġpolice":3460,"ients":3461,"Ġleader":3462,"Ġer":3463,"Ġsettle":3464,"Ġgoal":3465,"ita":3466,"Ġplant":3467,"2005":3468,"Notes":3469,"ĠEducation":3470,"ĠOl":3471,"Ġoperations":3472,"ication":3473,"ĠCarl":3474,"Ġ1981":3475,"Ġrelated":3476,"Ġarmy":3477,"ĠDirect":3478,"ĠAlthough":3479,"ĠColumbia":3480,"Ġcred":3481,"Ġrequired":3482,"ta":3483,"ĠGovernment":3484,"Ġremov":3485,"ademic":3486,"ollowing":3487,"heast":3488,"Ġself":3489,"Ġmur":3490,"Ġstaff":3491,"Ġfourth":3492,"Ġquest":3493,"Ġnewsp":3494,"Ġfemale":3495,"Ġhor":3496,"ĠFre":3497,"ĠTwo":3498,"Ġball":3499,"Ġever":3500,"Ġbeginning":3501,"erve":3502,"ĠSeries":3503,"ky":3504,"Ġarm":3505,"Ġtowards":3506,"Ġconcern":3507,"Ġwinning":3508,"Ġsen":3509,"Ġminor":3510,"Ġbehind":3511,"ĠEv":3512,"Ġassociated":3513,"ĠMa":3514,"Ġpreviously":3515,"hold":3516,"akistan":3517,"Ġtoo":3518,"ĠMill":3519,"ĠBattle":3520,"ficult":3521,"Ġruns":3522,"osoph":3523,"ĠScotland":3524,"lying":3525,"not":3526,"Ġcolon":3527,"Ġdefeat":3528,"ĠIsrael":3529,"Ġreligious":3530,"ĠOper":3531,"Ġbur":3532,"itiz":3533,"Ġenergy":3534,"Ġadop":3535,"ĠBook":3536,"ĠOff":3537,"ĠJim":3538,"Ġtrade":3539,"ancial":3540,"ĠLove":3541,"Ġcommercial":3542,"Ġcompetition":3543,"Ġroute":3544,"Ġenvironment":3545,"ĠDo":3546,"ĠMost":3547,"ĠSwed":3548,"ams":3549,"Ġstop":3550,"Ġdestroy":3551,"Ġhighest":3552,"Ġindividual":3553,"Ġtext":3554,"ĠLand":3555,"mark":3556,"ano":3557,"Ġinstr":3558,"RA":3559,"Ġeth":3560,"ato":3561,"gl":3562,"ĠEr":3563,"Ġlittle":3564,"Ġcomplete":3565,"Ġwood":3566,"ĠIll":3567,"ĠAlb":3568,"ĠĊĊ":3569,"ares":3570,"Ġlo":3571,"ĠIrish":3572,"mond":3573,"ulf":3574,"ĠCongress":3575,"Ġ1972":3576,"Ġeconomic":3577,"Ġterms":3578,"Ġdifficult":3579,"ĠAv":3580,"Ġremains":3581,"ĠPan":3582,"Ġgra":3583,"ylvania":3584,"Ġnuc":3585,"Ġearlier":3586,"Ġfif":3587,"ĠSun":3588,"den":3589,"ĠWinter":3590,"ĠEarth":3591,"Ġqual":3592,"Ġcou":3593,"Åį":3594,"ĠBrazil":3595,"omp":3596,"Ġbass":3597,"inct":3598,"Ġchem":3599,"Ġwriting":3600,"ĠPublic":3601,"oke":3602,"ĠIII":3603,"70":3604,"Ġlocation":3605,"Ġadditional":3606,"oma":3607,"Ġlet":3608,"Ġliving":3609,"Ġ1978":3610,"rate":3611,"Ġedition":3612,"Ġaltern":3613,"Ġdivision":3614,"Ġord":3615,"Ġhum":3616,"ĠJewish":3617,"FA":3618,"Ġapplic":3619,"ĠBig":3620,"erry":3621,"ĠMartin":3622,"amily":3623,"Ġended":3624,"ready":3625,"uals":3626,"Ġthought":3627,"Ġlimited":3628,"Ġpersonal":3629,"pped":3630,"Other":3631,"ario":3632,"Ġreve":3633,"hire":3634,"Ġsaf":3635,"ĠBul":3636,"Ġactive":3637,"Ġnames":3638,"Ġcome":3639,"35":3640,"iant":3641,"ols":3642,"ify":3643,"ĠProvince":3644,"Ġsurround":3645,"ĠBob":3646,"Ġprem":3647,"Ġscreen":3648,"Ġforms":3649,"Ġspeed":3650,"Ġnar":3651,"Ġbox":3652,"with":3653,"band":3654,"Ġver":3655,"ĠAwards":3656,"ĠSummer":3657,"Ġsoon":3658,"Ġancient":3659,"ĠDu":3660,"Ġrate":3661,"ĠCamb":3662,"Ġcollection":3663,"eff":3664,"Ġreferred":3665,"Ġcentre":3666,"Ġincreased":3667,"Ġmagazine":3668,"Ġste":3669,"Ġapproximately":3670,"Ġtournament":3671,"Ġprob":3672,"acing":3673,"Ġpoet":3674,"ĠTechn":3675,"ĠHow":3676,"fit":3677,"ĠRussia":3678,"Ġwhom":3679,"Ġcomplet":3680,"Ġparent":3681,"itors":3682,"Ġlanguages":3683,"Ġ1974":3684,"Ġceleb":3685,"ĠJack":3686,"orpor":3687,"ĠDou":3688,"Ġsat":3689,"Ġdig":3690,"ĠCD":3691,"Ġartist":3692,"azz":3693,"ĠSpec":3694,"rast":3695,"Ġ1975":3696,"ĠTro":3697,"ĠInc":3698,"Ġmove":3699,"Ġcompos":3700,"Ġkeep":3701,"ysis":3702,"Ġcaused":3703,"Ġunit":3704,"Ġfuture":3705,"Ġlook":3706,"Ġclear":3707,"ĠTimes":3708,"Ġowned":3709,"Ġdegree":3710,"Ġconstruct":3711,"ift":3712,"Ġmostly":3713,"rative":3714,"Ġmention":3715,"Ġcell":3716,"ĠAlbert":3717,"lo":3718,"atform":3719,"Ġbreak":3720,"ĠRou":3721,"uffer":3722,"Ġsize":3723,"ĠJoseph":3724,"Ġcand":3725,"ĠCur":3726,"ĠRadio":3727,"ĠScience":3728,"Ġemer":3729,"Ġseasons":3730,"ĠArts":3731,"Ġgrand":3732,"ĠLatin":3733,"irit":3734,"illa":3735,"Ġforest":3736,"ĠPortug":3737,"Ġsequ":3738,"aring":3739,"Ġchanges":3740,"Ġpercent":3741,"kins":3742,"Ġmeaning":3743,"Ġcontains":3744,"ĠFort":3745,"adel":3746,"ĠPre":3747,"Ġshot":3748,"Ġsummer":3749,"Ġnomin":3750,"ĠBroad":3751,"iÄ":3752,"ittle":3753,"ĠFred":3754,"ih":3755,"ĠAsia":3756,"Ġinteg":3757,"Ġmission":3758,"Ġnumerous":3759,"Ġ1977":3760,"ĠValley":3761,"venue":3762,"ĠOut":3763,"Ġsett":3764,"omer":3765,"ĠPac":3766,"isco":3767,"za":3768,"cing":3769,"Ġbaseball":3770,"Ġmajority":3771,"ĠVirginia":3772,"Ġsum":3773,"ĠMr":3774,"Ġprior":3775,"ĠTheatre":3776,"Ġtaking":3777,"isation":3778,"Ġevidence":3779,"ĠSouthern":3780,"Ġlonger":3781,"atively":3782,"ĠUp":3783,"ĠScottish":3784,"Ġconstit":3785,"ĠSer":3786,"ĠEastern":3787,"ĠFestival":3788,"king":3789,"ĠLife":3790,"uan":3791,"Ġstudio":3792,"ĠDemocr":3793,"))":3794,"uries":3795,"ua":3796,"standing":3797,"oring":3798,"Ġcases":3799,"Ġpay":3800,"irm":3801,"rown":3802,"Ġlack":3803,"aria":3804,"sylvania":3805,"Ġsport":3806,"ady":3807,"Ġparticularly":3808,"Ġpurp":3809,"aled":3810,"Ġhockey":3811,"Ġtemper":3812,"Ġalready":3813,"Ġbelow":3814,"ĠSil":3815,"ca":3816,"ĠSpain":3817,"ĠSea":3818,"Ġmunicipal":3819,"Ġpen":3820,"ĠYoung":3821,"retary":3822,"Ġscored":3823,"Ġnumbers":3824,"Ġ1968":3825,"Ġamount":3826,"Ã³n":3827,"overs":3828,"Ġequip":3829,"Ġdom":3830,"obal":3831,"ĠDutch":3832,"Ġbatt":3833,"bury":3834,"ties":3835,"Ġanti":3836,"ĠTim":3837,"rief":3838,"Ġlarger":3839,"Ġelements":3840,"Ġwestern":3841,"iana":3842,"ĠWood":3843,"Ġmoney":3844,"reater":3845,"Ġmultiple":3846,"ĠMiddle":3847,"ansas":3848,"ĠIslam":3849,"Ġinvestig":3850,"Ġdraw":3851,"ĠFound":3852,"Ġtoday":3853,"ules":3854,"ricket":3855,"ĠCam":3856,"ki":3857,"Ġnoted":3858,"Ġ1971":3859,"Bl":3860,"ĠChampionships":3861,"ĠMo":3862,"ĠPakistan":3863,"Ġconsider":3864,"center":3865,"Ġbridge":3866,"Ġspecific":3867,"Ġcomputer":3868,"ĠDef":3869,"ipl":3870,"aud":3871,"ongs":3872,"Ġbig":3873,"Ġopening":3874,"iled":3875,"Ġpractice":3876,"ĠSur":3877,"Ġnorm":3878,"asy":3879,"ĠNavy":3880,"Can":3881,"Col":3882,"izing":3883,"Ġlog":3884,"incial":3885,"2004":3886,"Ġ1969":3887,"win":3888,"ken":3889,"Ġstudies":3890,"ĠHaw":3891,"ĠCommittee":3892,"Ġsu":3893,"ĠLab":3894,"rying":3895,"Ġestim":3896,"ĠSystem":3897,"ali":3898,"Ġmach":3899,"Ġfamous":3900,"Ġissues":3901,"ums":3902,"ĠOh":3903,"Ġcities":3904,"Ġseparate":3905,"Ġsom":3906,"Ġindic":3907,"Ġprograms":3908,"Ġran":3909,"ĠBre":3910,"uty":3911,"erem":3912,"igr":3913,"Ġunivers":3914,"urban":3915,"Ġens":3916,"Ġappearance":3917,"Ġmem":3918,"ocal":3919,"oston":3920,"Ġ1973":3921,"Ġlength":3922,"emporary":3923,"ĠRailway":3924,"iance":3925,"Ġven":3926,"Ġlegal":3927,"Ġrunning":3928,"iro":3929,"Person":3930,"icians":3931,"Ġlived":3932,"uge":3933,"ider":3934,"Ã¨":3935,"Ġorganization":3936,"Ġsuffer":3937,"Ġsusp":3938,"Ġsource":3939,"Ġlisted":3940,"ĠTour":3941,"put":3942,"Ġcust":3943,"Ġlines":3944,"Ġappears":3945,"33":3946,"Ġice":3947,"ĠPennsylvania":3948,"ĠSince":3949,"ĠSocial":3950,"Ġbetter":3951,"ĠAre":3952,"Ġstatus":3953,"Ġbound":3954,"Ġded":3955,"Ġimmedi":3956,"Ġspent":3957,"Ġdate":3958,"Ġpromot":3959,"ĠSat":3960,"izations":3961,"Ġelev":3962,"Ġ1945":3963,"bra":3964,"onse":3965,"mission":3966,"Ġ2023":3967,"Ġthemsel":3968,"Ġthemselves":3969,"Ġdu":3970,"ĠNews":3971,"Ġoperated":3972,"Ġfeature":3973,"gypt":3974,"Ġbecoming":3975,"Ġdise":3976,"ĠKent":3977,"anda":3978,"dis":3979,"ety":3980,"ĠAlexander":3981,"Ġbelieved":3982,"cel":3983,"la":3984,"ĠOlympic":3985,"John":3986,"Ġinsp":3987,"Ġstudent":3988,"Ġforeign":3989,"ĠRos":3990,"burgh":3991,"resp":3992,"ĠDi":3993,"Ġactors":3994,"Ġremain":3995,"uses":3996,"2007":3997,"heim":3998,"Ġsurface":3999,"ĠCivil":4000,"ĠUnder":4001,"ĠBank":4002,"ĠMah":4003,"Ġ60":4004,"sen":4005,"ĠSub":4006,"akers":4007,"Ġgirl":4008,"ĠThat":4009,"Ġthreat":4010,"house":4011,"Ġunion":4012,"ĠLiber":4013,"ĠMuslim":4014,"ĠQueen":4015,"Ġactivities":4016,"stein":4017,"ĠLord":4018,"wan":4019,"isk":4020,"ears":4021,"itation":4022,"ips":4023,"Ġattended":4024,"inals":4025,"rif":4026,"Ġissue":4027,"omy":4028,"ĠHot":4029,"ĠAssembly":4030,"Ġexhib":4031,"oir":4032,"ping":4033,"Ġinstit":4034,"Ġgive":4035,"Ġvictory":4036,"ati":4037,"Ġdon":4038,"Ġess":4039,"ĠSar":4040,"Ġforced":4041,"ĠJud":4042,"eds":4043,"tained":4044,"mitted":4045,"ĠOx":4046,"arden":4047,"mm":4048,"ĠHel":4049,"ampion":4050,"riage":4051,"Ġfa":4052,"Ġdiscuss":4053,"Ġ1967":4054,"een":4055,"irds":4056,"CC":4057,"ĠCarolina":4058,"ĠLong":4059,"Ġ1964":4060,"ĠPrem":4061,"ĠLee":4062,"Ġextended":4063,"ĠGal":4064,"rich":4065,"Ġinfluence":4066,"ĠIf":4067,"TA":4068,"Ġrequire":4069,"iography":4070,"Ġmight":4071,"2003":4072,"Ġpassed":4073,"ayer":4074,"umber":4075,"Ġcolle":4076,"39":4077,"Ġnews":4078,"Ġmechan":4079,"Ġmonth":4080,"ĠSund":4081,"iano":4082,"level":4083,"Ġwide":4084,"velopment":4085,"75":4086,"All":4087,"Ġbene":4088,"Ġproperty":4089,"BS":4090,"Ġvariety":4091,"ications":4092,"Ġalways":4093,"chester":4094,"ĠCub":4095,"Ġincrease":4096,"anced":4097,"ensus":4098,"ĠMid":4099,"mun":4100,"Ġmurder":4101,"ĠSol":4102,"ledge":4103,"ĠTeam":4104,"Ġast":4105,"Ġannual":4106,"wa":4107,"ĠMany":4108,"ĠCr":4109,"allery":4110,"adron":4111,"34":4112,"Ġclubs":4113,"ĠHon":4114,"ĠBudd":4115,"Ġcommand":4116,"bed":4117,"Ġ1966":4118,"ĠTri":4119,"Ġdesp":4120,"ella":4121,"Ġrepresented":4122,"Comp":4123,"Ġcourse":4124,"Ġoil":4125,"Ġchief":4126,"ĠKar":4127,"gent":4128,"Ġ1940":4129,"Ġinh":4130,"espite":4131,"aya":4132,"Ġsea":4133,"ective":4134,"Ġdomin":4135,"188":4136,"ĠPrize":4137,"atri":4138,"Ġeastern":4139,"Ġseat":4140,"Ġfle":4141,"Ġvalue":4142,"Ġplatform":4143,"Ġinitially":4144,"Ġwords":4145,"ias":4146,"ĠCross":4147,"Ġexc":4148,"lit":4149,"Ġwoman":4150,"38":4151,"Ġrecent":4152,"ublican":4153,"Ġlaunched":4154,"axim":4155,"Ġshown":4156,"Ġ1930":4157,"awa":4158,"Ġinterview":4159,"Ġcandid":4160,"Ġdire":4161,"acher":4162,"eeks":4163,"Ġblock":4164,"add":4165,"ĠBlue":4166,"war":4167,"Ġhot":4168,"left":4169,"Ġsingles":4170,"Ġproposed":4171,"Ġcreate":4172,"Ġtradition":4173,"ricts":4174,"ĠGen":4175,"ĠJo":4176,"Ġmetal":4177,"Aust":4178,"press":4179,"Ġsupported":4180,"90":4181,"Ġtracks":4182,"writer":4183,"ĠMen":4184,"ĠMot":4185,"Ġdouble":4186,"inem":4187,"ĠEdward":4188,"Ġentered":4189,"Ġlatter":4190,"Ã¸":4191,"Ġquick":4192,"Ġdecision":4193,"ĠAz":4194,"ĠBor":4195,"2002":4196,"Ġhistorical":4197,"more":4198,"adelph":4199,"36":4200,"inent":4201,"amm":4202,"unc":4203,"Ġstep":4204,"iga":4205,"state":4206,"Ġrule":4207,"inet":4208,"ĠBus":4209,"ÅŁ":4210,"Ġoffered":4211,"wide":4212,"ĠRo":4213,"ounds":4214,"down":4215,"Ġstructures":4216,"45":4217,"Ġ|":4218,"ĠTurkey":4219,"ĠEgypt":4220,"ĠTime":4221,"ables":4222,"Ġtakes":4223,"Ġtroops":4224,"ĠMu":4225,"Ġproblems":4226,"ĠBab":4227,"ulty":4228,"ĠGood":4229,"37":4230,"col":4231,"ĠMos":4232,"Ġepisodes":4233,"Ġ1965":4234,"Ġconditions":4235,"adelphia":4236,"Ġmakes":4237,"rupt":4238,"Films":4239,"unn":4240,"ora":4241,"onic":4242,"Ġcontinu":4243,"Ġbrand":4244,"zech":4245,"Å¡":4246,"ector":4247,"ĠBelg":4248,"amin":4249,"ĠBoston":4250,"aka":4251,"Ġprevent":4252,"shire":4253,"pre":4254,"rison":4255,"ira":4256,"Ġdetail":4257,"ronic":4258,"Ġang":4259,"Rec":4260,"iring":4261,"riz":4262,"Med":4263,"Ġclaimed":4264,"2001":4265,"stant":4266,"Ġnecess":4267,"Ġmainly":4268,"ĠFour":4269,"va":4270,"Ġlic":4271,"Ġcitiz":4272,"ĠGar":4273,"ĠNot":4274,"ĠLu":4275,"Ġcarried":4276,"Ġlove":4277,"yan":4278,"isters":4279,"Ġlikely":4280,"nam":4281,"ĠLine":4282,"Ġremaining":4283,"Ġi":4284,"rovers":4285,"aily":4286,"Ġgrowth":4287,"Ġleaving":4288,"ĠBoard":4289,"tra":4290,"Ġhours":4291,"ĠWind":4292,"iger":4293,"Ġnine":4294,"phy":4295,"ĠCard":4296,"ĠBBC":4297,"Brit":4298,"agn":4299,"Ġmiddle":4300,"SP":4301,"Ġnature":4302,"Ġmanagement":4303,"ĠFrancisco":4304,"Ġuniversity":4305,"Ġtechnology":4306,"ĠOtt":4307,"ela":4308,"Ġarrest":4309,"ĠMore":4310,"ĠResearch":4311,"Ġcause":4312,"Ġincreasing":4313,"emorial":4314,"Ġop":4315,"areer":4316,"ĠCa":4317,"Ġ1920":4318,"Ġpolicy":4319,"Ġdirectly":4320,"Ġresponse":4321,"owers":4322,"itude":4323,"Ġbrief":4324,"Ġcommission":4325,"ously":4326,"Ġproducts":4327,"apers":4328,"Ġeffects":4329,"Ġofficer":4330,"ko":4331,"Ġdyn":4332,"Ġheavy":4333,"Ġfederal":4334,"Ġpit":4335,"1990":4336,"Ġblood":4337,"Ġlegisl":4338,"Ġsources":4339,"Ġnearly":4340,"ĠTre":4341,"Ġcomment":4342,"isher":4343,"Ġhere":4344,"Ġalign":4345,"ĠEngine":4346,"Ġselected":4347,"AR":4348,"Ġrecords":4349,"Ġfoot":4350,"Ġdone":4351,"ĠElect":4352,"bre":4353,"ĠWomen":4354,"ĠRoute":4355,"etts":4356,"iÄĩ":4357,"ĠJones":4358,"Ġwhether":4359,"Ġexcept":4360,"Ġsubsequently":4361,"ologist":4362,"Ġcollect":4363,"istance":4364,"Ġdiss":4365,"Ġoverall":4366,"ĠLim":4367,"47":4368,"Ġsister":4369,"peror":4370,"aine":4371,"Ġcoaches":4372,"Ġreason":4373,"Ġjob":4374,"inois":4375,"Ġbomb":4376,"Ġtarg":4377,"ĠCoast":4378,"ĠJr":4379,"Ġconfl":4380,"ortun":4381,"ER":4382,"ĠJul":4383,"ronze":4384,"ĠPrince":4385,"ĠBerlin":4386,"icted":4387,"ĠWall":4388,"ishes":4389,"ĠPacific":4390,"Ġpil":4391,"ograp":4392,"Ġadj":4393,"ydro":4394,"ĠFer":4395,"Ġlabel":4396,"ĠHa":4397,"Ġdiscovered":4398,"ĠMat":4399,"Ġsymb":4400,"ĠConference":4401,"ĠWal":4402,"ĠSI":4403,"Ġweeks":4404,"Ġcateg":4405,"text":4406,"hens":4407,"Ġacquired":4408,"Ġrules":4409,"Ġlevels":4410,"ĠGeorgia":4411,"ĠCharl":4412,"ĠProfess":4413,"Ġscore":4414,"Ġprovides":4415,"Further":4416,"ĠTheir":4417,"ĠChief":4418,"Ġfailed":4419,"orship":4420,"Ġfort":4421,"ĠIslands":4422,"ĠMcC":4423,"ĠMichigan":4424,"Ġ35":4425,"Ġfinancial":4426,"obile":4427,"Mar":4428,"nic":4429,"uate":4430,"astic":4431,"ĠNight":4432,"Ġconsists":4433,"ĠSo":4434,"2010":4435,"Ġautom":4436,"ĠDev":4437,"vement":4438,"onia":4439,"1999":4440,"With":4441,"ging":4442,"2008":4443,"ĠWay":4444,"ĠArm":4445,"Ġeditor":4446,"ĠĊĠĊĠĊĠĊ":4447,"ĠTw":4448,"chen":4449,"bs":4450,"ĠUr":4451,"ĠOhio":4452,"urt":4453,"Ġagric":4454,"Ġcrew":4455,"Ġdeep":4456,"ĠCommon":4457,"Ġcommonly":4458,"ĠMajor":4459,"Ġproduce":4460,"ĠVer":4461,"No":4462,"ĠMatt":4463,"\"|":4464,"Ġretired":4465,"achus":4466,"enger":4467,"Ġdivided":4468,"Ġserving":4469,"Ġgoals":4470,"oud":4471,"ĠOf":4472,"etro":4473,"Not":4474,"Ġprimarily":4475,"illy":4476,"range":4477,"Ġformat":4478,"Ġtypes":4479,"Ġpsych":4480,"Ġpoor":4481,"yer":4482,"ervation":4483,"Ġ1963":4484,"31":4485,"arters":4486,"ĠNA":4487,"Ġconcept":4488,"ĠIran":4489,"Ġpos":4490,"Ġturned":4491,"IA":4492,"Ġmovie":4493,"Ġdespite":4494,"ĠUl":4495,"ĠStep":4496,"Ġsal":4497,"Ġcultural":4498,"Ġwhole":4499,"Ġaffili":4500,"ilies":4501,"Ġfinally":4502,"From":4503,"ja":4504,"adian":4505,"ĠArmen":4506,"Ġsoftware":4507,"ĠUnivers":4508,"ĠAk":4509,"ĠCorn":4510,"Ġprogramming":4511,"teen":4512,"Ġpresented":4513,"ĠBridge":4514,"Ġrecording":4515,"Trans":4516,"Ġgoing":4517,"ackson":4518,"track":4519,"Ġera":4520,"ellig":4521,"respond":4522,"ĠBern":4523,"ession":4524,"ĠConf":4525,"Ġtypically":4526,"ĠWeb":4527,"Ġmuseum":4528,"Ġunc":4529,"Ġrugby":4530,"ĠShow":4531,"ĠKe":4532,"Ġdro":4533,"ĠBal":4534,"olis":4535,"Ġplans":4536,"Ġsoldiers":4537,"Ġweap":4538,"ĠPeople":4539,"Ġacademic":4540,"ĠBand":4541,"Ġoperation":4542,"cean":4543,"Ġasp":4544,"Ġ1962":4545,"95":4546,"ĠJohnson":4547,"Ġlaws":4548,"imal":4549,"Ġmedical":4550,"ĠRel":4551,"ĠBoy":4552,"weg":4553,"Ġdefin":4554,"ĠPhiladelphia":4555,"umed":4556,"Ġinn":4557,"Ġborder":4558,"ĠOver":4559,"ĠChild":4560,"illed":4561,"Ġcommunities":4562,"Ġbehav":4563,"Ġbring":4564,"Ġsociety":4565,"poration":4566,"Ġwidely":4567,"ĠConn":4568,"ĠOxford":4569,"ĠLibrary":4570,"acity":4571,"ambig":4572,"hemat":4573,"ĠSpecial":4574,"iy":4575,"Ġproblem":4576,"ĠIllinois":4577,"Le":4578,"British":4579,"Ġconver":4580,"Ġterritory":4581,"chestra":4582,"eld":4583,"ĠGirl":4584,"When":4585,"alle":4586,"Ġult":4587,"Ġcode":4588,"ault":4589,"Ġbeat":4590,"iform":4591,"ĠLater":4592,"Ġdisplay":4593,"32":4594,"Ġappl":4595,"encies":4596,"achusetts":4597,"ww":4598,"Ġminutes":4599,"ĠUSA":4600,"ĠAdd":4601,"ĠPolish":4602,"Ġinitial":4603,"Ġchall":4604,"ĠBang":4605,"Ġkind":4606,"Ġcouncil":4607,"ĠJews":4608,"no":4609,"Ġcomedy":4610,"ĠDie":4611,"rice":4612,"ĠCy":4613,"undred":4614,"lav":4615,"org":4616,"Ġdrug":4617,"abeth":4618,"ĠHung":4619,"Ġenough":4620,"iece":4621,"oura":4622,"Ġsenior":4623,"Ġtable":4624,"ennis":4625,"ĠPers":4626,"light":4627,"Ġcard":4628,"Ġarticle":4629,"Ġrat":4630,"ĠJustice":4631,"Ġstarting":4632,"Ġsmaller":4633,"uilding":4634,"Ġresponsible":4635,"Ġplays":4636,"Ġvoice":4637,"ĠSports":4638,"ĠTem":4639,"fect":4640,"Ġcat":4641,"ĠGame":4642,"ption":4643,"mir":4644,"Ġ1944":4645,"Is":4646,"ĠEnter":4647,"ederation":4648,"Ġchannel":4649,"CO":4650,"Ġonline":4651,"Ġsilver":4652,"Ġidea":4653,"ĠRay":4654,"ulpt":4655,"cles":4656,"ĠJac":4657,"Ġdead":4658,"Ġcomposed":4659,"ĠBet":4660,"ntario":4661,"ĠGovernor":4662,"ĠLuc":4663,"Ġpath":4664,"Ġships":4665,"Music":4666,"rance":4667,"Ġroom":4668,"ĠCentre":4669,"Ġphysical":4670,"str":4671,"186":4672,"ĠOk":4673,"Ġâ":4674,"ĠBell":4675,"ully":4676,"Ġhelped":4677,"Ġhouses":4678,"ĠEnd":4679,"Ġconcent":4680,"Ġnewspaper":4681,"Ġexperience":4682,"orph":4683,"ĠWater":4684,"Ġcharg":4685,"Ġbasis":4686,"ĠBir":4687,"United":4688,"ĠHuman":4689,"Ġchair":4690,"ĠÅ":4691,"ĠInt":4692,"55":4693,"icks":4694,"ĠRome":4695,"ĠLittle":4696,"thur":4697,"48":4698,"Ġbr":4699,"mann":4700,"Ġdepart":4701,"ambiguation":4702,"Ġrenamed":4703,"ĠTop":4704,"rolled":4705,"Ġliterature":4706,"Ġdra":4707,"Se":4708,"ais":4709,"2009":4710,"Ġbecomes":4711,"Ġshoot":4712,"class":4713,"ĠOs":4714,"urd":4715,"ocks":4716,"aven":4717,"Ġplants":4718,"antry":4719,"ĠWilliams":4720,"formed":4721,"Ġofficers":4722,"National":4723,"oli":4724,"ĠWild":4725,"Ġimplement":4726,"Ġintended":4727,"Ġcommit":4728,"ĠSyd":4729,"Ġhighly":4730,"bourne":4731,"ĠLew":4732,"ighter":4733,"Ġfocus":4734,"ĠAvenue":4735,"Ġrap":4736,"Ġquarter":4737,"ĠCorps":4738,"ĠVictoria":4739,"LA":4740,"Ġcollabor":4741,"Ġpeak":4742,"Ġraised":4743,"ĠHor":4744,"akh":4745,"ĠVan":4746,"Ġsucceed":4747,"ivity":4748,"Ġincorpor":4749,"Ġmentioned":4750,"99":4751,"thing":4752,"place":4753,"Ġnearby":4754,"Ġbranch":4755,"enant":4756,"Man":4757,"Ġregional":4758,"ĠJournal":4759,"Pop":4760,"Ġability":4761,"Ġcontinue":4762,"get":4763,"1998":4764,"present":4765,"lem":4766,"ĠStan":4767,"ĠBat":4768,"1997":4769,"ID":4770,"Ġdial":4771,"Ġsites":4772,"Ġ1958":4773,"ĠPo":4774,"ĠGree":4775,"arry":4776,"ĠBaseball":4777,"Career":4778,"agh":4779,"Ġmatches":4780,"ĠMassachusetts":4781,"disambiguation":4782,"Ġaddress":4783,"osophy":4784,"Ġassistant":4785,"Ġscholars":4786,"ĠViet":4787,"Ġmodels":4788,"Ġlearn":4789,"Ġcovered":4790,"oles":4791,"Ġregions":4792,"Ġconstructed":4793,"Ġcolor":4794,"ĠJoe":4795,"ucky":4796,"Ġgas":4797,"ĠGh":4798,"ador":4799,"Ġ1948":4800,"Ã¡n":4801,"Ġvon":4802,"Ġremoved":4803,"ĠSa":4804,"ĠRog":4805,"ĠBoth":4806,"ĠJackson":4807,"Ġreplace":4808,"yt":4809,"ĠAsh":4810,"da":4811,"Ġcars":4812,"Ġgod":4813,"Ġcontrovers":4814,"ĠPoland":4815,"ez":4816,"ansion":4817,"inger":4818,"ĠAndrew":4819,"ĠNorway":4820,"Ġdescent":4821,"ĊĊĠ":4822,"Ġmanaged":4823,"rog":4824,"imb":4825,"force":4826,"Ġupper":4827,"orning":4828,"ĠDec":4829,"rier":4830,"Ġface":4831,"which":4832,"Ġhosted":4833,"Or":4834,"itage":4835,"ĠÂ£":4836,"Ġdirection":4837,"ube":4838,"Ġleave":4839,"Ġbelong":4840,"Ġox":4841,"187":4842,"According":4843,"Ġshare":4844,"Ġ1961":4845,"Ġelectric":4846,"Ġlargely":4847,"Ġneighbor":4848,"Ġstudied":4849,"Ġfeaturing":4850,"ĠRevolution":4851,"enty":4852,"ĠOntario":4853,"Ġappearances":4854,"Ġconne":4855,"Ġmeeting":4856,"wick":4857,"ĠSand":4858,"ibli":4859,"Ġ)":4860,"ĠMov":4861,"Ġestimated":4862,"Ġindividuals":4863,"ĠSydney":4864,"Ġslow":4865,"Ġsched":4866,"ĠSev":4867,"Ġprogress":4868,"idae":4869,"agon":4870,"Ġstories":4871,"ĠJunior":4872,"Ġprec":4873,"Ġ80":4874,"duce":4875,"opher":4876,"ĠStation":4877,"Ġtreatment":4878,"Ġfigure":4879,"Ġelement":4880,"Ġadopted":4881,"ĠTod":4882,"odies":4883,"Ġ1959":4884,"olved":4885,"Ġfacilities":4886,"esh":4887,"Ġheart":4888,"ĠJeff":4889,"onto":4890,"Ġpotential":4891,"Ġnative":4892,"Nov":4893,"usc":4894,"Ġdeliver":4895,"edom":4896,"Ġcorrespond":4897,"Ġquestion":4898,"ĠKong":4899,"MA":4900,"ĠPower":4901,"Ġgot":4902,"Ġprin":4903,"Ġasked":4904,"Ġchart":4905,"Ġdrama":4906,"Ġpaint":4907,"ĠCat":4908,"Ġstadium":4909,"ĠOpen":4910,"olitan":4911,"Ġnotable":4912,"part":4913,"Ġcombined":4914,"ĠCreek":4915,"Ġ1956":4916,"rical":4917,"ĠCzech":4918,"ĠThree":4919,"Ġpersonnel":4920,"Ġworkers":4921,"500":4922,"Ġsettlement":4923,"44":4924,"Ġour":4925,"oln":4926,"Ġnation":4927,"ocated":4928,"Ġserve":4929,"enes":4930,"Ġpresence":4931,"ĠInf":4932,"Ġstay":4933,"Ġparents":4934,"ĠHind":4935,"peed":4936,"Ġut":4937,"wegian":4938,"Ġcomes":4939,"see":4940,"Ġrepe":4941,"Ġletter":4942,"Austral":4943,"Ġhap":4944,"She":4945,"Ġplanned":4946,"ĠKir":4947,"Ġyet":4948,"Ġprovince":4949,"ĠFar":4950,"ternet":4951,"ordin":4952,"bro":4953,"ĠBon":4954,"Ġoperating":4955,"Ġanalysis":4956,"Ġinside":4957,"rie":4958,"ĠChap":4959,"ĠRepublican":4960,"ĠOrgan":4961,"Ġwanted":4962,"Ġolder":4963,"Ġpick":4964,"ĠPop":4965,"Ġtherefore":4966,"ski":4967,"Ġeconomy":4968,"ĠKenn":4969,"gu":4970,"ĠEll":4971,"ĠMike":4972,"Ġassociation":4973,"ĠOffice":4974,"Ġcompared":4975,"Ġversions":4976,"Ġissued":4977,"Ġadministration":4978,"ĠStr":4979,"izes":4980,"Ġdestroyed":4981,"ĠEp":4982,"ĠPen":4983,"Ġdistinct":4984,"ĠForest":4985,"Ġpaper":4986,"Ġmaster":4987,"unct":4988,"language":4989,"aging":4990,"Ġblue":4991,"yric":4992,"estab":4993,"ĠKorea":4994,"Ġlif":4995,"stone":4996,"ibly":4997,"ĠUk":4998,"1980":4999,"etherlands":5000,"Ġdemonst":5001,"ancy":5002,"Ġcoin":5003,"ager":5004,"Ġtold":5005,"ĠFoundation":5006,"ĠBh":5007,"Ġsplit":5008,"Ġleaders":5009,"ĠMir":5010,"Ġsecurity":5011,"Ġ+":5012,"oned":5013,"Ġrare":5014,"ns":5015,"Ġstreng":5016,"Ġcounty":5017,"Ġmusicians":5018,"One":5019,"ifying":5020,"Don":5021,"ogue":5022,"cluding":5023,"Ġquickly":5024,"Ġ1942":5025,"throp":5026,"perial":5027,"ava":5028,"ĠHighway":5029,"Ġarms":5030,"Ġscene":5031,"orter":5032,"Ġcounter":5033,"icine":5034,"Ġcapacity":5035,"Ġ1957":5036,"Ġofficially":5037,"Ġequipment":5038,"ĠAh":5039,"1996":5040,"ĠAut":5041,"itzer":5042,"ĠIra":5043,"oration":5044,"Ġawards":5045,"Ġflight":5046,"iated":5047,"Ġdedicated":5048,"World":5049,"Ġ1943":5050,"ĠNations":5051,"ĠTrust":5052,"Members":5053,"Ġstore":5054,"inity":5055,"Ġamb":5056,"Ġorganizations":5057,"Ġprof":5058,"acter":5059,"Ġsens":5060,"alion":5061,"Ġsac":5062,"ĠDirector":5063,"vin":5064,"Ġ1947":5065,"ĠBa":5066,"igen":5067,"ĠMP":5068,"Ġacid":5069,"ĠTam":5070,"ixed":5071,"ĠSupreme":5072,"ĠHead":5073,"Ġfifth":5074,"hew":5075,"Ġactivity":5076,"orado":5077,"Ġmarriage":5078,"Ġdisease":5079,"Ġcorn":5080,"Ġneeded":5081,"Ġurban":5082,"edd":5083,"vis":5084,"ression":5085,"Ġgun":5086,"ĠPubl":5087,"Ã±":5088,"Rail":5089,"met":5090,"Ġsamp":5091,"ĠĠĠ":5092,"Ġpal":5093,"Ġdog":5094,"ĠCroat":5095,"yth":5096,"ĠSerb":5097,"ĠNFL":5098,"unction":5099,"Ġstra":5100,"inson":5101,"Ġindustrial":5102,"Ġexecutive":5103,"Ġfamilies":5104,"ĠLes":5105,"rect":5106,"Ġvan":5107,"ĠProt":5108,"Ġimpact":5109,"Ġalongside":5110,"1995":5111,"Ġnuclear":5112,"ĠProgram":5113,"ĠHistoric":5114,"Ġhonor":5115,"Ġcerem":5116,"ĠBol":5117,"Ġgreater":5118,"Ġprobably":5119,"FC":5120,"Ã¼r":5121,"Ġlay":5122,"ĠJean":5123,"Ġresidents":5124,"ĠCambridge":5125,"ĠField":5126,"ĠPremier":5127,"arp":5128,"Ġdark":5129,"incoln":5130,"urches":5131,"Ġec":5132,"yal":5133,"Ġwithd":5134,"2011":5135,"uls":5136,"iced":5137,"Ġvari":5138,"ii":5139,"Ġdistance":5140,"Ġcells":5141,"usband":5142,"Ġresulting":5143,"Ġ1939":5144,"Ġinstrument":5145,"Ġpage":5146,"Ġcontact":5147,"Ġenem":5148,"HL":5149,"Ġexec":5150,"Ġextra":5151,"By":5152,"ĠOb":5153,"ecause":5154,"Ġetc":5155,"Ġdance":5156,"Ġparties":5157,"Ġpeace":5158,"Ġfriends":5159,"mas":5160,"otic":5161,"ecting":5162,"Men":5163,"ĠPost":5164,"Ġcitizens":5165,"ĠLight":5166,"ĠNaz":5167,"German":5168,"ictional":5169,"ĠAD":5170,"ĠBatt":5171,"ĠHal":5172,"ĠCountry":5173,"Ġ180":5174,"Ġtree":5175,"Ġsearch":5176,"yo":5177,"ĠBos":5178,"Ġinstitutions":5179,"46":5180,"Ġearned":5181,"Ġcannot":5182,"ĠRaj":5183,"vest":5184,"asty":5185,"Ġsculpt":5186,"Ġimmediately":5187,"ĠWilson":5188,"agement":5189,"Ġillust":5190,"VD":5191,"May":5192,"Ġarrived":5193,"ĠCommunity":5194,"Ġbal":5195,"Ġ1946":5196,"Ġthous":5197,"ĠHome":5198,"ĠJes":5199,"ĠDevelopment":5200,"Ġreach":5201,"Ġrespectively":5202,"Ġgreen":5203,"ĠOfficial":5204,"Ġrecover":5205,"Ġsecondary":5206,"2012":5207,"Ġ500":5208,"ĠDemocratic":5209,"onents":5210,"una":5211,"ĠTay":5212,"eman":5213,"ilation":5214,"ĠAlf":5215,"ĠRod":5216,"ĠFox":5217,"ieut":5218,"lers":5219,"ilton":5220,"uts":5221,"ĠFamily":5222,"Ġpattern":5223,"ĠEst":5224,"Ġuns":5225,"Ġtarget":5226,"Ġsn":5227,"ĠKen":5228,"ĠQueens":5229,"Ġ1955":5230,"IS":5231,"Ġattract":5232,"Ġaim":5233,"Ġresulted":5234,"mad":5235,"Ġpra":5236,"Ġgraph":5237,"Ġmountain":5238,"ĠSteve":5239,"pper":5240,"dam":5241,"log":5242,"Ġcle":5243,"Ġdistricts":5244,"Ġdefined":5245,"Ġparish":5246,"restling":5247,"Ġperman":5248,"Ġcenturies":5249,"ĠNetherlands":5250,"Ġordered":5251,"Ġcharge":5252,"Ġathlet":5253,"aped":5254,"Ġhundred":5255,"ĠTurkish":5256,"ĠCop":5257,"ĠArgent":5258,"Ġfavor":5259,"erc":5260,"Ġexpanded":5261,"ES":5262,"Ġovers":5263,"imin":5264,"ĠCorporation":5265,"Ġcalc":5266,"100":5267,"ĠEarl":5268,"Ġactually":5269,"izabeth":5270,"ĠAnother":5271,"AC":5272,"Ã£":5273,"rence":5274,"56":5275,"Ġthink":5276,"uese":5277,"yg":5278,"uct":5279,"Ġcreation":5280,"ba":5281,"ĠManchester":5282,"Ġprofessor":5283,"ĠHockey":5284,"Ġtrains":5285,"ĠRam":5286,"Ġtransferred":5287,"pass":5288,"Ġprominent":5289,"EC":5290,"Ġgiving":5291,"ĠFederal":5292,"Ġelections":5293,"ĠIndiana":5294,"estic":5295,"ollo":5296,"ĠAlso":5297,"Ac":5298,"ented":5299,"Ġhospital":5300,"ghan":5301,"',":5302,"Ġlives":5303,"Ġgrew":5304,"Ġ70":5305,"ĠRegion":5306,"Ġtowns":5307,"ker":5308,"Ġpartn":5309,"Ġanimals":5310,"worth":5311,"Ġreduced":5312,"Ġspread":5313,"onent":5314,"Ġ1941":5315,"Ġwinners":5316,"ĠBad":5317,"Ne":5318,"Ġfast":5319,"Ġfollows":5320,"Ġspirit":5321,"ĠTal":5322,"itled":5323,"Ġfish":5324,"Ġproperties":5325,"Ġaccepted":5326,"Ġpositive":5327,"Ġtrue":5328,"cest":5329,"Ġpan":5330,"ĠLewis":5331,"ĠWork":5332,"ĠJon":5333,"ething":5334,"Cy":5335,"General":5336,"Pr":5337,"water":5338,"Ġpurchased":5339,"ĠĠĊ":5340,"aron":5341,"ooth":5342,"sey":5343,"Ġattend":5344,"ropolitan":5345,"54":5346,"ĠFollowing":5347,"Ġ1953":5348,"alo":5349,"Ġagreed":5350,"Ġwins":5351,"Ġconducted":5352,"Ġvehicles":5353,"usion":5354,"ima":5355,"ĠAirport":5356,"Ġmixed":5357,"ĠFame":5358,"Ġcontinues":5359,"Ġmedalists":5360,"ila":5361,"Ġminister":5362,"ĠTony":5363,"Ġidentified":5364,"Ġ1952":5365,"Ġexperiment":5366,"ione":5367,"sky":5368,"Ġsolo":5369,"Ġagreement":5370,"ĠBulg":5371,"osis":5372,"aph":5373,"ĠBalt":5374,"ĠAthlet":5375,"Ġpressure":5376,"ographic":5377,"ĠStat":5378,"Ġwalk":5379,"eech":5380,"enge":5381,"ĠÎ":5382,"Ġmagn":5383,"rone":5384,"Ġsuggested":5385,"Ġdeclared":5386,"Ġwinner":5387,"ining":5388,"itness":5389,"ĠAst":5390,"uting":5391,"Ġrelatively":5392,"ibliography":5393,"innes":5394,"Ġmemory":5395,"ĠBah":5396,"Ġquality":5397,"Ġ1954":5398,"Ġtitles":5399,"Ġmoving":5400,"Ġsaying":5401,"Ġpp":5402,"Ġmess":5403,"Ġbott":5404,"Ġcondition":5405,"omers":5406,"Ġcontemporary":5407,"Ġfellow":5408,"ĠRegiment":5409,"And":5410,"Ġformation":5411,"ĠÐ":5412,"Olymp":5413,"Ġopportun":5414,"Ġmotor":5415,"olid":5416,"quarters":5417,"ĠForm":5418,"ĠPrime":5419,"ĠPhilipp":5420,"58":5421,"ĠDespite":5422,"Ġsyn":5423,"iary":5424,"Ġfell":5425,"Personal":5426,"Ġapproach":5427,"1994":5428,"miss":5429,"Ġhydro":5430,"Ġprojects":5431,"Ġaband":5432,"Ġhusband":5433,"Ġhop":5434,"AA":5435,"Ġtermin":5436,"mes":5437,"ĠAnton":5438,"rizona":5439,"ji":5440,"ĠSanta":5441,"ocese":5442,"innesota":5443,"Ġyouth":5444,"aling":5445,"ĠProject":5446,"ĠSecretary":5447,"ieutenant":5448,"vey":5449,"Ġenter":5450,"Ġassigned":5451,"wing":5452,"49":5453,"Ġpict":5454,"Ġvote":5455,"Ġdepartment":5456,"Ġmarked":5457,"ĠCas":5458,"ĠBaron":5459,"Ġmissing":5460,"abb":5461,"Ġseg":5462,"ifications":5463,"oured":5464,"Ġattacks":5465,"Ġconflict":5466,"Ġclassical":5467,"ĠWat":5468,"ighth":5469,"Ġ90":5470,"Ġefforts":5471,"Ġcontain":5472,"Ġknowledge":5473,"Ġrecently":5474,"Ġoccurred":5475,"78":5476,"Ġnovels":5477,"Ġpromoted":5478,"ĠCO":5479,"Ġexpansion":5480,"Ġallows":5481,"Ġfully":5482,"ĠRem":5483,"Ġfeel":5484,"76":5485,"ĠNetwork":5486,"Ġpurs":5487,"Ġnet":5488,"Ġformerly":5489,"Ġcampus":5490,"ĠUt":5491,"Ġheav":5492,"Ġsemi":5493,"Canadian":5494,"bec":5495,"Ġtele":5496,"ounded":5497,"Ġcricket":5498,"Ġsurrounding":5499,"wealth":5500,"eral":5501,"ĠFair":5502,"ĠAsian":5503,"Ġlies":5504,"Ġmicro":5505,"Ġtraffic":5506,"ĠIraq":5507,"Ġserious":5508,"amber":5509,"Ġweight":5510,"Be":5511,"igration":5512,"enness":5513,"Ġowner":5514,"ĠSher":5515,"Ġir":5516,"Ġ1949":5517,"ova":5518,"Ġ36":5519,"Ġrevealed":5520,"US":5521,"Polit":5522,"Ġtheater":5523,"Ġ32":5524,"His":5525,"Ġjoint":5526,"ening":5527,"Ġhar":5528,"anga":5529,"ĠToronto":5530,"olec":5531,"ĠIndepend":5532,"Ġrain":5533,"iques":5534,"isms":5535,"outheast":5536,"ĠMarine":5537,"enz":5538,"Ġsubs":5539,"ĠHoly":5540,"ĠEconom":5541,"Ġallowing":5542,"ĠGuard":5543,"ĠÄ":5544,"Ġtim":5545,"omic":5546,"Ġoffers":5547,"rade":5548,"tters":5549,"anges":5550,"42":5551,"Ġattention":5552,"Ġvac":5553,"%)":5554,"ĠLady":5555,"nce":5556,"cluded":5557,"osh":5558,"ÅĤ":5559,"Ġchap":5560,"iat":5561,"ĠCE":5562,"Ġvillages":5563,"ĠBall":5564,"isted":5565,"Ġsales":5566,"utional":5567,"Ġemb":5568,"ĠMedia":5569,"Ġbegins":5570,"OS":5571,"Ġmethods":5572,"ĠBrig":5573,"ÄŁ":5574,"Ġgives":5575,"Ġroles":5576,"Ġslight":5577,"iec":5578,"ĠAff":5579,"Ġcolumn":5580,"ĠLincoln":5581,"Ġpack":5582,"Ġstreet":5583,"osen":5584,"Ġbackground":5585,"ĠElizabeth":5586,"Ġdistribution":5587,"Ġgained":5588,"igrants":5589,"Ġcoming":5590,"Ġengineer":5591,"Ġgovernor":5592,"iling":5593,"ructure":5594,"Ġjournalist":5595,"Notable":5596,"kin":5597,"ĠDar":5598,"gs":5599,"Ġwa":5600,"Ġsuggest":5601,"ĠBeach":5602,"iments":5603,"Ġnewly":5604,"ĠAbb":5605,"Ġfiction":5606,"Ġreference":5607,"West":5608,"jan":5609,"Ġsynt":5610,"ĠTok":5611,"ĠStand":5612,"eather":5613,"ĠDaniel":5614,"Ġcaptured":5615,"ĠHong":5616,"Ġprep":5617,"Ġinhabit":5618,"book":5619,"Ġclaims":5620,"ĠHay":5621,"Ġdigital":5622,"elligence":5623,"gar":5624,"Ġtal":5625,"Ġstars":5626,"Ġfighting":5627,"ĠDuke":5628,"Ġmachine":5629,"ĠSu":5630,"ĠJoh":5631,"resh":5632,"phas":5633,"ĠClark":5634,"Ġsuffered":5635,"Ġastron":5636,"can":5637,"erved":5638,"Ġportion":5639,"Ġlabor":5640,"ĠBowl":5641,"ĠMoon":5642,"2013":5643,"Ġgranted":5644,"88":5645,"also":5646,"erick":5647,"Ġeas":5648,"Ġhighway":5649,"ĠKansas":5650,"1993":5651,"iate":5652,"Ġoldest":5653,"Ġreform":5654,"ĠRom":5655,"room":5656,"onym":5657,"ancing":5658,"Ġindependence":5659,"ĠFinal":5660,"South":5661,"grad":5662,"anes":5663,"Ġhyp":5664,"ĠOrig":5665,"Ġmaintain":5666,"pool":5667,"1992":5668,"ĠAtt":5669,"ĠGolden":5670,"ĠVen":5671,"Ġquant":5672,"Ġreligion":5673,"ĠSel":5674,"ĠBrad":5675,"fficient":5676,"Ġrecognized":5677,"kh":5678,"ĠBishop":5679,"ĠBeng":5680,"52":5681,"ĠLabor":5682,"ĠLive":5683,"Ġpositions":5684,"million":5685,"ĠStadium":5686,"Ġmill":5687,"ulate":5688,"Ġsafety":5689,"ĠArthur":5690,"ĠBru":5691,"Ġfunctions":5692,"aks":5693,"istered":5694,"ĠBarb":5695,"Ġconnected":5696,"Ġmaxim":5697,"Ġchampion":5698,"uther":5699,"ĠPolice":5700,"Ġdrums":5701,"Ġalternative":5702,"anning":5703,"ĠTechnology":5704,"Ġsuit":5705,"Ġpun":5706,"aki":5707,"Ġnotes":5708,"Ġsimply":5709,"cont":5710,"ĠId":5711,"aints":5712,"ĠMelbourne":5713,"Ġbronze":5714,"Ġmeasure":5715,"Ġfirm":5716,"Ġbad":5717,"Ġlyric":5718,"Ġconsum":5719,"96":5720,"ĠAmericans":5721,"Ġapplied":5722,"kes":5723,"ĠMaster":5724,"Ġspect":5725,"Olympic":5726,"Ġfrequently":5727,"Ġdamage":5728,"ĠAC":5729,"ĠLy":5730,"Ġarchitecture":5731,"Ġresident":5732,"Ġperformances":5733,"ĠColorado":5734,"2014":5735,"Ġengineering":5736,"hol":5737,"ĠEs":5738,"Ġderived":5739,"Ġcomposer":5740,"ĠIndust":5741,"Ġrapid":5742,"AM":5743,"Ġadapt":5744,"Ġsecret":5745,"Ġranked":5746,"Ġmaterials":5747,"Ġmom":5748,"Will":5749,"Ġforward":5750,"Ġletters":5751,"ĠMain":5752,"ĠFire":5753,"ĠCastle":5754,"98":5755,"ois":5756,"Ġsays":5757,"ĠSte":5758,"Ġacting":5759,"We":5760,"ĠColon":5761,"Ġsuppl":5762,"Art":5763,"iants":5764,"ĠBooks":5765,"Ġunderst":5766,"ĠSenate":5767,"Ġgenus":5768,"Ġscientific":5769,"Ġinters":5770,"ĠServices":5771,"Ġstrugg":5772,"Ġpoliticians":5773,"iplom":5774,"ĠTaylor":5775,"works":5776,"ĠChris":5777,"Ġimage":5778,"ĠBrother":5779,"ĠMedal":5780,"Ġtrees":5781,"06":5782,"International":5783,"Ġserves":5784,"Ġcarbon":5785,"ĠRon":5786,"Ġleadership":5787,"ingham":5788,"urrent":5789,"Ġsupply":5790,"Ġ1938":5791,"Ġroyal":5792,"actions":5793,"ban":5794,"ĠSong":5795,"Ġhands":5796,"Ġlisting":5797,"//":5798,"ĠAtlantic":5799,"41":5800,"Ġtemperature":5801,"athan":5802,"2015":5803,"Ġkept":5804,"ensity":5805,"Northern":5806,"Ġlosing":5807,"\"),":5808,"ĠMexican":5809,"oto":5810,"ĠRad":5811,"Ġsector":5812,"enna":5813,"rum":5814,"ĠWars":5815,"ĠRepresent":5816,"ashion":5817,"Ġaccomp":5818,"Ed":5819,"Ġchemical":5820,"Ġauthority":5821,"claim":5822,"Ġwall":5823,"ĠAfghan":5824,"Ġfigures":5825,"ridges":5826,"1970":5827,"ĠStephen":5828,"ervative":5829,"Ġvehicle":5830,"rec":5831,"Ġfloor":5832,"Ġunique":5833,"Ġrob":5834,"ĠStudies":5835,"Ġcompletely":5836,"51":5837,"Ġce":5838,"lyn":5839,"43":5840,"mph":5841,"ĠSciences":5842,"ĠMountain":5843,"erto":5844,"Ġcam":5845,"Ġcritical":5846,"ĠNorwegian":5847,"Ġthings":5848,"speople":5849,"57":5850,"eline":5851,"life":5852,"real":5853,"ĠSant":5854,"ĠUs":5855,"Ġretire":5856,"ĠAuthor":5857,"ĠGreg":5858,"Ġwild":5859,"Ġunknown":5860,"chers":5861,"Ġstone":5862,"former":5863,"Ġadministrative":5864,"Ġmut":5865,"ĠNic":5866,"ĠMinistry":5867,"Ġswim":5868,"engers":5869,"ĠGreece":5870,"ĠBu":5871,"ĠBi":5872,"ĠVill":5873,"University":5874,"97":5875,"ĠTa":5876,"gor":5877,"Ġtwice":5878,"Ġple":5879,"ivals":5880,"everal":5881,"Ġarts":5882,"Ġlaunch":5883,"Ã£o":5884,"Ġnecessary":5885,"ĠUN":5886,"ĠLt":5887,"Track":5888,"Ġtun":5889,"Ġpurpose":5890,"Ġseats":5891,"pret":5892,"Ġgrowing":5893,"86":5894,"ĠDam":5895,"ĠFree":5896,"ĠPortuguese":5897,"Since":5898,"Ġethnic":5899,"illery":5900,"eller":5901,"ĠCirc":5902,"Death":5903,"ĠJer":5904,"Ġspring":5905,"Ġflag":5906,"07":5907,"nia":5908,"aret":5909,"Ġmis":5910,"ĠMinnesota":5911,"1991":5912,"Ġeffective":5913,"ĠKorean":5914,"Â°":5915,"Ġfeed":5916,"Some":5917,"Ġhistorian":5918,"Ġcompar":5919,"Ab":5920,"Ġsense":5921,"Ġroll":5922,"ading":5923,"Ġclimate":5924,"yes":5925,"ĠApollo":5926,"omot":5927,"osa":5928,"ĠWalk":5929,"Ġexpected":5930,"Ġrefers":5931,"yst":5932,"Ġglobal":5933,"Ġexisting":5934,"ĠMemorial":5935,"Ġreceive":5936,"Ġtitled":5937,"Bas":5938,"Ġsituated":5939,"01":5940,"rator":5941,"under":5942,"ailed":5943,"ĠMaria":5944,"ĠSweden":5945,"aug":5946,"Ġcombat":5947,"ibb":5948,"Ġrot":5949,"Television":5950,"lywood":5951,"ĠSem":5952,"ĠHospital":5953,"Ġexchange":5954,"Australian":5955,"ennessee":5956,"Ġ1951":5957,"Ġshowed":5958,"Ġtried":5959,"imens":5960,"ryst":5961,"Ġcontrast":5962,"Ġboy":5963,"Ġfounder":5964,"Ġpair":5965,"ĠAM":5966,"Ġproviding":5967,"je":5968,"rac":5969,"umes":5970,"Ġtaught":5971,"ĠDown":5972,"Ġmeant":5973,"Ġvot":5974,"ieval":5975,"rations":5976,"ĠHan":5977,"ĠGro":5978,"Ġrisk":5979,"ĠLev":5980,"Ġsquare":5981,"Ġbillion":5982,"Ġcontent":5983,"Ġclasses":5984,"'.":5985,"oen":5986,"Ġcontaining":5987,"ĠDun":5988,"ĠMarc":5989,"Ã©e":5990,"Ġpolitics":5991,"Ġmunicipalities":5992,"Ġofficials":5993,"Ġfolk":5994,"ĠKel":5995,"Ġscript":5996,"CD":5997,"Ġleaves":5998,"Ġrestaur":5999,"Ġattempts":6000,"Ġdoub":6001,"weight":6002,"://":6003,"ĠDesign":6004,"Ġtheme":6005,"2016":6006,"Ġfans":6007,"ĠHu":6008,"ĠSon":6009,"ogen":6010,"ĠPrim":6011,"ruit":6012,"ĠMarsh":6013,"lines":6014,"ĠPass":6015,"ĠAustria":6016,"Ġorganized":6017,"Ġmatter":6018,"Ġfair":6019,"ĠLi":6020,"Ġfacility":6021,"ĠPu":6022,"Ġparliament":6023,"rete":6024,"ĠSix":6025,"Ġtrial":6026,"ressed":6027,"Ġadvert":6028,"Ġopposition":6029,"ĠRegional":6030,"Ġextensive":6031,"tainment":6032,"Ġseem":6033,"ĠSpace":6034,"outs":6035,"Ġdistingu":6036,"Ġsets":6037,"Ġprincipal":6038,"Ġwear":6039,"Ġpowers":6040,"Ġmind":6041,"irmed":6042,"emeter":6043,"ĠArea":6044,"ĠSunday":6045,"Ġsituation":6046,"ĠHart":6047,"ĠColl":6048,"Disc":6049,"Ġtheatre":6050,"olished":6051,"Ġvirt":6052,"59":6053,"ĠArizona":6054,"Ġhero":6055,"ĠChannel":6056,"law":6057,"Ġfr":6058,"emetery":6059,"Ġx":6060,"53":6061,"Ġshop":6062,"SR":6063,"Ġoccasion":6064,"08":6065,"Ġfelt":6066,"Ġsexual":6067,"Ġhy":6068,"ĠRoss":6069,"unte":6070,"Ġconstant":6071,"lov":6072,"enh":6073,"Ġsides":6074,"Ġburn":6075,"ĠPlan":6076,"achel":6077,"Ġdecre":6078,"Ġsignal":6079,"Ġconstitu":6080,"inth":6081,"Ġharm":6082,"ĠAnth":6083,"Ġpoll":6084,"Ġreject":6085,"Ġprotection":6086,"Ġalt":6087,"gn":6088,"Ġbra":6089,"Ġvocal":6090,"load":6091,"zy":6092,"Ġalle":6093,"Ġspons":6094,"ania":6095,"ĠTest":6096,"Ġrecomm":6097,"Ġestate":6098,"Ġrural":6099,"ĠHun":6100,"ads":6101,"Sport":6102,"ĠGer":6103,"Ġattrib":6104,"Ġring":6105,"inner":6106,"aming":6107,"ifically":6108,"ĠReview":6109,"ĠBuddh":6110,"Reg":6111,"ĠSpring":6112,"Ġbasic":6113,"Ġcomposition":6114,"ika":6115,"vard":6116,"western":6117,"Res":6118,"from":6119,"elle":6120,"Ġ1918":6121,"ragon":6122,"fall":6123,"anger":6124,"hedral":6125,"ĠKentucky":6126,"ĠDor":6127,"Ġracing":6128,"ĠDavis":6129,"Ġsubsequent":6130,"car":6131,"Ġobjects":6132,"Ġeffort":6133,"ĠAud":6134,"tery":6135,"Ãº":6136,"oes":6137,"Ġarrang":6138,"Ġinhabitants":6139,"Ġsettled":6140,"ĠChile":6141,"inder":6142,"ĠSquadron":6143,"elsh":6144,"ĠLabour":6145,"wich":6146,"ultan":6147,"ĠMun":6148,"Ġauthorities":6149,"Ġhabit":6150,"ĠMicro":6151,"Ġdesignated":6152,"ĠIV":6153,"Ġinspired":6154,"Ġconvers":6155,"wise":6156,"ĠDer":6157,"Cont":6158,"ĠPit":6159,"ĠStone":6160,"Ġwinter":6161,"Ġtalk":6162,"ogy":6163,"liest":6164,"Ġholds":6165,"ĠBrook":6166,"ĠMunicip":6167,"ĠDick":6168,"ateur":6169,"ĠBrian":6170,"ĠSecurity":6171,"ĠVietnam":6172,"Ġcart":6173,"ĠEP":6174,"Ġexclus":6175,"ĪĴ":6176,"Bibliography":6177,"Ġfestival":6178,"Ġrise":6179,"ĠTelevision":6180,"Ġcrim":6181,"Jan":6182,"ortheast":6183,"Sources":6184,"abama":6185,"Ġ38":6186,"anna":6187,"agues":6188,"Ġraces":6189,"key":6190,"ader":6191,"Ġvalley":6192,"Ġdocumentary":6193,"ĠSab":6194,"Sw":6195,"edia":6196,"Ġfootballers":6197,"ĠTennessee":6198,"Ġcompl":6199,"Ġpowerful":6200,"ĠKhan":6201,"Ġearth":6202,"mouth":6203,"ĠRen":6204,"ĠRet":6205,"Ġenj":6206,"Ġlands":6207,"umin":6208,"Ġcancer":6209,"Ġopposed":6210,"Ġcab":6211,"Ġreports":6212,"ieces":6213,"05":6214,"rin":6215,"Ġsevent":6216,"Ġhistoric":6217,"ĠMiller":6218,"ĠSwedish":6219,"andy":6220,"active":6221,"ĠCare":6222,"Ġstock":6223,"1989":6224,"Ġresistance":6225,"Char":6226,"Ġcrime":6227,"Ġcastle":6228,"Ġvenues":6229,"Ġjourn":6230,"Ġrefused":6231,"Ġpiano":6232,"ĠPolit":6233,"etroit":6234,"ĠSus":6235,"ĠLind":6236,"ĠNeb":6237,"2017":6238,"atriate":6239,"ĠFe":6240,"ivalent":6241,"Ġportray":6242,"Ġattempted":6243,"Ġvolume":6244,"Ġyounger":6245,"urer":6246,"ĠGre":6247,"ĠKim":6248,"ĠChampions":6249,"ĠMax":6250,"Euro":6251,"Par":6252,"Ġfuel":6253,"Ġlocations":6254,"Ġliber":6255,"ĠCaptain":6256,"Ġachieved":6257,"ĠOttoman":6258,"ographer":6259,"Ġconqu":6260,"Ġchosen":6261,"orney":6262,"Wales":6263,"Ġoccupied":6264,"66":6265,"CAA":6266,"Ġemployed":6267,"Ġsimple":6268,"Ġanimal":6269,"ĠNap":6270,"ĠLat":6271,"ĠFederation":6272,"ĠWolf":6273,"oster":6274,"related":6275,"Ġislands":6276,"Christ":6277,"Ġschem":6278,"Ġsucceeded":6279,"March":6280,"ĠCape":6281,"Ġfaculty":6282,"ikh":6283,"Ġfields":6284,"Ġyards":6285,"Ġkingdom":6286,"osaurus":6287,"Ġ(),":6288,"ĠVi":6289,"Ġadvance":6290,"Ġsomething":6291,"Ġadvanced":6292,"ĠModern":6293,"--":6294,"Ġbeaut":6295,"Ġproceed":6296,"onds":6297,"Ġends":6298,"Gu":6299,"rons":6300,"ĠForces":6301,"Former":6302,"rat":6303,"Ġgraduated":6304,"Ġtells":6305,"Ġconverted":6306,"ĠAge":6307,"ĠSlov":6308,"ĠConc":6309,"TS":6310,"greg":6311,"Ġemphas":6312,"ĠLegisl":6313,"Ġnormal":6314,"Ġspok":6315,"ĠCommonwealth":6316,"Ġteaching":6317,"ĠDVD":6318,"uing":6319,"ĠDisc":6320,"Ġstream":6321,"2018":6322,"Ġnob":6323,"orders":6324,"Ġparticipated":6325,"Ġmulti":6326,"Ġreviews":6327,"Ġending":6328,"Ġdrive":6329,"ĠWin":6330,"ouri":6331,"ĠDig":6332,"Ġbey":6333,"orage":6334,"thod":6335,"Ġbelief":6336,"Ġhall":6337,"Ġresources":6338,"ĠProfessor":6339,"inally":6340,"ĠKer":6341,"ĠSimon":6342,"Ġhumans":6343,"%.":6344,"09":6345,"Äį":6346,"Ġlear":6347,"ĠSound":6348,"Ġunable":6349,"Ġ33":6350,"allel":6351,"Ġteacher":6352,"ropri":6353,"El":6354,"cow":6355,"aceae":6356,"inema":6357,"Ġax":6358,"ĠAbd":6359,"ĠCow":6360,"ĠMilitary":6361,"Ġdropped":6362,"rees":6363,"isa":6364,"ĠAcc":6365,"Ġ45":6366,"While":6367,"Ġinjury":6368,"organ":6369,"stream":6370,"ĠWell":6371,"ĠEach":6372,"Ġbeyond":6373,"Ġvess":6374,"Ġdisestab":6375,"Ġgoes":6376,"Ġburied":6377,"Ġ1922":6378,"iot":6379,"ĠStock":6380,"Ġapparent":6381,"orge":6382,"uled":6383,"Ġrough":6384,"ĠColomb":6385,"Ġ1936":6386,"Ġsay":6387,"ĠSav":6388,"Ġ37":6389,"Ġbought":6390,"Ġdeploy":6391,"apore":6392,"Ġvalues":6393,"Ġweapons":6394,"ĠRoy":6395,"Ġauth":6396,"bums":6397,"Ġmusician":6398,"Ġequal":6399,"ĠEntertainment":6400,"ĠMach":6401,"Ġ...":6402,"rine":6403,"Ġdaily":6404,"Ġaudience":6405,"oa":6406,"pet":6407,"Ð°":6408,"Ġpaid":6409,"ĠMarg":6410,"ĠIslamic":6411,"agu":6412,"Ġshared":6413,"ĠAdam":6414,"Ġcandidate":6415,"Ġcritics":6416,"Ġconcert":6417,"Ġcreating":6418,"ĠHou":6419,"agan":6420,"ocation":6421,"Ġchurches":6422,"ek":6423,"ĠFront":6424,"zen":6425,"Ġtouch":6426,"Ġaccident":6427,"Ġobserved":6428,"Ġpromotion":6429,"Ġimpl":6430,"FM":6431,"Ġactions":6432,"ĠBusiness":6433,"\").":6434,"leep":6435,"Ġsetting":6436,"1987":6437,"gers":6438,"ĠBurn":6439,"Ġbor":6440,"achers":6441,"orf":6442,"leveland":6443,"itzerland":6444,"ito":6445,"asure":6446,"Ġmorning":6447,"Ġcoal":6448,"Ġmathemat":6449,"ĠTransport":6450,"ĠPope":6451,"ĠPhilip":6452,"pson":6453,"Ġultimately":6454,"hesis":6455,"ĠWeek":6456,"Ġhour":6457,"Ġearliest":6458,"Back":6459,"Ġpet":6460,"ĠTy":6461,"Ġbehavior":6462,"Ġbishop":6463,"Ġrein":6464,"Ġdetermined":6465,"Ġmiles":6466,"Dav":6467,"Dem":6468,"sex":6469,"Ġinfluenced":6470,"lah":6471,"ĠApple":6472,"gow":6473,"Ġenvironmental":6474,"ga":6475,"Ġvent":6476,"ques":6477,"Ġvisit":6478,"ĠCost":6479,"Ġdecades":6480,"Ġobtained":6481,"Ġhappen":6482,"allas":6483,"Ã¢":6484,"Ġapproved":6485,"Ġcopies":6486,"ĠForeign":6487,"Ant":6488,"PS":6489,"coh":6490,"rell":6491,"Ġairport":6492,"Ġaired":6493,"1988":6494,"Ġrear":6495,"ieties":6496,"Ġtranslation":6497,"han":6498,"ami":6499,"igation":6500,"BT":6501,"Ġlibrary":6502,"Ġplayoff":6503,"ĠAdminist":6504,"92":6505,"Year":6506,"Ġonto":6507,"ĠAlabama":6508,"isf":6509,"Ġcontained":6510,"Ġinternal":6511,"Ġways":6512,"ĠShort":6513,"gest":6514,"elve":6515,"Ġreaction":6516,"ĊĠĊĠĊ":6517,"iny":6518,"Ġcompeted":6519,"Ġcycl":6520,"glas":6521,"where":6522,"ni":6523,"ĠMalays":6524,"Ġflood":6525,"anton":6526,"Ġcensus":6527,"IC":6528,"ĠEmperor":6529,"Ġvictim":6530,"August":6531,"Ġdriver":6532,"onsin":6533,"Although":6534,"Railway":6535,"ĠHo":6536,"Biography":6537,"ĠBuilding":6538,"Ġcontest":6539,"Ġfinish":6540,"rish":6541,"owa":6542,"ĠRegister":6543,"Ġbrothers":6544,"igenous":6545,")\"":6546,"Ju":6547,"ĠHard":6548,"uties":6549,"ĠWrit":6550,"gal":6551,"85":6552,"AF":6553,"ĠTrib":6554,"isconsin":6555,"raska":6556,"ĠEngineering":6557,"aver":6558,"mers":6559,"hips":6560,"Ġsymbol":6561,"Def":6562,"including":6563,"Ġsons":6564,"Ġentry":6565,"ĠDomin":6566,"Ġexped":6567,"Ġreign":6568,"ĠMas":6569,"Ġavoid":6570,"Ġarrested":6571,"ĠFrancis":6572,"Ġlyrics":6573,"IN":6574,"ĠPict":6575,"ĠLike":6576,"Ġbul":6577,"ĠHarry":6578,"ymn":6579,"ĠSquare":6580,"Ġdraft":6581,"Ġdiplom":6582,"ĠGord":6583,"udget":6584,"Ġ1929":6585,"Ġattacked":6586,"ĠMaryland":6587,"vo":6588,"icts":6589,"asters":6590,"67":6591,"En":6592,"ĠLeon":6593,"Ġbow":6594,"ĠNY":6595,"Ġ1933":6596,"bell":6597,"ĠFord":6598,"Ġbirds":6599,"ropical":6600,"illing":6601,"Ġidentity":6602,"lan":6603,"ials":6604,"Ġslightly":6605,"ĠHamilton":6606,"Ġformal":6607,"Ġmolec":6608,"Ġ1919":6609,"Ġconference":6610,"Ġheadquarters":6611,"set":6612,"ĠCra":6613,"ĠVo":6614,"MS":6615,"song":6616,"Ġguest":6617,"Ġexistence":6618,"Ġfaith":6619,"Ġtend":6620,"Ġreflect":6621,"ĠDark":6622,"redited":6623,"Ġbroke":6624,"thodox":6625,"ĠConvention":6626,"ownt":6627,"ublin":6628,"Ġ1937":6629,"ĠChristmas":6630,"rates":6631,"Ġtower":6632,"Ġregarded":6633,"Ġwing":6634,"acent":6635,"ao":6636,"antage":6637,"bar":6638,"Ġ1928":6639,"icut":6640,"Ġconce":6641,"angel":6642,"Ġcommander":6643,"issance":6644,"aved":6645,"04":6646,"Ġstandards":6647,"Ġkilling":6648,"posed":6649,"Ġcompris":6650,"Ġbacking":6651,"ĠPrin":6652,"aga":6653,"IT":6654,"Ġmap":6655,"ĠRights":6656,"ĠThird":6657,"Ġargued":6658,"Ġcho":6659,"Ġapplication":6660,"Ġpermanent":6661,"Ġrh":6662,"Ġbegin":6663,"ĠAlexand":6664,"ĠPot":6665,"evin":6666,"Ġpublication":6667,"Govern":6668,"Ġglass":6669,"Ġstraight":6670,"Ġneighborhood":6671,"Following":6672,"ĠBack":6673,"ĠBan":6674,"Ġconsequ":6675,"Elect":6676,"ĠGil":6677,"osm":6678,"Ġ1921":6679,"ĠOt":6680,"Ġdynasty":6681,"Ġfranch":6682,"uccess":6683,"Ġpossess":6684,"bound":6685,"Ġfit":6686,"ĠABC":6687,"stead":6688,"Ġextrem":6689,"ĠKal":6690,"Ġreturning":6691,"Ġjudge":6692,"risis":6693,"emic":6694,"ĠOrchestra":6695,"Ġlearning":6696,"ĠFC":6697,"2019":6698,"1986":6699,"ĠConnect":6700,"esign":6701,"Ġiron":6702,"iversary":6703,"Ġdefense":6704,"Ġoccurs":6705,"Ġnarrow":6706,"cell":6707,"oly":6708,"Ġ1914":6709,"ĠIndones":6710,"zer":6711,"Ġ1935":6712,"Ġhorse":6713,"77":6714,"North":6715,"ĠGall":6716,"Ġpros":6717,"Ġinvasion":6718,"Ġvisited":6719,"ĠFI":6720,"ĠSwitzerland":6721,"Ġcomic":6722,"Ġtwenty":6723,"ĠTrain":6724,"Ġrival":6725,"Ġeffic":6726,"Ġchairman":6727,"Fran":6728,"iller":6729,"89":6730,"Ġhired":6731,"William":6732,"season":6733,"Ġspeech":6734,"ega":6735,"Ġsteel":6736,"ampton":6737,"ĠLow":6738,"lades":6739,"ĠOcean":6740,"Ġdefend":6741,"Ġlot":6742,"Ġscoring":6743,"irt":6744,"Ġguard":6745,"ĠPortugal":6746,"Most":6747,"Ġenemy":6748,"Co":6749,"inch":6750,"Ġphilosophy":6751,"03":6752,"Ġcas":6753,"Ġfeet":6754,"ĠQueensland":6755,"Ġsought":6756,"ĠCre":6757,"ĠDak":6758,"Ġspot":6759,"Af":6760,"Ġcalls":6761,"Ġadap":6762,"Ġcausing":6763,"ĠHy":6764,"Ġ1923":6765,"prise":6766,"Ġmel":6767,"ĠBecause":6768,"1981":6769,"ĠGlas":6770,"Ġcouple":6771,"ĠJacob":6772,"haps":6773,"La":6774,"Ġcarry":6775,"Ġneeds":6776,"ĠHoward":6777,"ĠFM":6778,"ĠCommand":6779,"Ġ1927":6780,"French":6781,"Ġgeneration":6782,"Ġcert":6783,"ĠTreat":6784,"usal":6785,"utation":6786,"Ġcaptain":6787,"Ġwant":6788,"Ġbit":6789,"Ġreasons":6790,"Ġancest":6791,"Ġ1932":6792,"Ġencoura":6793,"entially":6794,"hat":6795,"Ġwine":6796,"Ġpiece":6797,"ĠTai":6798,"ographical":6799,"Ġideas":6800,"Ġpasses":6801,"DP":6802,"uris":6803,"ĠAlan":6804,"lets":6805,"Ġchampions":6806,"burn":6807,"Ġtoward":6808,"ĠMember":6809,"Ġexpressed":6810,"stic":6811,"agen":6812,"Ġsixth":6813,"while":6814,"Ġban":6815,"leton":6816,"ĠDiego":6817,"Ġacts":6818,"Ġintroduction":6819,"Ġsurvey":6820,"Ass":6821,"urance":6822,"ĠDNA":6823,"Ġalleged":6824,"93":6825,"ĠFle":6826,"ĠOak":6827,"anging":6828,"Ġdepend":6829,"Ġtechnical":6830,"Ġfounding":6831,"Ġconfirmed":6832,"AS":6833,"ĠHeart":6834,"weet":6835,"aux":6836,";\"|":6837,"fully":6838,"rowd":6839,"Ġconnection":6840,"ĠDiv":6841,"Ġexact":6842,"Ġbodies":6843,"imore":6844,"Ġclosely":6845,"ĠJesus":6846,"awn":6847,"83":6848,"Ġexamples":6849,"ĠMoscow":6850,"Ġsand":6851,"ĠWisconsin":6852,"ipe":6853,"1960":6854,"ĠAffairs":6855,"64":6856,"OR":6857,"har":6858,"Ġnegot":6859,"Ġprepar":6860,"1985":6861,"Ġlake":6862,"Ġagent":6863,"ĠMedical":6864,"Ġpossibly":6865,"Ġfought":6866,"Ð¾":6867,"ĠCab":6868,"Ġactresses":6869,"ĠArchitect":6870,"Ġgreatest":6871,"Ġchalleng":6872,"Ġruled":6873,"Ġheavily":6874,"ĠTurn":6875,"ĠHell":6876,"ĠBroadway":6877,"Å«":6878,"ĠAlberta":6879,"ĠPier":6880,"Ġenjoy":6881,"Ġsolid":6882,"Ġflu":6883,"Ġcommittee":6884,"Ġpassing":6885,"ĠQuebec":6886,"Ġretirement":6887,"AN":6888,"Sports":6889,"died":6890,"irty":6891,"Ġkil":6892,"point":6893,"Ġimpr":6894,"Ġconsisted":6895,"AP":6896,"ĠWalter":6897,"bach":6898,"Ġnick":6899,"Ġreact":6900,"ĠDal":6901,"Ġprovincial":6902,"Ġbrain":6903,"ĠChildren":6904,"ricketer":6905,"Ġstrength":6906,"94":6907,"Ġscale":6908,"Ġ1931":6909,"Ġinterpret":6910,"Ġprotect":6911,"anian":6912,"Ġshortly":6913,"hing":6914,"Ġtheore":6915,"eler":6916,"ctic":6917,"aded":6918,"obe":6919,"TC":6920,"uration":6921,"October":6922,"1984":6923,"logroup":6924,"91":6925,"Ġrom":6926,"Ġadult":6927,"Ġentitled":6928,"Ġabandoned":6929,"65":6930,"Ġcauses":6931,"Ġmaximum":6932,"oslav":6933,"Ġarticles":6934,"England":6935,"Ġfailure":6936,"don":6937,"Ġpartner":6938,"Ġorders":6939,"To":6940,"ĠTig":6941,"ĠStra":6942,"Ġ34":6943,"Ġmyth":6944,"Ġtechniques":6945,"ĠYour":6946,"ĠLocal":6947,"ĠSingapore":6948,"ĠTen":6949,"Ġpolic":6950,"Ġagricultural":6951,"ĠTemple":6952,"à¤":6953,"Ġ300":6954,"Ġcombination":6955,"atab":6956,"Ġcontributed":6957,"ĠSin":6958,"Ġapplications":6959,"Ġmonarch":6960,"net":6961,"Ġ1900":6962,"Ġconcluded":6963,"ĠSche":6964,"raine":6965,"uildings":6966,"raction":6967,"itionally":6968,"Ġtranslated":6969,"ussian":6970,"ĠHans":6971,"econd":6972,"uilt":6973,"utt":6974,"ĠShah":6975,"ĠPhill":6976,"ĠEven":6977,"ĠOd":6978,"Ġshape":6979,"cha":6980,"Ġthr":6981,"Ġstores":6982,"ducing":6983,"Ġconvent":6984,"iverpool":6985,"ĠInformation":6986,"alty":6987,"Ġminim":6988,"lahoma":6989,"Sup":6990,"Ġwrite":6991,"equ":6992,"Ġaid":6993,"ĠTs":6994,"Ġlawyer":6995,"Ġpilot":6996,"Ġappeal":6997,"Ġentirely":6998,"Ġnegative":6999,"02":7000,"Ġyellow":7001,"Ġperforming":7002,"Ġnominated":7003,"ĠTokyo":7004,"ĠInternet":7005,"Europe":7006,"Japan":7007,"ĠManagement":7008,"Ġlimit":7009,"come":7010,"Ġjun":7011,"Ġdomestic":7012,"Ġload":7013,"ĠRun":7014,"ologies":7015,"Ġsupporting":7016,"cious":7017,"ĠEarly":7018,"ÃŃa":7019,"aro":7020,"Ġopera":7021,"Video":7022,"ĠKey":7023,"Ġwealth":7024,"Ġeducational":7025,"Ġimportance":7026,"Ġtemple":7027,"Ġwalls":7028,"ĠTit":7029,"ĠEric":7030,"ĠConst":7031,"Ġbelieve":7032,"Ġsequence":7033,"Ġfashion":7034,"ĠDanish":7035,"enny":7036,"inners":7037,"Ġworldwide":7038,"inburgh":7039,"ĠFurther":7040,"ĠThus":7041,"ĠLo":7042,"iful":7043,"Ġoperate":7044,"ĠBuff":7045,"ĠConnecticut":7046,"Ġbottom":7047,"ĠMoh":7048,"Ġescape":7049,"Awards":7050,"pa":7051,"rm":7052,"ĠDetroit":7053,"2020":7054,"Ġvary":7055,"Ġshall":7056,"ĠSchools":7057,"Ġhousing":7058,"Ġlat":7059,"adow":7060,"ĠDouglas":7061,"antasy":7062,"Ġ1934":7063,"rome":7064,"Ġproved":7065,"Ġbands":7066,"Ġones":7067,"ori":7068,"iler":7069,"ĠMit":7070,"ĠWelsh":7071,"1983":7072,"ĠGab":7073,"ĠAli":7074,"Ġimages":7075,"Ġquite":7076,"ĠJam":7077,"ĠStory":7078,"ĠGram":7079,"Ġspecifically":7080,"Ġmanagers":7081,"Ġsquad":7082,"ĠNebraska":7083,"September":7084,"Ġreduce":7085,"ĠRecord":7086,"Ġconsisting":7087,"ĠArk":7088,"icit":7089,"Ġheight":7090,"fort":7091,"Ġdecor":7092,"Ġsan":7093,"rÃ©":7094,"ĠMic":7095,"ĠFa":7096,"Ġtrust":7097,"Ġelimin":7098,"Ġholding":7099,"ĠMissouri":7100,"igious":7101,"Ġincident":7102,"gency":7103,"ÃŁ":7104,"Ġeducated":7105,"olas":7106,"Ġ1924":7107,"Ġalone":7108,"Ġpassenger":7109,"ĠToday":7110,"Ġphase":7111,"Ġcorrect":7112,"ĠMagazine":7113,"osal":7114,"Ġrecognition":7115,"Ġ;":7116,"ĠAP":7117,"ĠPoint":7118,"Ġguns":7119,"Ġheard":7120,"Dist":7121,"Ġmayor":7122,"1979":7123,"ĠBattalion":7124,"ĠBrand":7125,"ĠConstitution":7126,"Ġincorporated":7127,"ĠRoberts":7128,"atures":7129,"Ġcontrolled":7130,"iti":7131,"Mark":7132,"Ġmaintained":7133,"ĠEag":7134,"Ġdescribes":7135,"oming":7136,"Ġoffices":7137,"Ġmerged":7138,"Ġdevice":7139,"Ġpieces":7140,"apolis":7141,"ĠDream":7142,"ĠFellow":7143,"Ġdeveloping":7144,"April":7145,"III":7146,"ĠGlasgow":7147,"Ġ1917":7148,"Ġexam":7149,"Ġ1926":7150,"ĠDublin":7151,"Ġ(,":7152,"Ġrevolution":7153,"Leg":7154,"raf":7155,"Ġ400":7156,"Ġdirectors":7157,"July":7158,"iac":7159,"Ġrow":7160,"Ġarchae":7161,"hetic":7162,"Best":7163,"Geography":7164,"jo":7165,"Ġuniform":7166,"''":7167,"June":7168,"anth":7169,"Ġmoment":7170,"You":7171,"Ġfinds":7172,"Ġliterary":7173,"Ġcovers":7174,"Ġchain":7175,"Ġadvent":7176,"Ġprefer":7177,"Ã¡s":7178,"Ġgirls":7179,"Ġfleet":7180,"ui":7181,"riff":7182,"ĠComics":7183,"ĠAtlanta":7184,"ctors":7185,"racy":7186,"Ġnotably":7187,"Ġsingers":7188,"orus":7189,"Ġvo":7190,"ĠAnderson":7191,"Ġdates":7192,"Ġinstruments":7193,"IV":7194,"iser":7195,"Ġequivalent":7196,"ĠEth":7197,"Ġans":7198,"ĠDeath":7199,"amic":7200,"ĠOnly":7201,"1976":7202,"Ġviolence":7203,"ologists":7204,"Ġinvolving":7205,"ache":7206,"ĠAdvent":7207,"Ġregarding":7208,"arus":7209,"ĠVis":7210,"Ġ1925":7211,"ordan":7212,"Ġexperien":7213,"Ġseems":7214,"Ġreceiving":7215,"Ġvotes":7216,"Ġcharts":7217,"ourses":7218,"ĠBillboard":7219,"Transport":7220,"onna":7221,"Ġchoice":7222,"Ġestablishment":7223,"ĠArmenian":7224,"eding":7225,"anned":7226,"idden":7227,"Ġhun":7228,"ĠTar":7229,"ĠOffic":7230,"angers":7231,"Ġcoordin":7232,"Ġstorm":7233,"ĠAmong":7234,"87":7235,"Ġactual":7236,"ĠReal":7237,"ĠLog":7238,"ĠCrown":7239,"after":7240,"owned":7241,"Ġdefensive":7242,"spec":7243,"1982":7244,"ĠArabic":7245,"Women":7246,"Ġvs":7247,"Ġsuccessfully":7248,"82":7249,"Comm":7250,"ishops":7251,"ĠSum":7252,"ĠVar":7253,"Ġdoctor":7254,"ĠWho":7255,"81":7256,"ante":7257,"inking":7258,"Ġsignificantly":7259,"urric":7260,"Ġviews":7261,"Phil":7262,"AD":7263,"leased":7264,"ĠHand":7265,"uv":7266,"ĠDur":7267,"ĠDave":7268,"Populated":7269,"sterdam":7270,"Ġsust":7271,"ĠWhit":7272,"Ġcategory":7273,"Ġparallel":7274,"zant":7275,"Ġcatal":7276,"Ġphen":7277,"ĠMand":7278,"Ġsomew":7279,"unch":7280,"ĠThrough":7281,"arks":7282,"Ġgar":7283,"ĠGallery":7284,"Ġdivers":7285,"Hon":7286,"Ġtex":7287,"Ġeasily":7288,"ĠCleveland":7289,"ĠClin":7290,"ĠRoger":7291,"lock":7292,"vements":7293,"ĠMD":7294,"ĠBry":7295,"osure":7296,"acc":7297,"Ġproducing":7298,"Ġfocused":7299,"ĠDisney":7300,"night":7301,"Ġpages":7302,"ĠBoys":7303,"December":7304,"hard":7305,"ĠJane":7306,"ĠPalace":7307,"ĠAnthony":7308,"iley":7309,"Ġdifference":7310,"Ġheat":7311,"oking":7312,"ĠCooper":7313,"Ġdisapp":7314,"Ġfactors":7315,"uda":7316,"Ġtail":7317,"Ġsale":7318,"clusion":7319,"Ġcore":7320,"po":7321,"itic":7322,"Ġalcoh":7323,"asts":7324,"Ġhousehold":7325,"ĠSilver":7326,"onian":7327,"Ġcricketer":7328,"ranged":7329,"Ġsuburb":7330,"rik":7331,"tsburgh":7332,"Ġ49":7333,"Ġrenov":7334,"ĠBruce":7335,"heastern":7336,"Ġproced":7337,"ĠBefore":7338,"Ġvisual":7339,"Ġtypical":7340,"ĠAfghanistan":7341,"84":7342,"Over":7343,"apes":7344,"Ġneighbour":7345,"owntown":7346,"Ġselect":7347,"ĠAllen":7348,"ĠTerrit":7349,"ĠErn":7350,"iami":7351,"Ġinstalled":7352,"Ġadjacent":7353,"SC":7354,"Ġmus":7355,"style":7356,"Ġ1910":7357,"ĠKam":7358,"Ġceremony":7359,"Official":7360,"eland":7361,"ĠNazi":7362,"ĠBuck":7363,"oyd":7364,"Ġbriefly":7365,"ĠNob":7366,"2022":7367,"ĠExpress":7368,"Ġmotion":7369,"Mon":7370,"iders":7371,"tered":7372,"iva":7373,"Ġisol":7374,"Ġphilos":7375,"Ġpurposes":7376,"Ġcrown":7377,"Ġresc":7378,"Ġconsecutive":7379,"ĠAnne":7380,"Inter":7381,"insula":7382,"Ġcopy":7383,"David":7384,"rama":7385,"Ġrespond":7386,"Ġroads":7387,"ĠKat":7388,"ĠBible":7389,"Ġzone":7390,"ippi":7391,"erts":7392,"ushed":7393,"oria":7394,"Ġcompilation":7395,"Ġrecordings":7396,"Ġrequest":7397,"ĠBasketball":7398,"ĠNick":7399,"Ġdoing":7400,"1978":7401,"ĠPatrick":7402,"ĠDenmark":7403,"TO":7404,"Ġwor":7405,"Ġnor":7406,"othing":7407,"Ġsubstant":7408,"keep":7409,"Ġcolonial":7410,"ĠFac":7411,"ĠNev":7412,"ĠEdinburgh":7413,"run":7414,"uh":7415,"Ġ(;":7416,"stances":7417,"ĠLiverpool":7418,"Ġplanning":7419,"'m":7420,"Rel":7421,"Ġyour":7422,"oba":7423,"ĠOrthodox":7424,"Public":7425,"Ġtask":7426,"Ġprogramme":7427,"ĠEnvironment":7428,"Ġcrossing":7429,"hammad":7430,"ĠLiberal":7431,"di":7432,"Ġcriminal":7433,"January":7434,"Life":7435,"stan":7436,"Ġentrance":7437,"Ġlicens":7438,"pan":7439,"itals":7440,"Ġresear":7441,"Ġadapted":7442,"72":7443,"Ġille":7444,"Ġ42":7445,"Ġsnow":7446,"ĠNow":7447,"If":7448,"lections":7449,"Cent":7450,"ĠDa":7451,"1974":7452,"Ital":7453,"idge":7454,"ĠFarm":7455,"eget":7456,"Ġinstall":7457,"appy":7458,"Ġprisoners":7459,"then":7460,"Ġsail":7461,"opes":7462,"Ġarmed":7463,"ĠKnight":7464,"ĠAlfred":7465,"Rep":7466,"ĠImp":7467,"ĠEc":7468,"61":7469,"ĠCall":7470,"ĠStew":7471,"aby":7472,"ĠNich":7473,"Ġrepresenting":7474,"Ġpriest":7475,"ĠBanglades":7476,"App":7477,"found":7478,"ĠMethod":7479,"ĠDue":7480,"ĠNar":7481,"nergy":7482,"casting":7483,"Ġimproved":7484,"Ġpainting":7485,"box":7486,"Ġtur":7487,"Ġdoll":7488,"boards":7489,"ĠFrederick":7490,"ĠBelgium":7491,"Ġlegend":7492,"Ġrailroad":7493,"Ġguitarist":7494,"ĠWindows":7495,"ensis":7496,"ĠReport":7497,"ĠHollywood":7498,"Ġcompetitions":7499,"ĠPlaces":7500,"Ġoccas":7501,"regon":7502,"Ġwaters":7503,"Ġreaching":7504,"soft":7505,"Ġincome":7506,"ĠLouisiana":7507,"die":7508,"iah":7509,"cht":7510,"ithm":7511,"ĠGw":7512,"Ġresemb":7513,"Ġlocomot":7514,"ĠOklahoma":7515,"ĠFund":7516,"1972":7517,"Ġpoetry":7518,"ĠReb":7519,"Ġstorage":7520,"1977":7521,"Ġstrateg":7522,"ĠMountains":7523,"ĠAustrian":7524,"Ġapart":7525,"arat":7526,"osite":7527,"Ġplot":7528,"Ġanimated":7529,"Ġstarring":7530,"ribed":7531,"Per":7532,"Ġedge":7533,"Ġsections":7534,"scape":7535,"ĠHit":7536,"ĠAngl":7537,"Ð¸":7538,"Ġevolution":7539,"62":7540,"pur":7541,"iang":7542,"ĠAle":7543,"rypt":7544,"ĠHills":7545,"ĠStaff":7546,"Ġscenes":7547,"ET":7548,"top":7549,"Ġreserv":7550,"Ġ75":7551,"atur":7552,"Ġfunding":7553,"Histor":7554,"ĠNCAA":7555,"Ġselection":7556,"ĠLas":7557,"Ġsed":7558,"Ġrecip":7559,"yard":7560,"Ġmilit":7561,"ĠFinland":7562,"ĠKings":7563,"HS":7564,"aly":7565,"ĠKl":7566,"1975":7567,"ĠGordon":7568,"MP":7569,"Ġhotel":7570,"ĠDead":7571,"ĠOp":7572,"Ġpatients":7573,"Sing":7574,"Ġhits":7575,"Ġcircum":7576,"Military":7577,"sea":7578,"ĠBatman":7579,"term":7580,"Ġdescription":7581,"Ġabsor":7582,"ĠLiter":7583,"ĠBou":7584,"Ġment":7585,"ĠLeb":7586,"Ste":7587,"Ġextension":7588,"Ġweather":7589,"olia":7590,"Ġtrav":7591,"ĠSwiss":7592,"Har":7593,"rav":7594,"Ġgoods":7595,"Car":7596,"olt":7597,"Ġtall":7598,"ranches":7599,"Ġleads":7600,"star":7601,"ĠUpper":7602,"Ġcolleges":7603,"aska":7604,"Ġ1912":7605,"Ġaffected":7606,"74":7607,"ĠDallas":7608,"ĠLast":7609,"Spec":7610,"etime":7611,"Ġresidence":7612,"ailand":7613,"ista":7614,"ĠOperation":7615,"ĠPuerto":7616,"Ġopin":7617,"ĠDakota":7618,"arsh":7619,"ĠProtest":7620,"orial":7621,"Ġengines":7622,"Ġpoly":7623,"Ġelectronic":7624,"rastructure":7625,"Ġbill":7626,"iÃ³n":7627,"Ġshut":7628,"bal":7629,"Ġprice":7630,"November":7631,"zz":7632,"ĠSac":7633,"ĠRose":7634,"elson":7635,"Ġpup":7636,"ĠMem":7637,"Ġlaid":7638,"Ġjazz":7639,"erbai":7640,"icide":7641,"ĠJohann":7642,"Ġsolution":7643,"Ġmand":7644,"ĠOri":7645,"mith":7646,"ĠRhe":7647,"iki":7648,"ĠAmendment":7649,"dale":7650,"ĠNiger":7651,"Ġflat":7652,"Ġstands":7653,"ĠHonor":7654,"Mod":7655,"Ġuniversities":7656,"Orig":7657,"Ġ1915":7658,"ĠLawrence":7659,"Ġdevices":7660,"Ġsuggests":7661,"Ġvice":7662,"Ġpopularity":7663,"lon":7664,"ouver":7665,"Ġcru":7666,"eless":7667,"rett":7668,"commun":7669,"SO":7670,"Ġgain":7671,"ogs":7672,"azines":7673,"ĠHouston":7674,"aza":7675,"Ġdefinition":7676,"ĠTun":7677,"ĠBomb":7678,"aked":7679,"Ġrepeated":7680,"ĠPhilippines":7681,"cons":7682,"Ġelectron":7683,"1973":7684,"Pre":7685,"bass":7686,"Ġdiam":7687,"ĠFried":7688,"Ġroof":7689,"Ġconsult":7690,"ĠYears":7691,"Ġimprove":7692,"ĠGirls":7693,"ĠWing":7694,"ĠKa":7695,"Ġrivers":7696,"Ġexerc":7697,"aren":7698,"Ġgrounds":7699,"Ġdocuments":7700,"Ġcollected":7701,"ĠDoctor":7702,"Ġmist":7703,"ello":7704,"Ġcourts":7705,"Ġprotein":7706,"Ġinaug":7707,"eoples":7708,"Ġ64":7709,"ĠMoore":7710,"Ġfranchise":7711,"Ġbudget":7712,"ĠBrazilian":7713,"hus":7714,"Ġfixed":7715,"Ġitems":7716,"Ġinsc":7717,"ĠBed":7718,"ĠRan":7719,"ĠStudios":7720,"ayers":7721,"Ġuser":7722,"onder":7723,"Ġtry":7724,"ĠKarl":7725,"uters":7726,"Ġcontext":7727,"Ġoutput":7728,"Ġdecade":7729,"ĠPhys":7730,"Ġrefuge":7731,"Ġadvantage":7732,"Ġoffering":7733,"Ġtrying":7734,"riev":7735,"ĠInn":7736,"Ġusers":7737,"ythm":7738,"79":7739,"bridge":7740,"inces":7741,"ugoslav":7742,"ĠLtd":7743,"ĠBron":7744,"ibl":7745,"Ġherself":7746,"Ġfinishing":7747,"Ġrepresentative":7748,"Ġparks":7749,"ĠImperial":7750,"lad":7751,"ĠCP":7752,"Ġdivisions":7753,"ĠSultan":7754,"ĠAustin":7755,"erg":7756,"Ġsell":7757,"Ġrich":7758,"Ġseparated":7759,"mosp":7760,"ĠSport":7761,"ivate":7762,"ĠNa":7763,"ĠZh":7764,"Ġsubsid":7765,"Ġdry":7766,"ugar":7767,"pha":7768,"ĠRhif":7769,"ĠBrothers":7770,"Ġcool":7771,"ĠHarvard":7772,"ĠBaltimore":7773,"ĠCemetery":7774,"ĠFriend":7775,"Ġkid":7776,"Qu":7777,"otte":7778,"ĠRick":7779,"Ġvolunte":7780,"1971":7781,"Ġcycle":7782,"ĠMuhammad":7783,"Ġentertain":7784,"ommod":7785,"olo":7786,"Ġshowing":7787,"Ġpromote":7788,"Ġprocesses":7789,"Ġrevers":7790,"Ġpainter":7791,"ĠMurray":7792,"ĠTrophy":7793,"Ġnickn":7794,"Ġaer":7795,"Ġmort":7796,"ĠContin":7797,"AT":7798,"Ġpron":7799,"antly":7800,"Ġstrike":7801,"Ġpremier":7802,"uster":7803,"borough":7804,"Ġhill":7805,"ĠNBA":7806,"Ġcommitted":7807,"Ġopportunity":7808,"ĠÃĩ":7809,"Ġterritories":7810,"Ġdifferences":7811,"ĠConfeder":7812,"ĠSaf":7813,"ĠFood":7814,"Ġresigned":7815,"Ġinvestigation":7816,"Ġrejected":7817,"rings":7818,"Ġthrow":7819,"Ġlect":7820,"Ġrelative":7821,"Ġinterior":7822,"cycl":7823,"ĠRussell":7824,"uran":7825,"lig":7826,"Ġfresh":7827,"Ġmarg":7828,"chi":7829,"Ġstret":7830,"ĠKevin":7831,"Ġpassengers":7832,"ĠLan":7833,"bishop":7834,"Ġcalling":7835,"Ġdensity":7836,"going":7837,"father":7838,"ĠSn":7839,"Ġretained":7840,"Ġpione":7841,"Star":7842,"Ġdegrees":7843,"Ġpersons":7844,"usalem":7845,"Ðµ":7846,"ĠBeat":7847,"iw":7848,"long":7849,"71":7850,"wall":7851,"yles":7852,"Ġeg":7853,"Ġsole":7854,"ĠSenior":7855,"rior":7856,"Ġago":7857,"ĠRol":7858,"Ġfrequency":7859,"Her":7860,"uma":7861,"power":7862,"Ġprofile":7863,"lete":7864,"ivated":7865,"ancouver":7866,"ĠProvincial":7867,"Ġcorpor":7868,"ĠCroatia":7869,"rant":7870,"Ġclassic":7871,"ML":7872,"ĠSR":7873,"ĠHarris":7874,"Ġfunds":7875,"Ġnucle":7876,"Ġexpedition":7877,"Ġmobile":7878,"otten":7879,"Ġfreedom":7880,"ĠArgentina":7881,"Act":7882,"ĠSeveral":7883,"Ġimprison":7884,"ĠPC":7885,"2021":7886,"Ġdetermine":7887,"Ġwave":7888,"ĠHorn":7889,"Ġmedieval":7890,"Ġdesigns":7891,"1969":7892,"fe":7893,"Ġvoted":7894,"Ġaccused":7895,"ĠBarry":7896,"Ġcompete":7897,"inosaur":7898,"Ġpul":7899,"Ġbroken":7900,"Ġtwelve":7901,"onstruction":7902,"ĠDC":7903,"Pres":7904,"hatt":7905,"ogether":7906,"Ġprime":7907,"Ġinstance":7908,"Ġdescend":7909,"ĠByzant":7910,"ĠSky":7911,"issippi":7912,"ĠOrganization":7913,"Ġped":7914,"ĠSax":7915,"Ġintelligence":7916,"Ġstatement":7917,"Ġcapture":7918,"ĠNorman":7919,"ourse":7920,"ĠGrant":7921,"Ġpurchase":7922,"Ġsurn":7923,"Ġproducers":7924,"Bar":7925,"ĠAthens":7926,"lu":7927,"rops":7928,"Ġoverl":7929,"Ġaccur":7930,"ĠMcK":7931,"Education":7932,"Ġbatter":7933,"ellect":7934,"Ġownership":7935,"Ġdetails":7936,"Ġcrowd":7937,"Ġhair":7938,"ĠWhat":7939,"Ġaccompan":7940,"Ġfine":7941,"ĠFinn":7942,"ĠOregon":7943,"Ġdistributed":7944,"Ġliqu":7945,"ĠLanc":7946,"EE":7947,"Ġdie":7948,"ĠBush":7949,"Ġnothing":7950,"Ġinform":7951,"ĠGarden":7952,"lar":7953,"olly":7954,"ĠPap":7955,"ĠEver":7956,"ĠElement":7957,"Ġspoken":7958,"Ġfaced":7959,"Ġ1913":7960,"Ġemployees":7961,"ĠPir":7962,"ĠThough":7963,"Ġpopulations":7964,"Ġspiritual":7965,"ĠRepresentatives":7966,"ĠLang":7967,"ĠGard":7968,"Ġprint":7969,"ussion":7970,"UK":7971,"ĠBilly":7972,"Ġhomes":7973,"ĠUtah":7974,"63":7975,"Ġcredited":7976,"Ġrestrict":7977,"ĠSymph":7978,"à¸":7979,"Ġfrag":7980,"Ġedited":7981,"verse":7982,"ĠDefense":7983,"69":7984,"resents":7985,"Ġfactory":7986,"Ġcommissioned":7987,"Ġri":7988,"Ġinfl":7989,"adi":7990,"ĠTrade":7991,"Ġroughly":7992,"ĠOm":7993,"Ġstarts":7994,"Ġbusinesses":7995,"Ġpartnership":7996,"ĠBrigade":7997,"Ġoperates":7998,"Ġobtain":7999,"Ġweak":8000,"Ġexpression":8001,"300":8002,"Songs":8003,"Ġstating":8004,"estyle":8005,"ellite":8006,"ictions":8007,"Ġ1916":8008,"Plot":8009,"Ġcards":8010,"ocracy":8011,"Ġcooper":8012,"atabase":8013,"lease":8014,"ĠLost":8015,"Ġmedicine":8016,"Ġextremely":8017,"ĠTel":8018,"ĠWrestling":8019,"Ġcommunication":8020,"1968":8021,"Part":8022,"ardo":8023,"Ġappoint":8024,"Ġfoundation":8025,"Ġstanding":8026,"Ġaspects":8027,"idel":8028,"urisd":8029,"Ġtons":8030,"Ġfictional":8031,"ĠChair":8032,"Ġauthors":8033,"iph":8034,"ĠCole":8035,"Ġtank":8036,"Ġstring":8037,"Ġplate":8038,"ranean":8039,"ĠBengal":8040,"ensions":8041,"ĠCuba":8042,"uous":8043,"odge":8044,"rane":8045,"Ġalgor":8046,"Ġunderstanding":8047,"exual":8048,"olph":8049,"Ġ1890":8050,"Ġjunior":8051,"ahn":8052,"ĠConstant":8053,"Ġcoverage":8054,"Ġclean":8055,"ĠSri":8056,"ĠWorks":8057,"Ġassess":8058,"ĠMcG":8059,"Ġupd":8060,"Ġscheduled":8061,"ĠHig":8062,"ĠNon":8063,"Ġlink":8064,"Ġstatistics":8065,"ĠLegislative":8066,"68":8067,"Roman":8068,"Ġwatch":8069,"ĠGib":8070,"ĠFall":8071,"ithuan":8072,"emen":8073,"ĠLyn":8074,"Ġroutes":8075,"ĠGran":8076,"abled":8077,"Ġowners":8078,"ymru":8079,"Ġrates":8080,"Ġopposite":8081,"ibbean":8082,"Ġscientists":8083,"Ġfram":8084,"Ġsynd":8085,"Ġsurvived":8086,"host":8087,"ĠLin":8088,"Ġrequires":8089,"Ġexperienced":8090,"ĠThailand":8091,"inding":8092,"Ġsoil":8093,"Ġcoastal":8094,"ĠThen":8095,"Ġaccommod":8096,"ĠCommander":8097,"Ġturns":8098,"Ġnewspapers":8099,"ĠCook":8100,"keley":8101,"iable":8102,"Ġfan":8103,"ĠCR":8104,"ielder":8105,"ygen":8106,"Ġassass":8107,"Ġretail":8108,"mingham":8109,"Ġsquadron":8110,"February":8111,"Major":8112,"town":8113,"Ġboys":8114,"Ġmouth":8115,"Ġlanding":8116,"ĠMuslims":8117,"ugu":8118,"ĠAntonio":8119,"nold":8120,"ĠFA":8121,"Ġagriculture":8122,"ĠPublishing":8123,"Jew":8124,"Ġboat":8125,"Ġnorthwest":8126,"ĠInfantry":8127,"icate":8128,"ĠLov":8129,"ĠNord":8130,"Ġrepresents":8131,"ST":8132,"ĠAT":8133,"Ġ44":8134,"Writ":8135,"Ġtechnique":8136,"ĠPrincess":8137,"ester":8138,"ĠFu":8139,"ige":8140,"Ġoffensive":8141,"Ġbenef":8142,"ners":8143,"rong":8144,"Ġnortheast":8145,"Ġveter":8146,"bane":8147,"phone":8148,"Ġlegislation":8149,"Ġthousands":8150,"Ġinduct":8151,"ĠIl":8152,"ĠRugby":8153,"Ġrestored":8154,"ĠAzerbai":8155,"ĠBetween":8156,"such":8157,"ĠAber":8158,"Ġtransition":8159,"Ġmodified":8160,"73":8161,"mat":8162,"ouses":8163,"Ġexpatriate":8164,"ĠPittsburgh":8165,"Cast":8166,"School":8167,"gebra":8168,"Ġnations":8169,"enez":8170,"Ġcharged":8171,"ĠFal":8172,"Ġbear":8173,"Ġperhaps":8174,"spe":8175,"Ġcold":8176,"Ġalleg":8177,"Ġemot":8178,"Ġplanet":8179,"Ġtribes":8180,"roke":8181,"ĠAR":8182,"Ġreally":8183,"ĠDeb":8184,"Ġotherwise":8185,"andom":8186,"ando":8187,"Ġcosts":8188,"ĠJerusalem":8189,"ho":8190,"Ġtexts":8191,"High":8192,"ĠIowa":8193,"EP":8194,"sch":8195,"Ġpitch":8196,"ĠGulf":8197,"ĠNative":8198,"ĠVienna":8199,"Ġtor":8200,"Ġreality":8201,"ĠSecret":8202,"Ġappropri":8203,"ĠFranklin":8204,"Ġpitcher":8205,"European":8206,"First":8207,"pir":8208,"Ġpreced":8209,"ĠAmaz":8210,"ĠMotor":8211,"fish":8212,"ĠCru":8213,"Ġwhy":8214,"ples":8215,"Ġengaged":8216,"aughters":8217,"ĠHindu":8218,"ĠBangladesh":8219,"Rober":8220,"Ġcourses":8221,"who":8222,"ĠMalaysia":8223,"Ġaged":8224,"Ġdemand":8225,"ĠRailroad":8226,"RO":8227,"Ġvert":8228,"ayan":8229,"ĠSamuel":8230,"ĠBowie":8231,"ĠAuthority":8232,"ĠHeritage":8233,"friend":8234,"Ġworth":8235,"olar":8236,"ĠJordan":8237,"Ġ48":8238,"ĠGuide":8239,"Ġpractices":8240,"Medal":8241,"Cal":8242,"ĠWhe":8243,"ocol":8244,"ĠPeace":8245,"achelor":8246,"Ġbranches":8247,"ĠSet":8248,"aman":8249,"Ġ1908":8250,"Ġmountains":8251,"Ġham":8252,"otype":8253,"ĠNaval":8254,"annels":8255,"ĠGener":8256,"Ġbacter":8257,"Arch":8258,"rapy":8259,"Background":8260,"Ġreferences":8261,"ĠGlobal":8262,"Ġmerch":8263,"Ġeye":8264,"ĠNik":8265,"Ġexception":8266,"astery":8267,"Ġregularly":8268,"ture":8269,"ĠSee":8270,"ĠOnce":8271,"Ġmart":8272,"ĠLieutenant":8273,"ĠWol":8274,"ĊĊĠĊ":8275,"ĠĠĠĠĠĠĠĠĠĠĠĠĠĠĠĠ":8276,"ti":8277,"ĠDJ":8278,"ĠStewart":8279,"ĠAgain":8280,"ĠTele":8281,"Ġskills":8282,"%,":8283,"Ġcomponents":8284,"hill":8285,"Ġign":8286,"ĠMiami":8287,"ĠIron":8288,"seud":8289,"ĠChristians":8290,"ĠControl":8291,"ĠML":8292,"Ġreleg":8293,"Ġmedium":8294,"Ġworship":8295,"Ġclassified":8296,"Ġassembly":8297,"Ġcomposers":8298,"âĪĴ":8299,"ĠRyan":8300,"Ġcomed":8301,"ĠAbout":8302,"Ġsuccessor":8303,"1964":8304,"ĠCamer":8305,"Ġunf":8306,"Ġcharges":8307,"amental":8308,"Ġmeasures":8309,"Ġtennis":8310,"Ġassumed":8311,"Ġfactor":8312,"ãĥ":8313,"Ġsession":8314,"ĠEvery":8315,"ĠHeb":8316,"ĠChristianity":8317,"Ġbiggest":8318,"Ġjourney":8319,"Ġcited":8320,"ĠWy":8321,"Ġconcerns":8322,"Ġbanks":8323,"ĠPur":8324,"ĠChristopher":8325,"ĠJosÃ©":8326,"ĠVin":8327,"odia":8328,"Ġunus":8329,"ĠCollection":8330,"ĠAmsterdam":8331,"Ġfavour":8332,"ĠRound":8333,"ĠYugoslav":8334,"Ġphotograph":8335,"asa":8336,"Ġassault":8337,"Ġexisted":8338,"Ġencounter":8339,"Scott":8340,"ĠFact":8341,"enses":8342,"Buildings":8343,"ĠKy":8344,"Ġdoor":8345,"Ġcapable":8346,"ĠTaiwan":8347,"ĠRa":8348,"Ġmovements":8349,"Ġinvent":8350,"Ġ150":8351,"Black":8352,"Mich":8353,"roc":8354,"Ġattached":8355,"chell":8356,"Ġneut":8357,"Ġloan":8358,"Ġpaintings":8359,"ĠSupport":8360,"bi":8361,"ĠLuther":8362,"1950":8363,"ĠFather":8364,"Ġhosts":8365,"ĠPlayer":8366,"Ġlooking":8367,"Ġtick":8368,"Ġheads":8369,"SS":8370,"Ġwitness":8371,"ĠFil":8372,"ĠGi":8373,"Ġveget":8374,"feld":8375,"Ġfest":8376,"ĠMans":8377,"Ġgene":8378,"ĠIan":8379,"Ġprohib":8380,"Ġmedals":8381,"Ġski":8382,"Ġsoccer":8383,"Ġexecuted":8384,"ĠCrit":8385,"Ġkick":8386,"Ġinvited":8387,"Ġanniversary":8388,"plete":8389,"ucks":8390,"ĠHotel":8391,"Ã¥":8392,"rena":8393,"ĠCommunist":8394,"uzz":8395,"DA":8396,"alia":8397,"âĢł":8398,"rating":8399,"ĠSpeed":8400,"ifer":8401,"Ġmanusc":8402,"Ġlinked":8403,"Ġbattles":8404,"Sch":8405,"ĠRow":8406,"Ġdelay":8407,"Ġtesting":8408,"Reception":8409,"ĠAntar":8410,"oca":8411,"Ġ41":8412,"tenance":8413,"ci":8414,"Ġsun":8415,"ĠGor":8416,"Ġshel":8417,"Ġreturns":8418,"ttp":8419,"NT":8420,"Ġda":8421,"Ġrooms":8422,"ĠJuan":8423,"Ġdamaged":8424,"ounce":8425,"Ġgrade":8426,"Ġconvention":8427,"Ġsurg":8428,"Ġcorner":8429,"ders":8430,"Ġrif":8431,"ompl":8432,"ĠMississippi":8433,"www":8434,"GBT":8435,"Ġclin":8436,"Ġartillery":8437,"Ġcoaching":8438,"Ġresidential":8439,"rak":8440,"ĠKild":8441,"Ġimag":8442,"Ġ65":8443,"ĠGermans":8444,"inction":8445,"ĠBak":8446,"Ġsevere":8447,"ĠVancouver":8448,"Ġutil":8449,"My":8450,"jamin":8451,"etry":8452,"Ġplus":8453,"ĠAlliance":8454,"Ġvirus":8455,"zh":8456,"ĠHop":8457,"ĠIndependent":8458,"Ä«":8459,"Ġcheck":8460,"dr":8461,"ĠNever":8462,"Ġsufficient":8463,"ĠAdministration":8464,"enberg":8465,"ĠHere":8466,"ĠIce":8467,"Ġ1911":8468,"hattan":8469,"uru":8470,"Ġmetres":8471,"Nor":8472,"Ġadvoc":8473,"Ġprofession":8474,"Ġstarred":8475,"ĠMetropolitan":8476,"ocene":8477,"Ġdismiss":8478,"Ġinterests":8479,"ĠÃī":8480,"Ġcandidates":8481,"Ġpicture":8482,"uis":8483,"ĠPa":8484,"Ġvide":8485,"Ġsuperv":8486,"Ġvisitors":8487,"Ġinfluential":8488,"Ġincreasingly":8489,"Ġ*":8490,"Ġterror":8491,"Ġrequirements":8492,"Ġhypot":8493,"ĠCelt":8494,"ĠEnergy":8495,"aste":8496,"Ġrenew":8497,"Min":8498,"Ġgarden":8499,"Ġarc":8500,"Ġseconds":8501,"ĠAndre":8502,"Ġshooting":8503,"Ġpolicies":8504,"hab":8505,"Ġere":8506,"ductions":8507,"1967":8508,"ĠMatthew":8509,"DC":8510,"Ġdating":8511,"istant":8512,"ĠBlues":8513,"Ġatmosp":8514,"Port":8515,"á¹":8516,"Ġfly":8517,"Ġdies":8518,"ĠYouth":8519,"Ġcolour":8520,"Ġundert":8521,"Ġreplacing":8522,"Ġphr":8523,"ĠCaribbean":8524,"ishers":8525,"ĠBuffalo":8526,"EFA":8527,"ĠMontreal":8528,"Ġseventh":8529,"atically":8530,"ĠTan":8531,"ĠAlaska":8532,"ĠDet":8533,"mod":8534,"nie":8535,"Ġduties":8536,"ĠKaz":8537,"Ġtrained":8538,"Ġdescribe":8539,"Ġsegment":8540,"Ġchose":8541,"Ġgetting":8542,"ĠUkraine":8543,"ĠAgency":8544,"ĠGiants":8545,"Ġjump":8546,"Ġpoem":8547,"ĠMargaret":8548,"IP":8549,"Ġflying":8550,"Ġwhereas":8551,"know":8552,"Ġnote":8553,"ĠSatur":8554,"called":8555,"ls":8556,"Ġbuy":8557,"Ġinjured":8558,"Ġdrawn":8559,"ĠBeg":8560,"Ġanch":8561,"Ġwides":8562,"ĠWright":8563,"ocked":8564,"ĠBrew":8565,"ĠNag":8566,"Albums":8567,"ĠDonald":8568,"iterranean":8569,"do":8570,"ĠPack":8571,"pping":8572,"DF":8573,"omes":8574,"ĠJay":8575,"ĠPlace":8576,"Ġstreets":8577,"Born":8578,"Ġaware":8579,"ĠBart":8580,"Ġdepending":8581,"ĠPed":8582,"Ġchance":8583,"Ġprotected":8584,"onom":8585,"ĠLank":8586,"Ġdefeating":8587,"Ġvenue":8588,"ĠKelly":8589,"ĠElementary":8590,"ĠNash":8591,"away":8592,"apping":8593,"ĠBull":8594,"Ġrepro":8595,"Ġcarrying":8596,"Ġexhibition":8597,"ocratic":8598,"Ġforests":8599,"GA":8600,"ĠSpe":8601,"ĠKu":8602,"ĠYank":8603,"Ġbusinessman":8604,"claimed":8605,"door":8606,"iency":8607,"via":8608,"Ġmir":8609,"Ġsecretary":8610,"Ġdriving":8611,"Ġinnov":8612,"ĠSaturday":8613,"Ġ().":8614,"ĠBapt":8615,"Ġ55":8616,"Ġcontributions":8617,"ĠBirmingham":8618,"Ġ39":8619,"Ġoccupation":8620,"ME":8621,"pread":8622,"Ġsuff":8623,"ĠLaure":8624,"ĠTreaty":8625,"Ġsupposed":8626,"ĠBorough":8627,"ĠCollins":8628,"eta":8629,"Ġstood":8630,"anny":8631,"1963":8632,"ĠHawai":8633,"Ġsomewhat":8634,"LC":8635,"ĠChem":8636,"ĠHamp":8637,"Ġflo":8638,"?\"":8639,"Two":8640,"Ġfoss":8641,"ĠChall":8642,"Ġcontroversy":8643,"ĠWalker":8644,"ĠDance":8645,"1945":8646,"Ġreplacement":8647,"Ġwithdraw":8648,"Ġfired":8649,"elaide":8650,"ĠHungarian":8651,"hum":8652,"Ð½":8653,"ĠMes":8654,"ĠUpon":8655,"Ġprepared":8656,"Ġcrisis":8657,"Ġsave":8658,"ĠPear":8659,"ĠRey":8660,"rix":8661,"Ġsinging":8662,"Ġahead":8663,"Ġwarm":8664,"oustic":8665,"Ġmining":8666,"Ġgrant":8667,"Ġaccompl":8668,"Ġadding":8669,"ĠBulgaria":8670,"Ġadaptation":8671,"otal":8672,"Ġconstitution":8673,"ĠVik":8674,"risbane":8675,"Ġquestions":8676,"mpt":8677,"Ġstopped":8678,"ĠHungary":8679,"Ġfal":8680,"urers":8681,"Ġjustice":8682,"Ġchampionships":8683,"Ġaccompanied":8684,"Ġdress":8685,"ĠCBS":8686,"Ġsubjects":8687,"ĠHistorical":8688,"pine":8689,"rystal":8690,"Pol":8691,"ĠCarn":8692,"Ġnom":8693,"ĠJess":8694,"ĠJohnny":8695,"Ġalcohol":8696,"ĠAlt":8697,"aneous":8698,"Ġ1906":8699,"Ġproport":8700,"Ġteachers":8701,"WA":8702,"ĠRangers":8703,"abilities":8704,"Ġskin":8705,"ĠÃĹ":8706,"Ġaccounts":8707,"ĠLate":8708,"oviÄĩ":8709,"Ġscheme":8710,"Ã´":8711,"Ġlists":8712,"Ġeyes":8713,"Ġmanner":8714,"Ġbrown":8715,"ĠWayne":8716,"Football":8717,"ĠFive":8718,"forcement":8719,"zo":8720,"uri":8721,"ĠDyn":8722,"abet":8723,"Ġiniti":8724,"Ġaf":8725,"Ġpraised":8726,"Ġpeoples":8727,"ishment":8728,"Ġresign":8729,"NC":8730,"ĠPas":8731,"ĠSox":8732,"writers":8733,"Ġsatisf":8734,"east":8735,"Ġfear":8736,"ĠAy":8737,"ĠGoth":8738,"Ġenh":8739,"ĠMorgan":8740,"Crit":8741,"ĠDoc":8742,"Ġanime":8743,"Ġjurisd":8744,"aware":8745,"Ġshell":8746,"ontin":8747,"Ġdiagn":8748,"Ġarrival":8749,"Ġsoutheast":8750,"ubb":8751,"Ġexternal":8752,"Ġsurre":8753,"Bur":8754,"ĠCatal":8755,"Ġrelation":8756,"Ġtransmission":8757,"ĠTigers":8758,"Ġfishing":8759,"ĠHud":8760,"Ġcelebrated":8761,"ĠBox":8762,"Äĥ":8763,"opt":8764,"ripts":8765,"ĠTamil":8766,"oda":8767,"Ġvalid":8768,"Ġresponsibility":8769,"ser":8770,"ĠCart":8771,"ĠHug":8772,"abil":8773,"1966":8774,"ĠCommunications":8775,"Ġlongest":8776,"Ġlearned":8777,"Ġregiment":8778,"Ġmembership":8779,"fare":8780,"Ġexists":8781,"Ġcriticism":8782,"Cymru":8783,"ĠAndy":8784,"Ġconsiderable":8785,"oons":8786,"ĠMaur":8787,"Sub":8788,"Ġib":8789,"ĠCharlie":8790,"uber":8791,"sect":8792,"ĠVideo":8793,"Ġparticipate":8794,"ĠKennedy":8795,"Ġteach":8796,"Ġ1905":8797,"argo":8798,"Ġindicate":8799,"omas":8800,"ĠMarket":8801,"ĠRain":8802,"Ġwheel":8803,"isp":8804,"Ġben":8805,"Ġnaval":8806,"Ġspaces":8807,"James":8808,"Many":8809,"isations":8810,"ractions":8811,"orig":8812,"Ġdepos":8813,"Ã¶r":8814,"ĠVillage":8815,"Ġformally":8816,"Ġprotest":8817,"ĠBosnia":8818,"ĠSymphony":8819,"Ġtact":8820,"Ġinher":8821,"Ġmales":8822,"ĠRest":8823,"ĠLet":8824,"Ġphenomen":8825,"Ag":8826,"boy":8827,"ĠPalest":8828,"ĠCentury":8829,"1965":8830,"ĠBerkeley":8831,"avalry":8832,"ĠAthletic":8833,"Ġha":8834,"ĠOw":8835,"othy":8836,"ĠBlood":8837,"Ġdrivers":8838,"Ġweekly":8839,"BI":8840,"Ep":8841,"ĠLam":8842,"ĠTownship":8843,"Ġdelivered":8844,"\";":8845,"ĠLower":8846,"akia":8847,"Ġassemb":8848,"Ġpublications":8849,"comp":8850,"Ġperiods":8851,"ĠMrs":8852,"Ġstable":8853,"Ġassistance":8854,"riptions":8855,"final":8856,"Ġheaded":8857,"ĠBernard":8858,"icon":8859,"ĠShip":8860,"uble":8861,"Ġpresidential":8862,"ĠRud":8863,"ĠVice":8864,"Ġcompounds":8865,"angerous":8866,"formance":8867,"Ġcriticized":8868,"ĠBase":8869,"Ġ43":8870,"ĠScient":8871,"ĠMission":8872,"Ġoccasionally":8873,"len":8874,"Ġpool":8875,"Ġasc":8876,"umph":8877,"ĠMean":8878,"vi":8879,"ĠEqu":8880,"ĠChampion":8881,"Ġarranged":8882,"Ġactivist":8883,"Ġmanufacturing":8884,"ĠPersian":8885,"BM":8886,"hr":8887,"ĠLib":8888,"Ġ52":8889,"ĠSingh":8890,"cyclop":8891,"adau":8892,"State":8893,"ĠExecutive":8894,"Ġinvestment":8895,"Ġensure":8896,"Sportspeople":8897,"Japanese":8898,"Ang":8899,"Ġinstitution":8900,"ĠSeattle":8901,"ÃŃn":8902,"Ġwrest":8903,"Ġduty":8904,"Ġmode":8905,"cussion":8906,"Ġthick":8907,"span":8908,"Ġbroadcasting":8909,"kee":8910,"mates":8911,"rod":8912,"ĠRuth":8913,"intend":8914,"Ġmanga":8915,"ĠRav":8916,"ulating":8917,"ureau":8918,"obby":8919,"Ġdeclined":8920,"Ġachieve":8921,"ĠSeven":8922,"Ġsample":8923,"Ġteen":8924,"Ġdecline":8925,"Ġdesigner":8926,"1962":8927,"Ġconcrete":8928,"Ġwidespread":8929,"ĠObl":8930,"ĠManhattan":8931,"Ġinfantry":8932,"ĠâĢĺ":8933,"ĠGraham":8934,"Ġstages":8935,"Ġcommemor":8936,"rainian":8937,"ĠTon":8938,"ĠJose":8939,"Ġgraduate":8940,"ulus":8941,"San":8942,"ÑĢ":8943,"ĠLad":8944,"ĠLock":8945,"oche":8946,"Ġplane":8947,"Ġpublishing":8948,"Ġattributed":8949,"Ġbat":8950,"Ġreserve":8951,"Ġ1903":8952,"Ġboundary":8953,"Ġcaught":8954,"Ġjoining":8955,"udden":8956,"Ġserial":8957,"ĠMicrosoft":8958,"'re":8959,"Ġdeleg":8960,"Ġmessage":8961,"ĠProte":8962,"Est":8963,"rehens":8964,"ĠMess":8965,"Ġsoldier":8966,"released":8967,"Ġbed":8968,"Int":8969,"non":8970,"Ġbond":8971,"aments":8972,"ĠLions":8973,"ĠVers":8974,"opy":8975,"anged":8976,"Ġgreatly":8977,"Ġcircuit":8978,"Rich":8979,"Ġscholar":8980,"aired":8981,"Ġreun":8982,"Ġforming":8983,"Ġexplos":8984,"aire":8985,"ĠTax":8986,"Ġagency":8987,"Ġerect":8988,"atus":8989,"Ġfilmed":8990,"ducational":8991,"Ġemperor":8992,"ĠThor":8993,"Ġmarkets":8994,"ĠSom":8995,"acre":8996,"ĠMorris":8997,"incinn":8998,"Ġori":8999,"SPN":9000,"Ġunsuccess":9001,"Afric":9002,"rot":9003,"Ġgang":9004,"Ġuseful":9005,"Ġevening":9006,"ĠAgric":9007,"ĠTerry":9008,"inus":9009,"ĠTower":9010,"odore":9011,"Ġchanging":9012,"Ġspeak":9013,"boys":9014,"ĠAdditionally":9015,"Ġtort":9016,"ĠMond":9017,"Ġcharacteristics":9018,"Ġtrip":9019,"Ġsuperior":9020,"Ġbridges":9021,"Ã©s":9022,"ĠBroadcasting":9023,"dd":9024,"á»":9025,"eenth":9026,"ĠKit":9027,"Ġexecut":9028,"Econom":9029,"asi":9030,"Ġnav":9031,"ĠGary":9032,"ĠJazz":9033,"ĠTrail":9034,"Ġtribe":9035,"AL":9036,"East":9037,"ĠFrid":9038,"ĠAdams":9039,"Ġtempor":9040,"ĠAnglican":9041,"enezuel":9042,"theless":9043,"Ġpreserved":9044,"ĠHend":9045,"atters":9046,"incinnati":9047,"ĠTrad":9048,"Ġ1880":9049,"ĠRobinson":9050,"ĠRap":9051,"Ġmissions":9052,"ashed":9053,"ĠLud":9054,"Ġenl":9055,"Ġappearing":9056,"Ġeffectively":9057,"ĠGriff":9058,"Ã©t":9059,"ĠLimited":9060,"ĠEss":9061,"elli":9062,"Ġsurf":9063,"ĠPrimary":9064,"oard":9065,"Ġrecru":9066,"Ġaudio":9067,"ĠColonel":9068,"bat":9069,"Ġselling":9070,"ĠChand":9071,"Ġeval":9072,"Ġlicense":9073,"ĠMort":9074,"ĠPage":9075,"Ġdiscip":9076,"Ġlasted":9077,"Ġrepresentation":9078,"ĠLanguage":9079,"agg":9080,"ĠCapital":9081,"Ġthousand":9082,"Ġpure":9083,"Ġmental":9084,"Ġstress":9085,"ĠEston":9086,"Ġorchestra":9087,"Ġintellect":9088,"ĠPatri":9089,"hand":9090,"Ġcable":9091,"raham":9092,"ĠNatural":9093,"Ġinfrastructure":9094,"songwriter":9095,"ĠChel":9096,"ivation":9097,"ĠFern":9098,"ĠDean":9099,"ĠAdelaide":9100,"Ġemerged":9101,"iors":9102,"Ġchannels":9103,"Ġrecre":9104,"ĠExt":9105,"Ġtunnel":9106,"Ev":9107,"Paul":9108,"illo":9109,"Ġtransportation":9110,"hered":9111,"Ġfled":9112,"Ġconcentration":9113,"Ġfinals":9114,"Ġstrongly":9115,"Personnel":9116,"hop":9117,"rass":9118,"inations":9119,"urst":9120,"eton":9121,"Ġbeach":9122,"ussels":9123,"ĠAnglo":9124,"Indian":9125,"MI":9126,"Ġdub":9127,"ĠGon":9128,"ĠGuy":9129,"1958":9130,"Ġhorror":9131,"Ġcredit":9132,"SU":9133,"later":9134,"Ġfile":9135,"Ġrend":9136,"ĠNBC":9137,"ewhere":9138,"ĠNova":9139,"ĠBelarus":9140,"ĠChart":9141,"Ġ47":9142,"ĠRichmond":9143,"Ġdowntown":9144,"ĠBurg":9145,"Ġcovering":9146,"Ġtied":9147,"Ġfilled":9148,"ingly":9149,"ĠĊĠ":9150,"ountry":9151,"encement":9152,"Ġprocessing":9153,"Ġmassive":9154,"Scot":9155,"ht":9156,"Ġreception":9157,"ĠPay":9158,"ĠGill":9159,"issue":9160,"ĠThompson":9161,"ĠJimmy":9162,"mate":9163,"emale":9164,"riel":9165,"anner":9166,"Ġsoul":9167,"ĠAssoci":9168,"George":9169,"!\"":9170,"ĠRena":9171,"iege":9172,"race":9173,"Ġseed":9174,"ported":9175,"Ġ51":9176,"Ġcontroversial":9177,"ĠTraining":9178,"Ġentertainment":9179,"Later":9180,"hour":9181,"orer":9182,"apse":9183,"amps":9184,"orses":9185,"Ġjudges":9186,"Jewish":9187,"ĠMall":9188,"ĠLane":9189,"ĠPhoen":9190,"gressive":9191,"Ġdated":9192,"ilk":9193,"ĠKo":9194,"Ġcollaboration":9195,"Pal":9196,"ĠSaints":9197,"Ġbird":9198,"ĠEnt":9199,"ategy":9200,"ugs":9201,"Ġstrategy":9202,"Ġdebate":9203,"Ġsurrounded":9204,"Ġdomain":9205,"inian":9206,"Ġwounded":9207,"Ġtransc":9208,"ĠColombia":9209,"rors":9210,"ĠCox":9211,"amo":9212,"Ġrating":9213,"atherine":9214,"Ġexplained":9215,"ĠClassic":9216,"ĠDaily":9217,"ĠNi":9218,"Ġanthrop":9219,"Ġsouthwest":9220,"Musical":9221,"Ġsort":9222,"ilst":9223,"ĠDub":9224,"oker":9225,"Ġheritage":9226,"Stud":9227,"Ġsteam":9228,"ĠStandard":9229,"vant":9230,"opal":9231,"Ġhistorians":9232,"Ġtemporary":9233,"ĠEgyptian":9234,"mund":9235,"uin":9236,"ĠCher":9237,"Ġlingu":9238,"Ġgrown":9239,"Current":9240,"ĠFitz":9241,"Ġindigenous":9242,"ĠFalls":9243,"egas":9244,"ĠBrooklyn":9245,"ĠCrim":9246,"ntil":9247,"OC":9248,"harm":9249,"1940":9250,"ĠVolume":9251,"Ġnormally":9252,"fiction":9253,"Ġvast":9254,"ristol":9255,"PC":9256,"ĠCulture":9257,"ĠProm":9258,"Ġdispl":9259,"hematic":9260,"escription":9261,"Ġcontinuing":9262,"otan":9263,"Ġratio":9264,"eo":9265,"ĠEmer":9266,"Ġ46":9267,"ashi":9268,"Ġfiled":9269,"unar":9270,"athy":9271,"Class":9272,"uclear":9273,"Ġadmitted":9274,"Ġsomeone":9275,"Station":9276,"Ġgradu":9277,"Ġbenefit":9278,"ÅĦ":9279,"ĠMi":9280,"ĠOur":9281,"isition":9282,"Ġsympt":9283,"Ġdidn":9284,"Ġcustom":9285,"ĠCEO":9286,"Ġillegal":9287,"Ġopinion":9288,"ĠMother":9289,"Ġstrip":9290,"Ġshif":9291,"Ġregistered":9292,"fessional":9293,"Ġfinding":9294,"ĠCarlos":9295,"Ġportrayed":9296,"erted":9297,"leans":9298,"ĠTak":9299,"ĠBorn":9300,"ĠWard":9301,"Ġ1907":9302,"Ġtack":9303,"irk":9304,"Ġnetworks":9305,"ĠProtestant":9306,"tha":9307,"essions":9308,"Ġcolony":9309,"Ġsurviving":9310,"ĠWallace":9311,"Ġgiant":9312,"atern":9313,"MC":9314,"Ġnone":9315,"ĠRules":9316,"ĠFlight":9317,"aurus":9318,"Ġ1909":9319,"Works":9320,"ĠKan":9321,"Ġpenalty":9322,"Ġweapon":9323,"Medalists":9324,"Ġmoder":9325,"ĠHerz":9326,"Ġrecept":9327,"andal":9328,"Ġ1901":9329,"ĠDigital":9330,"Another":9331,"ĠCampbell":9332,"Ġuniverse":9333,"Robert":9334,"onomy":9335,"ĠBenjamin":9336,"ruption":9337,"din":9338,"Ġinput":9339,"Ġkilomet":9340,"ĠOfficer":9341,"ĠMediterranean":9342,"Ġrestaurant":9343,"ĠIndonesia":9344,"ĠPra":9345,"using":9346,"Ġreputation":9347,"rows":9348,"Ġadvertising":9349,"ĠKnow":9350,"ĠSpirit":9351,"Ġvisible":9352,"mediate":9353,"ĠClinton":9354,"ĠHas":9355,"ĠRace":9356,"1961":9357,"Ġ1902":9358,"Discography":9359,"ĠRio":9360,"Ġshares":9361,"arked":9362,"Ġextent":9363,"Ġoption":9364,"Ġbelonged":9365,"ĠBav":9366,"rip":9367,"Ġpartly":9368,"ĠPeters":9369,"Ġrapidly":9370,"ĠArena":9371,"ĠIv":9372,"Ġsigns":9373,"Ġannually":9374,"ĠHolland":9375,"rity":9376,"Ġhuge":9377,"ĠMind":9378,"Ġamateur":9379,"Ġlov":9380,"Ġperfect":9381,"ails":9382,"Ġadopt":9383,"Ġsafe":9384,"Ġhal":9385,"ĠNet":9386,"iner":9387,"Ġstrict":9388,"udes":9389,"ĠAthletics":9390,"cut":9391,"Ġcous":9392,"ĠStars":9393,"Ġsoundtrack":9394,"ĠLeban":9395,"Ġbes":9396,"Ġ120":9397,"Ġstruck":9398,"Ġarrangement":9399,"ĠPun":9400,"ĠVic":9401,"Ġ1904":9402,"Ġgradually":9403,"Ġtreated":9404,"ĠBCE":9405,"ĠIndians":9406,"ournament":9407,"ĠReserve":9408,"Ġfemales":9409,"ĠEconomic":9410,"Ġunderstand":9411,"ĠByzantine":9412,"Ġmor":9413,"ĠAld":9414,"osph":9415,"Ġhappened":9416,"Ġster":9417,"ĠWoman":9418,"Ġrunner":9419,"Ġprinciple":9420,"Ġswimming":9421,"ĠArchitecture":9422,"uy":9423,"abul":9424,"Ġdefence":9425,"ĠWebsite":9426,"Ġliquid":9427,"ĠRef":9428,"uki":9429,"Ġmagazines":9430,"ĠMetro":9431,"Ġtheat":9432,"ĠBrisbane":9433,"Ġconj":9434,"Ġmaintenance":9435,"Ġanything":9436,"1959":9437,"Ġchallenge":9438,"iest":9439,"ĠLithuan":9440,"ĠFel":9441,"Ġextreme":9442,"Ġaffairs":9443,"Ġinvolvement":9444,"Ġconvicted":9445,"Ġproteins":9446,"Ġchapter":9447,"ĠNelson":9448,"ĠMayor":9449,"Production":9450,"Ġtouchdown":9451,"rose":9452,"ĠTheater":9453,"ophone":9454,"Ġminimum":9455,"eway":9456,"Ġinterchange":9457,"Ġsimpl":9458,"Ġprize":9459,"Ġabsence":9460,"ido":9461,"ĠEle":9462,"Ġkings":9463,"Ġcontroll":9464,"Ġassign":9465,"ĠArkansas":9466,"Ġtries":9467,"ĠNav":9468,"Ġvic":9469,"ĠVel":9470,"ĠMedicine":9471,"Ġdestruction":9472,"Ġsettlements":9473,"EA":9474,"War":9475,"Ġoxygen":9476,"mi":9477,"onies":9478,"Ġshore":9479,"Ġthemes":9480,"Ġentering":9481,"Ġindicated":9482,"Ġbringing":9483,"ĠMunicipality":9484,"ĠCarm":9485,"Ġelectoral":9486,"Ġclassification":9487,"ĠMovement":9488,"auc":9489,"ĠMult":9490,"ribution":9491,"Ġdivor":9492,"Ġvision":9493,"Ġlosses":9494,"However":9495,"Ġgenetic":9496,"Ġgeomet":9497,"Ġcategories":9498,"ĠCathedral":9499,"Ġstayed":9500,"ĠRacing":9501,"empt":9502,"Ġrelief":9503,"wig":9504,"ĠSite":9505,"ĠAqu":9506,"Ġclim":9507,"ĠAnna":9508,"stery":9509,"Ġpredecess":9510,"ĠVictorian":9511,"itter":9512,"Ġinner":9513,"ĠJason":9514,"ĠEdition":9515,"Ġdrugs":9516,"stad":9517,"iop":9518,"sters":9519,"Ġgather":9520,"ĠAnat":9521,"Ġsentence":9522,"dess":9523,"oft":9524,"ĠOrange":9525,"ĠIsraeli":9526,"oom":9527,"Ġswitch":9528,"lie":9529,"ĠBenn":9530,"Ġvow":9531,"Ġbalance":9532,"ĠPant":9533,"Ġqualified":9534,"Ġjobs":9535,"Ġdeployed":9536,"Ġgets":9537,"ĠInvest":9538,"Ġacknow":9539,"ĠCle":9540,"istical":9541,"Ġinterpre":9542,"ĠOrleans":9543,"Ġranking":9544,"foot":9545,"Ġmac":9546,"Ġnit":9547,"Ġreleases":9548,"Ġdebuted":9549,"1956":9550,"ĠKirk":9551,"Bel":9552,"Ġfalls":9553,"ĠCou":9554,"Ġyield":9555,"ĠClare":9556,"Ġparam":9557,"ĠRomanian":9558,"ĠModel":9559,"SW":9560,"Ã¦":9561,"Ġmob":9562,"Ġhip":9563,"ework":9564,"ĠEvans":9565,"Ġpercentage":9566,"ĠSteel":9567,"Us":9568,"ĠSoul":9569,"ĠLarry":9570,"ĠAncient":9571,"Ġbon":9572,"iration":9573,"Ġorganisation":9574,"Ġidentify":9575,"oked":9576,"ivia":9577,"Ġthin":9578,"otton":9579,"Scotland":9580,"Ġmeets":9581,"Ġcharacterized":9582,"Athlet":9583,"cho":9584,"ĠWW":9585,"itars":9586,"ĠAges":9587,"Ġplatforms":9588,"orous":9589,"Ġpric":9590,"ĠMack":9591,"ĠSalv":9592,"Ġpredomin":9593,"body":9594,"Ġusage":9595,"Ġcolonies":9596,"rage":9597,"Ġprovinces":9598,"lik":9599,"ĨĴ":9600,"Ġtherm":9601,"Ġfil":9602,"ĠUnit":9603,"Ġsignif":9604,"Ġintersection":9605,"but":9606,"ĠSud":9607,"Ġloyal":9608,"plement":9609,"Ġdominant":9610,"Ġibn":9611,"ĠRomania":9612,"Ġdiscovery":9613,"ĠHebrew":9614,"ĠIns":9615,"Ġbases":9616,"Ġprompt":9617,"ching":9618,"ĠStein":9619,"Ġskating":9620,"Ġimmediate":9621,"ĠSS":9622,"ĠPad":9623,"Ġcomputers":9624,"400":9625,"Mc":9626,"Ġcomponent":9627,"ĠCroatian":9628,"itable":9629,"Ġthrone":9630,"osy":9631,"ificial":9632,"elta":9633,"ĠMerc":9634,"ĠBuddhist":9635,"Ġtools":9636,"ĠMaj":9637,"Ã«":9638,"idency":9639,"Ġsecure":9640,"Ġpoets":9641,"ĠDefence":9642,"Ġfruit":9643,"Political":9644,"Ġrose":9645,"Ġinterested":9646,"arant":9647,"roph":9648,"ĠDog":9649,"Ġstyles":9650,"Ġalgebra":9651,"ĠStanley":9652,"ĠMitchell":9653,"brid":9654,"mont":9655,"Ġmine":9656,"ĠPsych":9657,"Ġgolf":9658,"avel":9659,"Ġsubst":9660,"Ġinvolves":9661,"Ġ1870":9662,"Ġtemperatures":9663,"ĠCricket":9664,"1957":9665,"Ġequipped":9666,"Ġdaughters":9667,"coming":9668,"ĠAzerbaijan":9669,"ĠBranch":9670,"Ġcredits":9671,"Soc":9672,"Ġcatch":9673,"Ġpoems":9674,"Ġwars":9675,"opter":9676,"Ġleagues":9677,"ĠAnim":9678,"Ġdrop":9679,"acle":9680,"Ġtrail":9681,"Ġverte":9682,"Ġcontinuous":9683,"Ġcamera":9684,"sson":9685,"1954":9686,"ushing":9687,"Ġdisestablished":9688,"Tax":9689,"Ġbrig":9690,"Ġdual":9691,"ĠChron":9692,"Ġpercussion":9693,"Ġprovision":9694,".'":9695,"Ãł":9696,"Ġtanks":9697,"ĠFull":9698,"Ġadults":9699,"Ġdanc":9700,"ĠAction":9701,"Ġformula":9702,"ĠComputer":9703,"flow":9704,"Ġtropical":9705,"Ġneck":9706,"ĠDiam":9707,"ĠVI":9708,"Ġ54":9709,"Ġblocks":9710,"lett":9711,"osophical":9712,"Ġtraditionally":9713,"RC":9714,"à®":9715,"Ġholid":9716,"ĠGun":9717,"Ġgrass":9718,"Ġtheories":9719,"Ġemp":9720,"Ġmathematics":9721,"ĠCosta":9722,"icas":9723,"ĠSi":9724,"ĠDod":9725,"ĠFight":9726,"Ġmonument":9727,"Ġthing":9728,"Ġraise":9729,"Ġdistinguished":9730,"ĠHom":9731,"ĠMars":9732,"ossible":9733,"ĠBruns":9734,"ĠSerbia":9735,"Defunct":9736,"Ġfold":9737,"Ġtransmit":9738,"ĠInstead":9739,"ĠOnline":9740,"Ġexperimental":9741,"ĠHem":9742,"aze":9743,"onymous":9744,"ricted":9745,"Ġessential":9746,"Ġvictims":9747,"profit":9748,"Ġvideos":9749,"Fictional":9750,"estone":9751,"Commun":9752,"ĠFreedom":9753,"Ġinstrumental":9754,"Ġunderground":9755,"uction":9756,"Ġtests":9757,"ĠCarter":9758,"Ġdenied":9759,"master":9760,"ogle":9761,"Ġswit":9762,"1939":9763,"Ġlowest":9764,"Ġzero":9765,"Add":9766,"Mal":9767,"Ġsleep":9768,"oga":9769,"Ġneuro":9770,"ictionary":9771,"Ġcollections":9772,"Hz":9773,"Red":9774,"Ġ),":9775,"Ġbone":9776,"Ġcrash":9777,"mary":9778,"aplogroup":9779,"ovina":9780,"ĠTrinity":9781,"Ġsentenced":9782,"ĠElectric":9783,"ĠMethodist":9784,"bow":9785,"ulum":9786,"ellion":9787,"Ġteeth":9788,"Ġcrimes":9789,"Ġwindow":9790,"Italian":9791,"Sim":9792,"Under":9793,"pop":9794,"onso":9795,"igg":9796,"ĠIRA":9797,"izer":9798,"orkshire":9799,"ĠHudson":9800,"ĠBey":9801,"Ġwooden":9802,"Ġsuicide":9803,"igrated":9804,"acon":9805,"riers":9806,"ĠChamber":9807,"ĠExp":9808,"Ġunusual":9809,"terior":9810,"ortion":9811,"Ġviewed":9812,"ĠSak":9813,"ĠVenezuel":9814,"ĠCardinals":9815,"Ġeat":9816,"Ġcod":9817,"amics":9818,"uli":9819,"ĠColumbus":9820,"ĠFaculty":9821,"ĠCincinnati":9822,"ĠZe":9823,"Ġlabour":9824,"edding":9825,"Tur":9826,"asm":9827,"utor":9828,"Ġmathematic":9829,"Ġapproval":9830,"Ġantib":9831,"Ġproposal":9832,"ĠKeith":9833,"Ġprinted":9834,"Ġ1000":9835,"ceived":9836,"icance":9837,"ĠAlice":9838,"Ġtransform":9839,"Ġviolin":9840,"Ã¼n":9841,"urricane":9842,"Post":9843,"fire":9844,"ĠHab":9845,"ĠGreater":9846,"Ġaffiliate":9847,"ĠAlger":9848,"Ġintegrated":9849,"Ġhundreds":9850,"living":9851,"Ġbiography":9852,"ĠGoi":9853,"Gallery":9854,"Ġtell":9855,"ĠBaker":9856,"Ġdialect":9857,"ĠPolitical":9858,"Im":9859,"Ġtraditions":9860,"Ġvolumes":9861,"Ġdominated":9862,"winning":9863,"ĠSay":9864,"ĠLl":9865,"aja":9866,"SE":9867,"rock":9868,"ĠGray":9869,"ĠESPN":9870,"abad":9871,"Ġartistic":9872,"Ġdrum":9873,"Ġdemolished":9874,"Ġexperiences":9875,"senal":9876,"ĠIranian":9877,"rency":9878,"ĠProp":9879,"Ġflows":9880,"Ġvessels":9881,"ĠBrunswick":9882,"Å¾":9883,"Ġdogs":9884,"ĠOblast":9885,"eda":9886,"ovo":9887,"ĠHeavy":9888,"iveness":9889,"ĠMPs":9890,"LP":9891,"bus":9892,"Ġparticles":9893,"ĠSid":9894,"Ġcomplic":9895,"Ġroots":9896,"Russian":9897,"nell":9898,"ĠMarshall":9899,"Ġbrick":9900,"ĠRub":9901,"rien":9902,"formerly":9903,"Ġhunting":9904,"def":9905,"oan":9906,"ĠSuch":9907,"ĠBristol":9908,"uckland":9909,"Ġinjuries":9910,"etition":9911,"ĠHold":9912,"Ġwrites":9913,"ĠBrun":9914,"Ġdebt":9915,"Ġgenre":9916,"ĠMagn":9917,"Ġcompletion":9918,"Ġconnections":9919,"Michael":9920,"FB":9921,"stown":9922,"Ġgate":9923,"ĠDragon":9924,"ĠGa":9925,"Ġphone":9926,"ĠDom":9927,"Ġsatellite":9928,"Christian":9929,"'ll":9930,"Out":9931,"Ñģ":9932,"ructions":9933,"Ġoperational":9934,"ategory":9935,"ĠConservative":9936,"icial":9937,"occ":9938,"Ġjournalists":9939,"teg":9940,"Ġagencies":9941,"Ġadvis":9942,"enburg":9943,"Ġeasy":9944,"ĠLP":9945,"oka":9946,"Ġgovernments":9947,"auer":9948,"Ġskaters":9949,"ĠSarah":9950,"RI":9951,"bul":9952,"ĠGate":9953,"Ġocean":9954,"atche":9955,"ĠSr":9956,"Ġsees":9957,"izz":9958,"Ġorigins":9959,"Ġseek":9960,"Donald":9961,"Ġid":9962,"Ġsudden":9963,"ĠSign":9964,"Ġpalace":9965,"Ġdiverse":9966,"Ġsend":9967,"amine":9968,"Ġgone":9969,"avia":9970,"Ġpartially":9971,"Ġaccord":9972,"Ġpersonality":9973,"Ġkeyboards":9974,"ĠCeltic":9975,"itations":9976,"abric":9977,"usted":9978,"Ġexplo":9979,"Ġrelationships":9980,"Ġconcerned":9981,"pm":9982,"ĠAer":9983,"olition":9984,"ĠMaced":9985,"Ġchlor":9986,".),":9987,"iko":9988,"ĠCanal":9989,"Ġphysics":9990,"Î±":9991,"ffield":9992,"Ġintention":9993,"NP":9994,"lÄ±":9995,"ilty":9996,"Ġelder":9997,"1930":9998,"Ġfrequent":9999,"Ġagents":10000,"Ġlimits":10001,"Ġapparently":10002,"Bus":10003,"ĠBureau":10004,"igion":10005,"eme":10006,"Ġpatterns":10007,"ĠFisher":10008,"Ġexceed":10009,"Ġelectrical":10010,"ĠProtection":10011,"icular":10012,"ĠTu":10013,"castle":10014,"Ġclaiming":10015,"ĠSah":10016,"ĠBeck":10017,"ĠEvent":10018,"arting":10019,"ĠPrincip":10020,"Ġimplemented":10021,"Ġlose":10022,"ĠJerry":10023,"ĠKap":10024,"ĠIsa":10025,"scale":10026,"Ġscientist":10027,"Ġchemistry":10028,"Tim":10029,"pent":10030,"egro":10031,"ĠProf":10032,"ĠGround":10033,"Ġ1898":10034,"Ġruling":10035,"Ġsupplies":10036,"Tour":10037,"Ġsax":10038,"ĠCommer":10039,"Ġpassage":10040,"Ġsymptoms":10041,"iations":10042,"Ġcattle":10043,"ĠCov":10044,"Ġcenters":10045,"1955":10046,"ĠDenver":10047,"Ġcup":10048,"Ġtow":10049,"ĠRy":10050,"Ġsupporters":10051,"Ġmechanism":10052,"Ġpapers":10053,"Ġrent":10054,"SM":10055,"emed":10056,"ĠSecondary":10057,"ĠHampshire":10058,"gate":10059,"omon":10060,"ĠKr":10061,"Ġimmigrants":10062,"Ġconversion":10063,"Ġplayoffs":10064,"Commencement":10065,"asha":10066,"Ġexpert":10067,"Ġbiological":10068,"Ġmarketing":10069,"Second":10070,"eria":10071,"ĠWa":10072,"emble":10073,"ierra":10074,"Ġprinciples":10075,"Ġpip":10076,"iour":10077,"Ġapply":10078,"Ġremember":10079,"ĠPlant":10080,"Ġidentical":10081,"Ġdetailed":10082,"Ãª":10083,"ieg":10084,"Ġpublisher":10085,"Ġterminal":10086,"Ġstatue":10087,"ĠPrior":10088,"Bra":10089,"HA":10090,"ĠCass":10091,"ĠRand":10092,"riors":10093,"Ġrit":10094,"Ġeverything":10095,"Ġrandom":10096,"Ġcompeting":10097,"Ġbegun":10098,"Ġattracted":10099,"Ġathletes":10100,"Ġfestivals":10101,"bel":10102,"eas":10103,"ĠYorkshire":10104,"Ġmovies":10105,"Prot":10106,"Ġsuspended":10107,"ĠAbbey":10108,"Ġcash":10109,"ĠBald":10110,"Ġexcess":10111,"enson":10112,"chest":10113,"Ġrelocated":10114,"Ġpossibility":10115,"ĠUkrainian":10116,"Ġcasual":10117,"ĠCond":10118,"ĠMarie":10119,"Ġ56":10120,"Ġ66":10121,"Ġmoves":10122,"yers":10123,"itis":10124,"Ġmos":10125,"overy":10126,"ĠPeninsula":10127,"RL":10128,"ixon":10129,"Ġneither":10130,"Ġindicates":10131,"ED":10132,"ĠCold":10133,"Ġchrom":10134,"Che":10135,"Description":10136,"ĠRico":10137,"ĠGet":10138,"Ġdiscontin":10139,"Ġsubstantial":10140,"ĠHitler":10141,"ĠUC":10142,"Male":10143,"Ġcloser":10144,"Ġboundaries":10145,"ĠBelgian":10146,"Ġlicensed":10147,"haus":10148,"These":10149,"Ġevolved":10150,"Ġminute":10151,"Ġchildhood":10152,"Ġelevation":10153,"Ġpeaked":10154,"pin":10155,"Ġtruth":10156,"miral":10157,"trans":10158,"ĠAlbum":10159,"annon":10160,"Ġgenerated":10161,"Dr":10162,"making":10163,"rection":10164,"ĠChad":10165,"ĠSyria":10166,"Ġturning":10167,"Ġproduces":10168,"uncredited":10169,"ĠBulgarian":10170,"Ġwrong":10171,"Ġhorn":10172,"inea":10173,"Ġlinear":10174,"Deaths":10175,"Ġeighth":10176,"ĠDays":10177,"Ġproductions":10178,"ĠUrban":10179,"iture":10180,"Ġmemorial":10181,"achi":10182,"ographics":10183,"ĠPierre":10184,"Oper":10185,"Ġfighter":10186,"ussia":10187,"ĠPrix":10188,"ĠSystems":10189,"ĠArmenia":10190,"maker":10191,"Ġwings":10192,"ĠPerson":10193,"Ġwritings":10194,"Ġerror":10195,"uations":10196,"áĥ":10197,"oro":10198,"ĠLGBT":10199,"Ġpartial":10200,"Ġministers":10201,"Em":10202,"Ġdisorder":10203,"scar":10204,"Ġremainder":10205,"overty":10206,"type":10207,"Ġdriven":10208,"ursing":10209,"ĠFIFA":10210,"King":10211,"ĠJama":10212,"endar":10213,"prus":10214,"ĠBrussels":10215,"Ġspeakers":10216,"Ġmechanical":10217,"Organ":10218,"hu":10219,"ĠMong":10220,"ags":10221,"Ġconnect":10222,"ĠMichel":10223,"cm":10224,"folk":10225,"Ġfantasy":10226,"agre":10227,"Ġdraf":10228,"Ġresearchers":10229,"800":10230,"Br":10231,"alph":10232,"Ġcomics":10233,"arest":10234,"Ġoriginated":10235,"ĠDeputy":10236,"Ġdiseases":10237,"Ġdeparture":10238,"free":10239,"ancell":10240,"Ġcompetitive":10241,"Ġincreases":10242,"1953":10243,"encing":10244,"Ġerected":10245,"Ġhabitat":10246,"Hung":10247,"Up":10248,"Ġtrading":10249,"ĠBuddha":10250,"ĠMovie":10251,"Ġcomparison":10252,"Air":10253,"hai":10254,"people":10255,"eric":10256,"ĠOil":10257,"Cap":10258,"Ġempire":10259,"ĠStorm":10260,"ĠSeason":10261,"break":10262,"Ġencouraged":10263,"Ġinterpretation":10264,"esar":10265,"ĠTol":10266,"ĠUEFA":10267,"amples":10268,"Ġcanc":10269,"Ġregime":10270,"Ġbankrupt":10271,"Ġthreatened":10272,"Gen":10273,"asp":10274,"ĠNation":10275,"Ġadmin":10276,"Ġvariant":10277,".âĢĿ":10278,"erk":10279,"eyer":10280,"Ġhonour":10281,"Ġdrawing":10282,"wright":10283,"alus":10284,"urring":10285,"ipper":10286,"ecution":10287,"Ġschedule":10288,"Ġrecommended":10289,"Ġcul":10290,"etween":10291,"Ġsteps":10292,"ĠHorse":10293,"Cons":10294,"case":10295,"iology":10296,"uart":10297,"1920":10298,"Ġrac":10299,"ĠGlen":10300,"Ġmeters":10301,"1952":10302,"Ġpainted":10303,"ĠRoll":10304,"Ġgram":10305,"Ġframe":10306,"Ġpregn":10307,"audi":10308,"Ġcorresponding":10309,"ĠPictures":10310,"Ġsurname":10311,"Big":10312,"Despite":10313,"alg":10314,"Ġdepicted":10315,"ĠActor":10316,"Ġabsol":10317,"Ġhyper":10318,"Ġnoble":10319,"ĠMachine":10320,"his":10321,"Ġbishops":10322,"ĠRobin":10323,"dy":10324,"ĠVas":10325,"Ġimperial":10326,"Ġdrummer":10327,"Ġconstituency":10328,"Radio":10329,"Ġstim":10330,"Ġdepth":10331,"ĠUlt":10332,"Ġfemin":10333,"Ġemergency":10334,"Ġrarely":10335,"Government":10336,"ĠTob":10337,"ĠTournament":10338,"ubs":10339,"ipped":10340,"ĠFormer":10341,"rov":10342,"ĠPhoenix":10343,"ĠBass":10344,"Ġattorney":10345,"Ġannounc":10346,"ĠNapole":10347,"oni":10348,"ĠDiocese":10349,"Ġappropriate":10350,"uable":10351,"1918":10352,"Ġ1895":10353,"Ġconstitutional":10354,"itime":10355,"omorph":10356,"Ġinstruct":10357,"Ġdinosaur":10358,"ĠAFL":10359,"Ġrestoration":10360,"oque":10361,"ĠCour":10362,"Ġorbit":10363,"Ġlandscape":10364,"ĠSerbian":10365,"Ġhydrogen":10366,"Top":10367,"ĠSnow":10368,"ĠEug":10369,"avan":10370,"overe":10371,"Ġknew":10372,"Ġmonastery":10373,"Ġeleven":10374,"ĠKildare":10375,"Jos":10376,"Ġouter":10377,"Ġcinema":10378,"Ġfix":10379,"Ġalph":10380,"Ġempt":10381,"ĠEncyclop":10382,"Ġexecution":10383,"ĠBaptist":10384,"fielder":10385,"hy":10386,"Ġdream":10387,"ĠMick":10388,"Ġinstruction":10389,"ĠSalt":10390,"ĠRabb":10391,"ĠOct":10392,"Ġmarine":10393,"Ġamongst":10394,"1947":10395,"ĠOliver":10396,"Ġhoriz":10397,"UC":10398,"fers":10399,"alysis":10400,"ĠSide":10401,"Ġdrew":10402,"Ġrepr":10403,"iscopal":10404,"Ġcontribution":10405,"graduate":10406,"Ġromantic":10407,"%),":10408,"'ve":10409,"SD":10410,"Vill":10411,"ĠTag":10412,"Ġencl":10413,"itarian":10414,"1942":10415,"ospitals":10416,"Ġconfig":10417,"Ġhelping":10418,"Ġphotography":10419,"Ġexcav":10420,"Ġcave":10421,"ifies":10422,"Ġelse":10423,"Ġideal":10424,"Ġbanned":10425,"uba":10426,"Ġaggreg":10427,"Ġdoct":10428,"ĠAbu":10429,"Ġsuitable":10430,"uits":10431,"stitutional":10432,"ĠSmall":10433,"illes":10434,"ĠAbraham":10435,"1948":10436,"Ġindustries":10437,"ĠCommissioner":10438,"Ġdonated":10439,"aser":10440,"Ġminority":10441,"ĠBud":10442,"ĠWarner":10443,"ĠParker":10444,"Ġvariable":10445,"isode":10446,"Ġwire":10447,"ĠChen":10448,"ĠJoy":10449,"Ġacoustic":10450,"1938":10451,"Ġargument":10452,"ĠJonathan":10453,"pat":10454,"Ġfurn":10455,"nex":10456,"Ġpractical":10457,"Ġfundamental":10458,"Ġtourism":10459,"Ġtreaty":10460,"Ġspeaking":10461,"Ġsalt":10462,"egovina":10463,"Ġsupports":10464,"ĠCraig":10465,"ĠRheoli":10466,"new":10467,"olics":10468,"Ġregulations":10469,"Ġexplan":10470,"rehensive":10471,"iast":10472,"Ġhat":10473,"ĠBund":10474,"ĠKum":10475,"bie":10476,"ĠIb":10477,"onda":10478,"achment":10479,"1949":10480,"Ġpian":10481,"teenth":10482,"ĠZone":10483,"Ġguitars":10484,"Ġrebuilt":10485,"Ġceased":10486,"Ġrhythm":10487,"Ġoccasions":10488,"ivan":10489,"ĠArist":10490,"ĠHarrison":10491,"Ġexcell":10492,"Ġexclusively":10493,"Ġinsect":10494,"ĠCrow":10495,"Ġintent":10496,"ĠWarren":10497,"Ġanalog":10498,"game":10499,"ĠNam":10500,"ogan":10501,"ensation":10502,"Ã¶n":10503,"Ġsuffering":10504,"Ġupgrad":10505,"Ġca":10506,"ĠSongs":10507,"ĠBath":10508,"idal":10509,"Ġwaste":10510,"ĠLamb":10511,"Ġju":10512,"1941":10513,"Ġconcerning":10514,"Ġbeautiful":10515,"Ret":10516,"finals":10517,"ĠMix":10518,"ĠEsp":10519,"They":10520,"Ġruler":10521,"ĠBened":10522,"ĠFinance":10523,"Ġillness":10524,"Ġfat":10525,"etary":10526,"Ġgender":10527,"ĠDrag":10528,"Ġcolors":10529,"erals":10530,"amer":10531,"ĠFr":10532,"Ġuncle":10533,"ĠPhot":10534,"What":10535,"Ġ1860":10536,"Ġhardware":10537,"Ġdispute":10538,"ĠCuban":10539,"Ġcousin":10540,"zym":10541,"atra":10542,"Ġsin":10543,"ĠPel":10544,"Ġeditions":10545,"Ġorganic":10546,"Thomas":10547,"Ġmissed":10548,"Ġclearly":10549,"ĠTerritory":10550,"igo":10551,"ĠRing":10552,"Ġcoat":10553,"ĠConfederate":10554,"ĠMap":10555,"ĠHunt":10556,"othe":10557,"Ġlocally":10558,"Ã¨re":10559,"ĠTurner":10560,"ON":10561,"ĠAdv":10562,"Ġmerger":10563,"ĠUniversal":10564,"Electoral":10565,"End":10566,"Ġton":10567,"exp":10568,"1943":10569,"Ġchoose":10570,"Ġsurgery":10571,"PA":10572,"ĠBod":10573,"ĠPle":10574,"Ġexpect":10575,"Ġparticipation":10576,"Ġsigning":10577,"aneously":10578,"Ġtenure":10579,"Ġvoting":10580,"Ġpremiered":10581,"br":10582,"only":10583,"Ġinhib":10584,"Ġalk":10585,"ĠEU":10586,"quir":10587,"Univers":10588,"ĠImm":10589,"Ġmeasured":10590,"Ġwindows":10591,"Met":10592,"ĠNumber":10593,"Ġcounties":10594,"ormal":10595,"Ġ1899":10596,"ãĤ":10597,"ĠAch":10598,"Rock":10599,"odium":10600,"aha":10601,"ĠMilan":10602,"ĠAj":10603,"apped":10604,"Ġstudios":10605,"Ġaffiliated":10606,"strong":10607,"Ġliberal":10608,"Ġwet":10609,"Ġbid":10610,"Ġpatron":10611,"Ġreportedly":10612,"Ġstruggle":10613,"wald":10614,"arians":10615,"Ġ250":10616,"Ġhistorically":10617,"Ġfacilit":10618,"ĠButler":10619,"Ġbenefits":10620,"iper":10621,"ĠOpera":10622,"kinson":10623,"African":10624,"jection":10625,"Ġaqu":10626,"ilia":10627,"Ã©n":10628,"Ġgenera":10629,"Ġinducted":10630,"Mart":10631,"backs":10632,"ÑĤ":10633,"Ġwrestling":10634,"Ġfur":10635,"Ġmamm":10636,"ĠSingles":10637,"speaking":10638,"Ġsignificance":10639,"oslov":10640,"ĠÂ½":10641,"Ġconventional":10642,"bes":10643,"pers":10644,"Ġreduction":10645,"Ġconscious":10646,"ĠExper":10647,"Ġsolar":10648,"deen":10649,"ĠSimilar":10650,"Ġmanufacturers":10651,"Family":10652,"ĠIvan":10653,"Ġchamber":10654,"Ġpublicly":10655,"Ġpersp":10656,"ĠSoft":10657,"ĠBarbara":10658,"Charles":10659,"jab":10660,"oj":10661,"ĠRat":10662,"ulu":10663,"Ġspin":10664,"Ġconservation":10665,"ĠCurrent":10666,"holm":10667,"ĠAth":10668,"ĠUnlike":10669,"ensively":10670,"oil":10671,"Ġmatters":10672,"Ġterminus":10673,"ĠPA":10674,"igs":10675,"oven":10676,"Ġspoke":10677,"Ġshift":10678,"Ġestablishing":10679,"ployment":10680,"eals":10681,"Ġbright":10682,"Ġanyone":10683,"ĠCay":10684,"ĠHugh":10685,"geon":10686,"acts":10687,"Alumni":10688,"ĠTherefore":10689,"Ġsight":10690,"ĠCultural":10691,"Ġattractions":10692,"Ġemployment":10693,"ĠKnights":10694,"Ġenjoyed":10695,"Ġcorporate":10696,"orp":10697,"Ġremove":10698,"Ġexpensive":10699,"Ġappointment":10700,"election":10701,"Ġ53":10702,"amese":10703,"ĠBarn":10704,"ĠDrive":10705,"iliar":10706,"ĠSenator":10707,"HE":10708,"rait":10709,"Ġscope":10710,"helm":10711,"Ġ1888":10712,"Ġtrend":10713,"Ġmurdered":10714,"itially":10715,"ĠVerm":10716,"Ġexposed":10717,"Ġdiscussed":10718,"Ġphilosopher":10719,"Ġtie":10720,"reck":10721,"ĠBert":10722,"Ġru":10723,"angle":10724,"1946":10725,"placement":10726,"Ġrecovered":10727,"Ġpreferred":10728,"ĠNicholas":10729,"gence":10730,"Ġbin":10731,"avor":10732,"Ġsimult":10733,"Ã¶y":10734,"Ġgrav":10735,"OL":10736,"Ġborders":10737,"asant":10738,"ĠCob":10739,"ĠPil":10740,"Ġnomination":10741,"ĠRheoliadau":10742,"Ġmo":10743,"ĠDra":10744,"ĠAuckland":10745,"ĠPrad":10746,"iri":10747,"Ġsacrif":10748,"Ġaimed":10749,"Ġcircumstances":10750,"ĠHerzegovina":10751,"disc":10752,"Ġdangerous":10753,"ĠLear":10754,"oren":10755,"Ġcarries":10756,"ãģ":10757,"ĠAssy":10758,"Ġseeking":10759,"ĠLaur":10760,"ĠFormation":10761,"iblical":10762,"Ġalgorithm":10763,"orse":10764,"Ġbrew":10765,"racks":10766,"viously":10767,"Ġparticipants":10768,"Ġarchitectural":10769,"ĠJudge":10770,"ĠCyprus":10771,"ĠMembers":10772,"ophers":10773,"VID":10774,"fly":10775,"ĠSask":10776,"Ġdecisions":10777,"ĠMinor":10778,"Ġvisiting":10779,"Ġassociate":10780,"Ġconnecting":10781,"ĠMunich":10782,"ĠFriday":10783,"ĠBear":10784,"Ã³w":10785,"ĠMagic":10786,"Ġpanel":10787,"Ð¾Ð":10788,"Scottish":10789,"inite":10790,"ĠNad":10791,"berry":10792,"ĠYam":10793,"ĠArc":10794,"Ġkeeping":10795,"ĠStre":10796,"Ġopponent":10797,"sequently":10798,"Ġsamples":10799,"ĠHunter":10800,"Ġfalse":10801,"Ġwat":10802,"Ġlayer":10803,"Ġninth":10804,"Ġrecon":10805,"ĠPont":10806,"Ġrub":10807,"uka":10808,"Fl":10809,"rary":10810,"ste":10811,"ĠMaine":10812,"ĠPin":10813,"enders":10814,"Ġtox":10815,"ĠSyn":10816,"ĠHerman":10817,"rus":10818,"ĠMeg":10819,"Ġlibr":10820,"Ġboats":10821,"Ġexposure":10822,"ĠAthen":10823,"Ġoperator":10824,"Alex":10825,"eing":10826,"igible":10827,"ĠFun":10828,"Ġunderw":10829,"ĠHighland":10830,"Ġslaves":10831,"ĠJefferson":10832,"ĠEagles":10833,"Ġrounds":10834,"ĠÄ°":10835,"Ġtimber":10836,"Ġranks":10837,"ovsky":10838,"Ġassets":10839,"1944":10840,"Ġgraphics":10841,"ections":10842,"iere":10843,"ĠEight":10844,"Ġimplementation":10845,"care":10846,"icity":10847,"Ġmoral":10848,"ipher":10849,"Ġglac":10850,"ĠCode":10851,"1936":10852,"Ġrestaurants":10853,"TE":10854,"math":10855,"pose":10856,"onial":10857,"Ġnest":10858,"ottingham":10859,"Ġ1884":10860,"ĠMunicipal":10861,"ĠFleet":10862,"Ġphrase":10863,"zes":10864,"ĠSoutheast":10865,"ĠKun":10866,"Ġagree":10867,"borne":10868,"Ġurg":10869,"ĠLis":10870,"Ġbears":10871,"lishment":10872,"auge":10873,"Ġpatrol":10874,"1951":10875,"ĠOakland":10876,"Ġsurvive":10877,"Ġfalling":10878,"Ġparliamentary":10879,"anne":10880,"Ġradiation":10881,"ĠHawaii":10882,"Ġreaches":10883,"ĠWalt":10884,"Ġorn":10885,"caster":10886,"ĠPast":10887,"Ġdistinction":10888,"Ġslave":10889,"Ġ1896":10890,"sis":10891,"amous":10892,"Ġroot":10893,"Ġafterwards":10894,"ĠLeeds":10895,"Ġsuppress":10896,"Ġnoise":10897,"Ġcabinet":10898,"600":10899,"Ġcrops":10900,"ĠSC":10901,"Ġdiver":10902,"ĠGrad":10903,"Ġmeetings":10904,"Ġessay":10905,"Just":10906,"Old":10907,"zi":10908,"ichi":10909,"aceous":10910,"Ä±n":10911,"marine":10912,"Ġalternate":10913,"Ġnominations":10914,"Ġbattalion":10915,"ĠFriedrich":10916,"asks":10917,"ĠGrey":10918,"ĠNear":10919,"Ġwhilst":10920,"Ġskull":10921,"ospel":10922,"ĠKon":10923,"Richard":10924,"ĠGonz":10925,"IM":10926,"gom":10927,"ĠSad":10928,"Ġexperiments":10929,"Ġvessel":10930,"Ġtheorem":10931,"Ġdesire":10932,"Ġ57":10933,"ĠLead":10934,"Ġ600":10935,"ĠSheffield":10936,"Ġphysic":10937,"ĠBobby":10938,"onomous":10939,"agers":10940,"Ġconservative":10941,"Ġguilty":10942,"ĠSocialist":10943,"ĠCharlotte":10944,"ĠProfessional":10945,"ĠIndependence":10946,"Ġshopping":10947,"Sal":10948,"ĠKra":10949,"ĠKurd":10950,"acht":10951,"Ġready":10952,"Ġeliminated":10953,"she":10954,"Ġtherapy":10955,"Ġbapt":10956,"ĠHaz":10957,"ĠLiving":10958,"Ġcommanded":10959,"ĠSprings":10960,"marks":10961,"ĠTib":10962,"ĠScout":10963,"ĠOcc":10964,"Ġabuse":10965,"ĠBerg":10966,"Ġseeing":10967,"liga":10968,"ĠCensus":10969,"Ġnut":10970,"ĠRAF":10971,"utton":10972,"Ġunlike":10973,"Ġindex":10974,"Ġfacing":10975,"Ġcopper":10976,"nik":10977,"wana":10978,"ĠRab":10979,"ĠWag":10980,"aws":10981,"isch":10982,"Ġpap":10983,"Ġpseud":10984,"otyp":10985,"iffer":10986,"Ġresolution":10987,"Ġstudying":10988,"Ġaffect":10989,"cos":10990,"ĠDennis":10991,"BL":10992,"Ġhorses":10993,"Ġbeer":10994,"Ġclosing":10995,"Ġjunction":10996,"levard":10997,"Ġdescribing":10998,"Filmography":10999,"angelical":11000,"Ġlocomotives":11001,"ĠLiterature":11002,"vision":11003,"irth":11004,"ĠDraft":11005,"Ġhearing":11006,"Ġrepair":11007,"Ġhelic":11008,"ĠIndustry":11009,"Ġphotographs":11010,";\"":11011,"Lou":11012,"Me":11013,"Ġthirty":11014,"Ġranging":11015,"ĠYe":11016,"Ġtribute":11017,"Ġisolated":11018,"person":11019,"Ġcogn":11020,"idad":11021,"Ġmonitor":11022,"ĠTech":11023,"ĠPortland":11024,"ĠCrus":11025,"Ġacknowled":11026,"Ġalter":11027,"outheastern":11028,"lishments":11029,"1937":11030,"ĠArchbishop":11031,"Ġwider":11032,"Ġsequel":11033,"Ġbeauty":11034,"Ġtomb":11035,"ĠHad":11036,"imen":11037,"ĠFace":11038,"agle":11039,"earing":11040,"Ġorganisations":11041,"Ġrevised":11042,"white":11043,"ĠMeanwhile":11044,"Ġrestricted":11045,"Ġmanufacturer":11046,"Ġels":11047,"atar":11048,"iche":11049,"Ġtool":11050,"ĠSha":11051,"Ġinvented":11052,"Ġacceler":11053,"Ġdisplayed":11054,"Ġjurisdiction":11055,"Gold":11056,"How":11057,"Ġplain":11058,"Ġclock":11059,"elfast":11060,"aeus":11061,"minute":11062,"Ġaccessible":11063,"ĠNASA":11064,"ref":11065,"Ġfer":11066,"Ġleaf":11067,"Ġavo":11068,"ĠPhillips":11069,"Gl":11070,"Tr":11071,"Ġreven":11072,"ĠLion":11073,"Ġactivists":11074,"Ġamounts":11075,"ĠWellington":11076,"ĠAround":11077,"Ġgross":11078,"Ġ63":11079,"Ġdeputy":11080,"Ġ1894":11081,"Transportation":11082,"Ġgard":11083,"that":11084,"ennial":11085,"Ġcivilian":11086,"Ġopportunities":11087,"was":11088,"orious":11089,"Ġalumin":11090,"rague":11091,"Ġpersu":11092,"vol":11093,"Ġgal":11094,"Ġabolished":11095,"ahl":11096,"aukee":11097,"shaped":11098,"Ġ1893":11099,"Ġphysician":11100,"Ġcrosses":11101,"ĠCrime":11102,"Ġsubsidiary":11103,"uez":11104,"phib":11105,"Ġpatient":11106,"Ġlabels":11107,"Ġdiscussion":11108,"Ġcricketers":11109,"ĠData":11110,"Ġcrossed":11111,"Before":11112,"PR":11113,"ĠNeil":11114,"Ġcustomers":11115,"Ġgoddess":11116,"Ġelsewhere":11117,"ĠKle":11118,"Ġpermitted":11119,"Ġ1897":11120,"Ġtourist":11121,"ĠCornwall":11122,"Live":11123,"sm":11124,"Ġdim":11125,"Ġacted":11126,"Ġtraded":11127,"Ġsportspeople":11128,"ĠGoogle":11129,"Ġcoup":11130,"Ġvoters":11131,"ĠContinental":11132,"ĠYugoslavia":11133,"Ġfert":11134,"ĠGot":11135,"ĠArsenal":11136,"Ġ1891":11137,"piracy":11138,"herent":11139,"rez":11140,"ĠMend":11141,"ĠMason":11142,"Ġconvert":11143,"Ġproof":11144,"Ġclothing":11145,"ĠBraves":11146,"ĠScotia":11147,"ĠGrace":11148,"Ġwearing":11149,"Sm":11150,"ente":11151,"ounsel":11152,"Ġflights":11153,"Sy":11154,"Ġdesert":11155,"Ġmarks":11156,"Ġquantum":11157,"music":11158,"Ġcongreg":11159,"Ġclar":11160,"ĠAlong":11161,"ĠGuinea":11162,"Ġviolent":11163,"Ġinhab":11164,"ĠLanka":11165,"grim":11166,"ĠCer":11167,"Ġgay":11168,"Ġreceives":11169,"Ġflowers":11170,"Ġqualifying":11171,"Ġpictures":11172,"'d":11173,"Dan":11174,"ĠPatt":11175,"minster":11176,"ĠHerbert":11177,"Land":11178,"Ġinfer":11179,"uto":11180,"Ġquad":11181,"Ġsoap":11182,"Professional":11183,"GC":11184,"á¸":11185,"aran":11186,"Ġlock":11187,"ĠWes":11188,"Ġabst":11189,"Exp":11190,"Ġpropag":11191,"ĠApost":11192,"Modern":11193,"dal":11194,"ĠOpp":11195,"Ġcompound":11196,"ĠHein":11197,"Ġstrategic":11198,"1914":11199,"ublished":11200,"Ġretreat":11201,"Head":11202,"ĠOriginally":11203,"ĠLloyd":11204,"ĠPand":11205,"Ġbeating":11206,"aba":11207,"Ġdoors":11208,"Ġinfluences":11209,"Ġuncertain":11210,"ĠDiamond":11211,"waukee":11212,"ĠNep":11213,"Ġunless":11214,"ĠRhine":11215,"Ġfarming":11216,"orporated":11217,"ĠChairman":11218,"high":11219,"etics":11220,"ĠGÃ¶":11221,"hero":11222,"Ġcodes":11223,"ĠNC":11224,"about":11225,"Ġorb":11226,"ipients":11227,"oints":11228,"common":11229,"ĠAirlines":11230,"Ġconcerts":11231,"Ġacquisition":11232,"Ġanswer":11233,"Ġrescue":11234,"enia":11235,"ĠType":11236,"aco":11237,"ĠExpl":11238,"Ġeggs":11239,"ĠPink":11240,"Ġenters":11241,"ĠPerth":11242,"Ġyoungest":11243,"Ġloop":11244,"ĠGregory":11245,"ĠLie":11246,"ĠKil":11247,"quer":11248,"Ġevil":11249,"arged":11250,"Ġ1889":11251,"Ġmuseums":11252,"tical":11253,"ĠPract":11254,"Ġ1850":11255,"atha":11256,"Ġdisb":11257,"Ġearn":11258,"ĠAllied":11259,"Ġbehalf":11260,"Ġlogic":11261,"Ġvul":11262,"ĠPolicy":11263,"ĠCircle":11264,"ĠNature":11265,"Ġspending":11266,"Ġ59":11267,"ĠVincent":11268,"ĠSÃ£o":11269,"ĠShang":11270,"Ġdemonstrated":11271,"ĠHav":11272,"Ġmanif":11273,"Ġangle":11274,"Ġdescendants":11275,"ĠTas":11276,"Ġongoing":11277,"Ġresid":11278,"ĠRhodes":11279,"Ġconsistent":11280,"Ġunderstood":11281,"lane":11282,"Ġmorph":11283,"ĠSig":11284,"ĠGang":11285,"ducer":11286,"Ġcommunications":11287,"Ġbuses":11288,"Ġ1885":11289,"Ġmanufactured":11290,"ographers":11291,"ĠJenn":11292,"ods":11293,"Ã©l":11294,"Ġimpress":11295,"Ġannounce":11296,"Ġpand":11297,"Ġhope":11298,"Ġalien":11299,"Ġprofit":11300,"ensen":11301,"Ġmagic":11302,"ĠStudio":11303,"Ġconcepts":11304,"ĠFurthermore":11305,"Ġcosm":11306,"Ġrab":11307,"Ġsubd":11308,"ieth":11309,"Ġartificial":11310,"ĠFlore":11311,"Ġeveryone":11312,"etta":11313,"Ġkidn":11314,"Ġdrafted":11315,"Ġcavalry":11316,"Ġlakes":11317,"ĠRight":11318,"ĠDelta":11319,"ĠNewton":11320,"Ġcharacteristic":11321,"Ġ1892":11322,"ĠDelhi":11323,"imensional":11324,"Ġmall":11325,"Ġannex":11326,"Ġarena":11327,"Ġexport":11328,"Ġ58":11329,"celona":11330,"ĠMathemat":11331,"Ġsustain":11332,"ĠMak":11333,"isting":11334,"ĠNext":11335,"Ġcoff":11336,"Ġbreaking":11337,"])":11338,"core":11339,"ento":11340,"Ġ72":11341,"ĠCoach":11342,"Ġreferring":11343,"Ġessentially":11344,"Ġradical":11345,"Ġefficient":11346,"Ur":11347,"yll":11348,"Ġtoured":11349,"ĠPrison":11350,"duces":11351,"compass":11352,"ĠAttorney":11353,"asia":11354,"olen":11355,"Ġranges":11356,"Ġshield":11357,"ĠMarvel":11358,"Ġpossession":11359,"ĠRaid":11360,"istration":11361,"ĠView":11362,"ampa":11363,"ĠHarold":11364,"ĠMonte":11365,"Ġargues":11366,"ĠSurvey":11367,"Ġmachines":11368,"ĠChallenge":11369,"elia":11370,"eters":11371,"Ġclimb":11372,"Ġassum":11373,"Ġ85":11374,"ĠYankees":11375,"gomery":11376,"pres":11377,"Ġfill":11378,"Ġscores":11379,"ĠProductions":11380,"elfare":11381,"Ġpoison":11382,"Ġelectricity":11383,"Ġrecommend":11384,"ĠNigeria":11385,"Ġrib":11386,"entry":11387,"ĠRot":11388,"Ġcoached":11389,"Ġremix":11390,"legiate":11391,"Spanish":11392,"Ġreveals":11393,"Ġcommentary":11394,"Royal":11395,"agram":11396,"ople":11397,"Ġsecured":11398,"Ġpriests":11399,"ĠTransl":11400,"Ġautomatic":11401,"Ġatmosphere":11402,"Ġ95":11403,"Ġdispers":11404,"ĠGhost":11405,"ĠPow":11406,"Ġrevival":11407,"atchewan":11408,"rea":11409,"Ġles":11410,"ĠSection":11411,"ĠAaron":11412,"rington":11413,"Ġcultures":11414,"Ġsurviv":11415,"Ġbroadcasts":11416,"ĠSerge":11417,"mill":11418,"Ĥ¬":11419,"Ġrevenue":11420,"Ġlap":11421,"Ġvariation":11422,"Ġcamps":11423,"Ġgallery":11424,"Ġlegs":11425,"Ġadvice":11426,"ĠWithin":11427,"Ġkeyboard":11428,"Ġdisestablishments":11429,"Ġworn":11430,"arc":11431,"ĠStuart":11432,"Ġrising":11433,"peare":11434,"Ġinterface":11435,"Ġrepresentatives":11436,"Ġmixing":11437,"Ġvertical":11438,"rise":11439,"ĠCinema":11440,"Ġdifficulty":11441,"Ġslowly":11442,"dest":11443,"ĠCret":11444,"ĠKos":11445,"Ġ61":11446,"Ġemigrants":11447,"ĠBeh":11448,"akespeare":11449,"Ġexplicit":11450,"ĠNorfolk":11451,"ĠJosh":11452,"ĠRenaissance":11453,"Tom":11454,"Ġris":11455,"ĠSpart":11456,"ĠArabia":11457,"BE":11458,"alom":11459,"ĠTogether":11460,"ocket":11461,"ĠReich":11462,"ĠTerm":11463,"eli":11464,"irteen":11465,"Ġshr":11466,"Ġ68":11467,"ĠClay":11468,"ylon":11469,"ĠArticle":11470,"Ġcondem":11471,"Ġrecognised":11472,"Ġattempting":11473,"Ġsynthes":11474,"ĠGoiÃ¡s":11475,"Ġfrog":11476,"iden":11477,"icing":11478,"Ġabroad":11479,"Ġcarrier":11480,"Ġguarant":11481,"Ġnarrative":11482,"ĠCurt":11483,"Demographics":11484,"ĠDominican":11485,"Dou":11486,"kov":11487,"Ġdatabase":11488,"imir":11489,"ĠNewcastle":11490,"umentary":11491,"ĠCOVID":11492,"Ġtalent":11493,"ĠHope":11494,"Ġhence":11495,"ĠInv":11496,"ricks":11497,"ĠParish":11498,"celand":11499,"ĠHelen":11500,"Recipients":11501,"Ġhonorary":11502,"ĠFat":11503,"ĠWel":11504,"Ġmeat":11505,"ĠSteven":11506,"Ġexactly":11507,"erie":11508,"Ġboot":11509,"Ġgall":11510,"ĠWed":11511,"even":11512,"ĠPeru":11513,"ĠTechnical":11514,"Ġbelonging":11515,"IL":11516,"kg":11517,"inated":11518,"anion":11519,"ĠSeb":11520,"ĠFig":11521,"1919":11522,"ĠDeep":11523,"Ġcruc":11524,"ymph":11525,"ĠPerformance":11526,"Ġtot":11527,"ĠCC":11528,"ĠMaxim":11529,"umi":11530,"ĠIndustrial":11531,"Soviet":11532,"sa":11533,"tr":11534,"Ġbaby":11535,"Ġlieutenant":11536,"church":11537,"ountain":11538,"ibilities":11539,"Ġalliance":11540,"apters":11541,"Ġreducing":11542,"owski":11543,"anti":11544,"Ġsounds":11545,"Ġclosure":11546,"ĠDerby":11547,"Ġemphasis":11548,"haw":11549,"lights":11550,"inery":11551,"ĠMuch":11552,"ĠBalk":11553,"Ġarbit":11554,"ĠArmed":11555,"Ġpermission":11556,"issions":11557,"Ġmainstream":11558,"Ġhybrid":11559,"ĠEnvironmental":11560,"hm":11561,"hent":11562,"ĠNort":11563,"ennium":11564,"ĠClarke":11565,"ĠCowboys":11566,"ĠFinnish":11567,"ĠBuch":11568,"agar":11569,"Ġcanon":11570,"ĠShel":11571,"RE":11572,"Western":11573,"Ġmines":11574,"ĠBM":11575,"eva":11576,"ĠChester":11577,"Ġdiameter":11578,"des":11579,"Ġtel":11580,"ĠSP":11581,"ĠEg":11582,"ĠFrances":11583,"ĠBrowns":11584,"Ġconsumption":11585,"cover":11586,"alm":11587,"Ġposted":11588,"Ġordinary":11589,"Ġpicked":11590,"Ġprices":11591,"err":11592,"ede":11593,"Ġguide":11594,"ĠÃģ":11595,"Ġmounted":11596,"eded":11597,"Ġrect":11598,"ivic":11599,"Ġasks":11600,"Ġlanded":11601,"Ġfarmers":11602,"ĠConstruction":11603,"Ġnickname":11604,"Writers":11605,"ĠLebanon":11606,"tains":11607,"ĠHous":11608,"1900":11609,"1929":11610,"Ġcommented":11611,"Ġexercise":11612,"otion":11613,"azi":11614,"anni":11615,"Ġarchaeological":11616,"anim":11617,"Ġextend":11618,"Ġlogo":11619,"Ġduo":11620,"irts":11621,"ĠVilla":11622,"Ġ62":11623,"Ġ99":11624,"Ġunsuccessful":11625,"page":11626,"ĠMA":11627,"ĠCatholics":11628,"Ġhoused":11629,"ĠJunction":11630,"Ġtemporarily":11631,"mits":11632,"owed":11633,"ĠShaw":11634,"ouns":11635,"Ġblues":11636,"Ġlegacy":11637,"Ġapproaches":11638,"Design":11639,"Go":11640,"Ġsa":11641,"appe":11642,"Ġraising":11643,"chem":11644,"arms":11645,"ĠExchange":11646,"ĠContemporary":11647,"Ġsymbols":11648,"agonist":11649,"speed":11650,"umer":11651,"Ġ67":11652,"Ġorganised":11653,"olve":11654,"rift":11655,"Ġ77":11656,"lington":11657,"Ġillustrated":11658,"Peter":11659,"Ġforg":11660,"written":11661,"Atl":11662,"Ġjudg":11663,"Ġsettlers":11664,"ĠÅł":11665,"Ġrecovery":11666,"Ġsponsored":11667,"ĠKerala":11668,"country":11669,"furt":11670,"alan":11671,"rooms":11672,"ĠSaudi":11673,"ĠBird":11674,"resses":11675,"Ġaccum":11676,"1935":11677,"oirs":11678,"Ġmartial":11679,"Ġtheaters":11680,"Ġmanage":11681,"Ġearning":11682,"ĠEddie":11683,"Ġinitiated":11684,"ancellor":11685,"ĠFly":11686,"Ġatoms":11687,"ĠConstantin":11688,"ĠHat":11689,"ĠLen":11690,"ĠJa":11691,"Ġvel":11692,"ablishment":11693,"Ġobst":11694,"ademics":11695,"Ġcollapse":11696,"Ġdenomin":11697,"Ġpainters":11698,"Ġresponded":11699,"ĠCriminal":11700,"Hen":11701,"SL":11702,"zing":11703,"Ġfaster":11704,"eca":11705,"ĠQual":11706,"Ġrespective":11707,"Ġdependent":11708,"ĠFriends":11709,"ĠAberdeen":11710,"two":11711,"Ġow":11712,"ĠCad":11713,"Ġhills":11714,"ĠEin":11715,"Ġhem":11716,"Ġabilities":11717,"Ġcanal":11718,"Flor":11719,"cock":11720,"lived":11721,"|}":11722,"Ġdeemed":11723,"1922":11724,"Ġprotests":11725,"vanced":11726,"ĠStudy":11727,"ĠErnest":11728,"histor":11729,"sl":11730,"recht":11731,"Ġreactions":11732,"Ġrocks":11733,"Ġencompass":11734,"ĠFinancial":11735,"Ġdistinctive":11736,"osc":11737,"ĠDelaware":11738,"Ġpoverty":11739,"Ġheir":11740,"Ġsongwriter":11741,"Ġstructural":11742,"Ġtwin":11743,"uisine":11744,"Ġswitched":11745,"eor":11746,"Ġturb":11747,"ĠMath":11748,"Ġ69":11749,"Ġthor":11750,"avian":11751,"ateral":11752,"Ġformations":11753,"Ġhighlight":11754,"Ġextensively":11755,"Ġengineers":11756,"Ġgrades":11757,"Ġweekend":11758,"Ġreforms":11759,"ĠMoses":11760,"ĠNI":11761,"ĠWas":11762,"Ġpharm":11763,"iji":11764,"Ġoxid":11765,"cia":11766,"vet":11767,"Ġfabric":11768,"ĠIC":11769,"Ġ76":11770,"ooking":11771,"legraph":11772,"Ġcircle":11773,"ĠRoom":11774,"Ġsugar":11775,"Ġwants":11776,"Ġ('":11777,"chy":11778,"esty":11779,"ĠKay":11780,"Ġdrinking":11781,"Ġobjective":11782,"gun":11783,"gary":11784,"Ġodd":11785,"stand":11786,"ĠMidd":11787,"rawn":11788,"Ġabb":11789,"Ġnam":11790,"ĠFif":11791,"ĠNottingham":11792,"Ġcongress":11793,"ĠKash":11794,"ĠHeat":11795,"Ġ1867":11796,"Ġcoins":11797,"Ġexclusive":11798,"Ġevac":11799,"Ġanimation":11800,"Ġconductor":11801,"ĠBaby":11802,"Economy":11803,"Books":11804,"ĠIss":11805,"Ġchron":11806,"Ġsignals":11807,"Ġdiscrim":11808,"ĠStudents":11809,"Ġfriendly":11810,"Ġtribut":11811,"uke":11812,"encer":11813,"ĠToy":11814,"ĠMut":11815,"ĠMann":11816,"ĠBelfast":11817,"oday":11818,"ĠArms":11819,"Ġcentres":11820,"Ġreporter":11821,"ĠXX":11822,"Ġ1886":11823,"RT":11824,"ĠBach":11825,"ĠRivers":11826,"ĠDest":11827,"abel":11828,"forced":11829,"ĠEdwards":11830,"Ġ1862":11831,"Companies":11832,"Ġscholarship":11833,"Ġtelephone":11834,"Ġtight":11835,"entle":11836,"ĠFoster":11837,"ĠGT":11838,"oshi":11839,"ĠVegas":11840,"Ġshorter":11841,"Ġbreeding":11842,"Ġtraveled":11843,"Ġwinds":11844,"ĠDemocrats":11845,"Ġcancelled":11846,"Que":11847,"sor":11848,"Ġske":11849,"icus":11850,"1928":11851,"ĠVeh":11852,"1931":11853,"Ġ1863":11854,"Short":11855,"Ġcampaigns":11856,"Ġcreative":11857,"Ġdissolved":11858,"ĠVoiv":11859,"fr":11860,"ĠRalph":11861,"Ġrunners":11862,"Ġsovere":11863,"ĠCA":11864,"ĠVlad":11865,"Ġnotice":11866,"Ġscreenwriter":11867,"Ġdrain":11868,"ĠAx":11869,"annah":11870,"Ġchess":11871,"ĠBoulevard":11872,"ĠSomers":11873,"ĠMalt":11874,"redit":11875,"ĠReform":11876,"ttps":11877,"PL":11878,"ÈĻ":11879,"Ġmemb":11880,"ĠWor":11881,"1921":11882,"arma":11883,"Ġenemies":11884,"Academic":11885,"Ġinaugural":11886,"Kn":11887,"London":11888,"Ġautob":11889,"Ġtournaments":11890,"Ġ110":11891,"ĠMills":11892,"Ġgymn":11893,"Ġusual":11894,"athon":11895,"ĠSoccer":11896,"ĠChapter":11897,"Bob":11898,"anthrop":11899,"Ġsessions":11900,"Ġtouring":11901,"Ġride":11902,"ĠYu":11903,"ĠShakespeare":11904,"ĠAnnual":11905,"Vol":11906,"ĠSierra":11907,"opened":11908,"ahan":11909,"Ġrequested":11910,"Ġtriple":11911,"Ġnegotiations":11912,"Ġbonus":11913,"NS":11914,"hal":11915,"ĠDictionary":11916,"ĠThose":11917,"Ġfunctional":11918,"Ġneutral":11919,"iya":11920,"esis":11921,"Ġpull":11922,"Ġhapp":11923,"Ġatomic":11924,"Ġrum":11925,"Ġapartment":11926,"ĠChelsea":11927,"Ġmit":11928,"ĠFoot":11929,"ĠManuel":11930,"ĠAccess":11931,"ĠReturn":11932,"Ġworst":11933,"Ġpredecessor":11934,"Ġties":11935,"Ġconclusion":11936,"ullah":11937,"ĠMadrid":11938,"keeper":11939,"ĠMonday":11940,"Ġflex":11941,"Ġbinary":11942,"Ġstored":11943,"ĠAltern":11944,"Ġthereafter":11945,"Miss":11946,"Serv":11947,"grade":11948,"Ġfaces":11949,"ĠTree":11950,"ĠFeat":11951,"Ġwealthy":11952,"ĠAur":11953,"Ġremote":11954,"leyball":11955,"Prov":11956,"ĠSlav":11957,"ĠUniverse":11958,"Ġattendance":11959,"Ġticket":11960,"Ġintellectual":11961,"Sk":11962,"ĠTrack":11963,"ĠKill":11964,"1924":11965,"Ġartery":11966,"1932":11967,"Ġion":11968,"Ġrig":11969,"Ġsporting":11970,"ĠSusan":11971,")(":11972,"Sam":11973,"avery":11974,"Ġmal":11975,"adows":11976,"ĠNan":11977,"akk":11978,"Ġ88":11979,"ĠBarcelona":11980,"College":11981,"Ġbeliefs":11982,"MD":11983,"RS":11984,"Ġmini":11985,"ĠPerry":11986,"Ġchapel":11987,"Ġburned":11988,"Ġcoalition":11989,"ĠNevada":11990,"Central":11991,"ĠEmp":11992,"iox":11993,"ĠQuest":11994,"Ġfunded":11995,"Ġearthqu":11996,"ĠSic":11997,"omical":11998,"ĠBachelor":11999,"Ġstead":12000,"opp":12001,"Ġdrink":12002,"ĠDouble":12003,"Ġdiplomatic":12004,"ĠFaith":12005,"ĠBenedict":12006,"Pat":12007,"Ġbay":12008,"icism":12009,"ĠMaz":12010,"ĠPut":12011,"terbury":12012,"umps":12013,"Ġabund":12014,"ĠAny":12015,"Ġtruck":12016,"ĠMotors":12017,"Grand":12018,"1925":12019,"Ġprev":12020,"Ġexpand":12021,"Ġwithdrew":12022,"ĠSaskatchewan":12023,"ĠLag":12024,"ĠThai":12025,"inda":12026,"afe":12027,"ĠBright":12028,"Ä±k":12029,"Ðº":12030,"eri":12031,"olith":12032,"ĠBog":12033,"Ġplastic":12034,"2023":12035,"Ġ71":12036,"Ġbelieves":12037,"Ġintern":12038,"ema":12039,"Ġhear":12040,"1927":12041,"jord":12042,"ĠSeg":12043,"ĠHob":12044,"ĠJar":12045,"izard":12046,"Ġdoesn":12047,"Ġacids":12048,"ĠArnold":12049,"Ġparking":12050,"Ġaspect":12051,"Ġpartners":12052,"Ġdollars":12053,"zed":12054,"Ġsaved":12055,"Ġwel":12056,"Ġfulf":12057,"ĠFighter":12058,"Ġprince":12059,"Ġvarieties":12060,"Ġoblig":12061,"skins":12062,"Ġ1887":12063,"ĠLuis":12064,"ĠAdrian":12065,"Ġuniversal":12066,"ĠOttawa":12067,"Ġblow":12068,"Ġlunar":12069,"pring":12070,"ĠCampaign":12071,"ĠSoph":12072,"Ġexplain":12073,"Ġwalking":12074,"')":12075,"Ġpairs":12076,"orted":12077,"ĠIndex":12078,"Ġsmooth":12079,"Ġspecialized":12080,"ijing":12081,"Ġqualify":12082,"Ġelevated":12083,"Ġinspiration":12084,"Ġstrengthen":12085,"imm":12086,"ĠLakes":12087,"Ġintercept":12088,"Ġinteraction":12089,"Ġ800":12090,"ĠMontgomery":12091,"Ġarrangements":12092,"ĠPic":12093,"ĠHus":12094,"Ġspir":12095,"Ġkit":12096,"axy":12097,"Ġ1881":12098,"Ġdevoted":12099,"ĠVenezuela":12100,"Ġpandemic":12101,"cat":12102,"ulates":12103,"Ġ1840":12104,"Ġattending":12105,"Ġincidents":12106,"Ġtopics":12107,"offs":12108,"Ġfeud":12109,"color":12110,"Ġbrands":12111,"ĠNobel":12112,"elin":12113,"ĠLeo":12114,"ĠMcM":12115,"Ġdownload":12116,"ducts":12117,"Ġgolden":12118,"ĠĊĠĊĠĊĠĊĠĊĠĊĠĊĠĊ":12119,"Mag":12120,"Ġaw":12121,"Ġboss":12122,"ĠSoon":12123,"Ġnovelists":12124,"Ġathletics":12125,"bone":12126,"word":12127,"ĠHamb":12128,"raud":12129,"lication":12130,"ĠNHL":12131,"ĠFranz":12132,"ĠHerald":12133,"1933":12134,"Ġhonors":12135,"ĠCzechoslov":12136,"Ġenzym":12137,"Ġimpossible":12138,"Ġopponents":12139,"Ġconnects":12140,"Ġdifficulties":12141,"Basketball":12142,"Ġventure":12143,"ĠSafety":12144,"Irish":12145,"nan":12146,"Ġfee":12147,"Ġmasc":12148,"ceae":12149,"ĠFras":12150,"Ġprox":12151,"Ġrid":12152,"Ġclan":12153,"Ġsymp":12154,"ethyl":12155,"ĠAtari":12156,"ĠArchive":12157,"Ġrifle":12158,"namese":12159,"alin":12160,"ĠWald":12161,"Ġoutstanding":12162,"Ġrelating":12163,"Ġsurpr":12164,"Ġsocieties":12165,"odeship":12166,"Ġprocedure":12167,"rieved":12168,"cor":12169,"omed":12170,"ĠYale":12171,"Ġovert":12172,"Ġmainland":12173,"Ġrefere":12174,"Ġmixture":12175,"prene":12176,"ĠTodd":12177,"itan":12178,"ĠGene":12179,"ĠSwan":12180,"Ġsolutions":12181,"Ġmile":12182,"eto":12183,"ĠDrama":12184,"Ġalive":12185,"ĠOst":12186,"Ġdepict":12187,"ĠParks":12188,"Ġequation":12189,"ĠPete":12190,"Ġsuspension":12191,"vor":12192,"rost":12193,"Ġdiet":12194,"Ġrelevant":12195,"ĠAviation":12196,"Villages":12197,"ĠKor":12198,"1917":12199,"Ġperceived":12200,"Ġconsolid":12201,"Ġverse":12202,"writing":12203,"ĠRogers":12204,"Ġvariations":12205,"reprene":12206,"1923":12207,"Ġpermit":12208,"ildren":12209,"rupted":12210,"Ġmuscle":12211,"cott":12212,"rint":12213,"ĠEsc":12214,"ĠKur":12215,"ailing":12216,"weep":12217,"Ġfilming":12218,"Ġsuccession":12219,"Ġnovelist":12220,"Ġdecorated":12221,"ĠPrague":12222,"acked":12223,"Ġprove":12224,"Ġneighboring":12225,"ĠPunjab":12226,"Ġhidden":12227,"Ġracial":12228,"Ġdefended":12229,"Ġtrials":12230,"Ġ1861":12231,"Ġdeter":12232,"ĠWonder":12233,"Ġcomprehensive":12234,"Charts":12235,"ĠWilhelm":12236,"Ġdismissed":12237,"Dis":12238,"NY":12239,"VP":12240,"uer":12241,"amation":12242,"ĠKate":12243,"Ġscatter":12244,"forming":12245,"monton":12246,"ĠTommy":12247,"Ġalphabet":12248,"itudes":12249,"Ġdrag":12250,"ĠMol":12251,"ĠKath":12252,"Ġclergy":12253,"ĠNorthwest":12254,"Ġpromin":12255,"1934":12256,"Ġ1871":12257,"ĠGrade":12258,"ĠMurphy":12259,"Ġpreparation":12260,"Ġadventure":12261,"Honours":12262,"Ġrestrictions":12263,"group":12264,"urse":12265,"ĠDh":12266,"Ġshops":12267,"Ġprest":12268,"Ġsculpture":12269,"enhagen":12270,"Ġmathematical":12271,"rators":12272,"whe":12273,"Ġtested":12274,"itol":12275,"roid":12276,"ĠFlow":12277,"Ġmetropolitan":12278,"Ġexplains":12279,"Ġdepartments":12280,"ĠWeekly":12281,"Ġlie":12282,"ephew":12283,"ĠPhilosophy":12284,"Ġfuneral":12285,"ĠQuarter":12286,"ĠClassical":12287,"bas":12288,"Ġsulf":12289,"Ġsiege":12290,"ĠLeader":12291,"Ġthinking":12292,"ĠEncyclopedia":12293,"ĠVoivodeship":12294,"elected":12295,"ĠAG":12296,"ĠTed":12297,"ĠBears":12298,"ĠPep":12299,"ĠGuild":12300,"Ġmanaging":12301,"ĠRedskins":12302,"ĠGuardian":12303,"Mass":12304,"ĠPent":12305,"Ġcharity":12306,"ĠÃĸ":12307,"Ġanalyst":12308,"ĠRhode":12309,"ĠDesert":12310,"ĠTransportation":12311,"Non":12312,"gae":12313,"isons":12314,"Ġfib":12315,"ashes":12316,"ĠOber":12317,"Ġelabor":12318,"Frank":12319,"Ġneighbourhood":12320,"appeared":12321,"ĠÏ":12322,"Ġwore":12323,"ĠBour":12324,"idi":12325,"Ġstops":12326,"iking":12327,"Ġclinical":12328,"Dep":12329,"ju":12330,"var":12331,"Ġty":12332,"ĠBun":12333,"ĠHD":12334,"Ġdramatic":12335,"HF":12336,"Mult":12337,"Ġbars":12338,"ĠCreat":12339,"ĠKrist":12340,"Ġrice":12341,"Ġmanip":12342,"rowing":12343,"ĠMcL":12344,"Ġarmies":12345,"ĠâĨĴ":12346,"ĠTab":12347,"oded":12348,"ĠSpider":12349,"spect":12350,"Ġimprovements":12351,"Ġdisbanded":12352,"post":12353,"ĠDame":12354,"Ġcollaps":12355,"Ġoverseas":12356,"Ġimprisoned":12357,"tes":12358,"Ġbones":12359,"uchy":12360,"randed":12361,"Ġbehaviour":12362,"ĠGilbert":12363,"Ġperspective":12364,"Main":12365,"sub":12366,"Ġwaves":12367,"Ġreorgan":12368,"Ġsubmitted":12369,"ĠMoroc":12370,"Ġviewers":12371,"acco":12372,"ups":12373,"ĠShin":12374,"inceton":12375,"Ġvirtual":12376,"ĠPradesh":12377,"first":12378,"sup":12379,"Ġconven":12380,"ĠStories":12381,"pedition":12382,"Ġlooked":12383,"ĠIsaac":12384,"ouch":12385,"ĠLex":12386,"ĠAnti":12387,"Ġcitizen":12388,"Ġhouseholds":12389,"bin":12390,"Ġbath":12391,"ĠSA":12392,"ĠBiography":12393,"through":12394,"upt":12395,"1926":12396,"ampire":12397,"Ġdesignation":12398,"Ġphoto":12399,"ĠAlexandria":12400,"orded":12401,"Ġdisch":12402,"Ġprey":12403,"eneration":12404,"Ġinternationally":12405,"Ġcontrols":12406,"Ġdocumented":12407,"ĠIntelligence":12408,"Ġgods":12409,"horn":12410,"ĠCatherine":12411,"Ġisot":12412,"ĠDw":12413,"alling":12414,"Ġrout":12415,"Ġtechnologies":12416,"playing":12417,"Ġsemif":12418,"Season":12419,"Ġmythology":12420,"named":12421,"rogen":12422,"ĠChes":12423,"Ġ78":12424,"ĠBrooks":12425,"Ġlegit":12426,"Ġhelps":12427,"Ġportions":12428,"ĠAmericas":12429,"Ġsimilarly":12430,"Ġassisted":12431,"Ġlatest":12432,"Ġadministered":12433,"elect":12434,"ters":12435,"Ġtub":12436,"Ġtape":12437,"rous":12438,"ĠTong":12439,"ĠIceland":12440,"Ġapproached":12441,"Ġreaders":12442,"Club":12443,"background":12444,"fecture":12445,"Ġcartoon":12446,"Ġdiscontinued":12447,"Att":12448,"Educational":12449,"web":12450,"reated":12451,"Ġcrypt":12452,"ĠPrice":12453,"acles":12454,"Ġdisaster":12455,"Ġnumbered":12456,"ska":12457,"orum":12458,"ulator":12459,"Ġprol":12460,"ĠProduction":12461,"Ġathletic":12462,"Super":12463,"Ġbacteria":12464,"Ġgraduating":12465,"Ġmaps":12466,"Ġenforcement":12467,"oyage":12468,"orient":12469,"Ġcens":12470,"ĠCork":12471,"ĠPrest":12472,"ulatory":12473,"aca":12474,"Ġsubt":12475,"ependent":12476,"Ġinnings":12477,"ĠâĤ¬":12478,"ÃŁe":12479,"Legacy":12480,"Ġbankruptcy":12481,"Ġnamely":12482,"ĠRah":12483,"Ġconfess":12484,"Ġpret":12485,"Ġremark":12486,"ĠIndianapolis":12487,"Ġ1882":12488,"Ġfifteen":12489,"Ġcoinc":12490,"ĠAmazon":12491,"Fore":12492,"Mad":12493,"iability":12494,"ĠMust":12495,"ĠLisa":12496,"ĠFuture":12497,"agi":12498,"Ġpromoting":12499,"Ġholiday":12500,"ĠMorning":12501,"rys":12502,"ĠIsle":12503,"ĠCommons":12504,"hall":12505,"week":12506,"oding":12507,"ĠDevil":12508,"Count":12509,"Ġpunk":12510,"osexual":12511,"opl":12512,"Ġsupplement":12513,"ĠHarvey":12514,"Columb":12515,"ĠTreas":12516,"Ġdialects":12517,"Ġprecip":12518,"Ġhaz":12519,"ĠBronze":12520,"ĠNat":12521,"ĠNine":12522,"1912":12523,"Ġ73":12524,"ĠOtto":12525,"Several":12526,"fast":12527,"wyn":12528,"ingen":12529,"Ġqueen":12530,"ĠActress":12531,"onnaissance":12532,"Special":12533,"ĠHughes":12534,"Brien":12535,"dist":12536,"film":12537,"rh":12538,"ÃĹ":12539,"Ġrecalled":12540,"Ġsubsc":12541,"ĠSean":12542,"Ġdemands":12543,"Ġstatements":12544,"ĠRic":12545,"istent":12546,"ĠFish":12547,"Ġstem":12548,"Ġaboard":12549,"Ġenthus":12550,"Ġcaps":12551,"Ġreflected":12552,"Ġ1876":12553,"Ġremoval":12554,"ĠOutstanding":12555,"ĠRaymond":12556,"Ġcooperation":12557,"rets":12558,"ĠCust":12559,"eting":12560,"ĠHur":12561,"Ġthereby":12562,"Ġgrandfather":12563,"Ġgardens":12564,"Rou":12565,"Ø§":12566,"roduction":12567,"Ġpolar":12568,"Ġintermediate":12569,"ĠOrd":12570,"Ġexhibit":12571,"Ġcolumns":12572,"Ġmanuscript":12573,"ĠTheory":12574,"ĠGÃ¼":12575,"ĠOg":12576,"enda":12577,"Ġministry":12578,"Ġvaries":12579,"Ġoptions":12580,"ĠRonald":12581,"Ġmolecules":12582,"Game":12583,"Sir":12584,"Ê¼":12585,"ĠFab":12586,"ividual":12587,"Ġmissile":12588,"ĠMadison":12589,"igrant":12590,"Ġpredominantly":12591,"oi":12592,"Ġmigration":12593,"ĠOscar":12594,"Ġphosph":12595,"ĠMusical":12596,"ĠEld":12597,"umm":12598,"ĠAngels":12599,"Ġderiv":12600,"Ġbirthday":12601,"ĠWatson":12602,"Ġupdated":12603,"ĠNashville":12604,"Ġsimultaneously":12605,"Mr":12606,"PP":12607,"Ġwedding":12608,"Ġdiversity":12609,"ternoon":12610,"Ġcompiled":12611,"icking":12612,"Ġvictories":12613,"Ġtravelled":12614,"ĠOwen":12615,"Cath":12616,"aders":12617,"ĠRus":12618,"ĠWinn":12619,"ĠKrish":12620,"Ġeconomics":12621,"ĠPicture":12622,"mother":12623,"Ãī":12624,"unes":12625,"ĠNuclear":12626,"Ġextract":12627,"ĠJoan":12628,"Ġfootage":12629,"Between":12630,"Song":12631,"ĠRican":12632,"Ġpole":12633,"Ġindicating":12634,"Ġcertified":12635,"Note":12636,"world":12637,"Ġbull":12638,"Ġtours":12639,"ĠNorm":12640,"ango":12641,"ĠGeoff":12642,"Ġaccommodate":12643,"Ġabsolute":12644,"fold":12645,"Ġpist":12646,"ims":12647,"assic":12648,"Ġflash":12649,"ĠValent":12650,"Ġindependently":12651,"atinum":12652,"werp":12653,"ĠOperations":12654,"ĠAlbany":12655,"Ġpursue":12656,"Ġreserves":12657,"Critical":12658,"Ġtheatrical":12659,"Ġmathematician":12660,"Ġcasualties":12661,"Ber":12662,"OM":12663,"asse":12664,"ĠRu":12665,"phis":12666,"Ġmineral":12667,"Ġinsurance":12668,"Ġmentions":12669,"ĠBronx":12670,"isan":12671,"Ġanarch":12672,"Ġorchest":12673,"ĠBlu":12674,"Ġvariants":12675,"Bre":12676,"mud":12677,"ĠTank":12678,"Ġanth":12679,"rians":12680,"ĠVoice":12681,"ĠPoll":12682,"ds":12683,"ĠBeth":12684,"quest":12685,"Ġgenes":12686,"Ġescaped":12687,"ĠLucas":12688,"Ġfitted":12689,"Ġprocedures":12690,"ĠNevertheless":12691,"Ġinterpreted":12692,"iu":12693,"woman":12694,"ĠMÃ©":12695,"okes":12696,"Ġallies":12697,"Ġoperators":12698,"ĠBaroque":12699,"ĠRelations":12700,"Ġrainfall":12701,"Ġwaiting":12702,"fa":12703,"ĠMasters":12704,"Ġretain":12705,"ullivan":12706,"ucker":12707,"Ġvisits":12708,"Ġposter":12709,"iership":12710,"Ġverb":12711,"Ġsculptor":12712,"Ġpunishment":12713,"Ġarray":12714,"Ġregulation":12715,"Ġphon":12716,"ĠAntarctic":12717,"Vict":12718,"notes":12719,"zig":12720,"Ġtone":12721,"arrow":12722,"Ġdict":12723,"Ġnerve":12724,"Ġfamiliar":12725,"Ġconflicts":12726,"ĠLaboratory":12727,"Ġinherited":12728,"DR":12729,"makers":12730,"Ġsick":12731,"arin":12732,"Ġinternet":12733,"roat":12734,"ĠCec":12735,"agne":12736,"ĠJerem":12737,"ĠForum":12738,"Ġorganisms":12739,"Di":12740,"ilian":12741,"ĠJung":12742,"aping":12743,"anyon":12744,"ontal":12745,"ĠMilwaukee":12746,"Ġmolecular":12747,"Tube":12748,"itted":12749,"ĠBuc":12750,"rave":12751,"ĠArtists":12752,"Ġmerc":12753,"Ġhypothesis":12754,"ĠCitiz":12755,"ĠMik":12756,"rium":12757,"Ġdeck":12758,"Ġcharter":12759,"Ġoptical":12760,"ĠPirates":12761,"ĠGothic":12762,"Ġtoll":12763,"ĠBA":12764,"Ġrebellion":12765,"Ġsequences":12766,"Ġlifetime":12767,"Ġsyndrome":12768,"ĠPedro":12769,"EN":12770,"VA":12771,"ripp":12772,"ĠInstr":12773,"riculum":12774,"aho":12775,"Ġdevelopments":12776,"Ġfighters":12777,"ĠFourth":12778,"aturally":12779,"Saint":12780,"held":12781,"ĠSor":12782,"ĠMis":12783,"ĠFine":12784,"ĠGDP":12785,"ĠSpect":12786,"ĠPoly":12787,"Ġinterviews":12788,"ĠBaltic":12789,"Ġfossil":12790,"Camp":12791,"Ġdism":12792,"Ġpowered":12793,"Ġconquest":12794,"Mac":12795,"ĠSang":12796,"Ġlights":12797,"artet":12798,"Ġsharing":12799,"month":12800,"Ġanaly":12801,"Ġradar":12802,"Ġambass":12803,"ĠWorkers":12804,"Law":12805,"Tor":12806,"Ġsket":12807,"roe":12808,"Ġgrey":12809,"1916":12810,"ĠMarines":12811,"Ġlawyers":12812,"Ġsynthesis":12813,"Ġsubstance":12814,"Ġdoctrine":12815,"official":12816,"Ġinformed":12817,"asian":12818,"oting":12819,"ĠWhere":12820,"ocent":12821,"Ġsciences":12822,"velt":12823,"Ġsymm":12824,"Ġextends":12825,"Ġlegislative":12826,"Ġdeparted":12827,"Ġcomprises":12828,"Ġchallenges":12829,"ĠConstantinople":12830,"Road":12831,"cap":12832,"Ġfinance":12833,"Ġvaluable":12834,"otswana":12835,"ĠStudent":12836,"Ġsupplied":12837,"ĠEagle":12838,"length":12839,"mentary":12840,"Ġmetals":12841,"],":12842,"ĠSK":12843,"Ġpref":12844,"ĠBros":12845,"Ġmetab":12846,"heimer":12847,"Ġdelayed":12848,"ĠNapoleon":12849,"mo":12850,"pes":12851,"ĠSuz":12852,"ĠTales":12853,"Ġninet":12854,"Ġresumed":12855,"ĠThunder":12856,"ĠProper":12857,"uxili":12858,"Baseball":12859,"Ġsuburbs":12860,"Ġrelegated":12861,"atible":12862,"Ġpale":12863,"ĠCars":12864,"ylan":12865,"incorporated":12866,"ĠRevolutionary":12867,"ĠChapel":12868,"Ġfavorite":12869,"Acc":12870,"ĠPick":12871,"ĠRidge":12872,"ĠNathan":12873,"ĠManager":12874,"Ġfewer":12875,"itorium":12876,"Ġflew":12877,"omi":12878,"ĠFlying":12879,"Ġoutdoor":12880,"ĠCarr":12881,"Ġwarfare":12882,"ĠCompetition":12883,"Ġinfection":12884,"CAR":12885,"ĠRomans":12886,"ĠVenice":12887,"ĠLutheran":12888,"Little":12889,"ĠMull":12890,"ĠPeng":12891,"Ġgrid":12892,"astics":12893,"ĠBeaut":12894,"Ġports":12895,"Ġ1868":12896,"Ġmerely":12897,"ĠBennett":12898,"Fre":12899,"IF":12900,"ĠBerm":12901,"izers":12902,"Ġcloud":12903,"Ġprayer":12904,"Ġ1865":12905,"inguished":12906,"Ġelementary":12907,"Ġmoderate":12908,"Ġfiles":12909,"Ġforth":12910,"ĠWals":12911,"Ġcomfort":12912,"cester":12913,"cludes":12914,"Ġtrump":12915,"Through":12916,"ĠOriginal":12917,"Ġseemed":12918,"ĠTestament":12919,"Ġborough":12920,"nal":12921,"Ġsisters":12922,"empl":12923,"shore":12924,"Ġneighbouring":12925,"HO":12926,"Let":12927,"Ġbell":12928,"Ġhyd":12929,"ĠBuild":12930,"ĠStill":12931,"ĠViol":12932,"Ġspell":12933,"ĠBelle":12934,"ĠLeonard":12935,"Ġpushed":12936,"ĠLem":12937,"ĠKid":12938,"Ġexha":12939,"Ġrelay":12940,"ĠBeijing":12941,"ĠExpedition":12942,"Ġvolunteers":12943,"Ġexcellent":12944,"âĢľ":12945,"Ġdecides":12946,"Ġcitizenship":12947,"ĠStatistics":12948,"Ġconsumer":12949,"Ġpollution":12950,"ĠBavaria":12951,"Ġath":12952,"Ġtoler":12953,"Ġgauge":12954,"rific":12955,"Ġspend":12956,"Three":12957,"Ġ1879":12958,"Ġratings":12959,"ĠCruz":12960,"ĠCretaceous":12961,"GN":12962,"ĠPul":12963,"ĠYang":12964,"insky":12965,"Ġ96":12966,"Ġimmigration":12967,"ĠPanama":12968,"ĠCaesar":12969,"Ġmagnetic":12970,"Ġbattery":12971,"Ġanchor":12972,"original":12973,"Ġsle":12974,"ĠHeaven":12975,"ĠAssistant":12976,"ĠAgre":12977,"Ġpointed":12978,"Ġvariables":12979,"Ġansw":12980,"Municip":12981,"Î¿":12982,"avil":12983,"Ġrequiring":12984,"ĠSchw":12985,"Ġ1875":12986,"Ġmerchant":12987,"CE":12988,"Jim":12989,"Like":12990,"cul":12991,"ĠLic":12992,"ovich":12993,"atta":12994,"ĠMeasure":12995,"Ġaccompany":12996,"Ġcomedian":12997,"Ġempty":12998,"Dec":12999,"MT":13000,"live":13001,"ĠMig":13002,"ĠHern":13003,"ĠRoth":13004,"1915":13005,"oyle":13006,"ansk":13007,"ischer":13008,"Ġparishes":13009,"White":13010,"Ġobservation":13011,"Ġfairly":13012,"Den":13013,"Every":13014,"made":13015,"sur":13016,"ĠRica":13017,"ĠGas":13018,"ĠAnimal":13019,"Ġparticle":13020,"Ġ1878":13021,"ĠRabbi":13022,"ĠWednes":13023,"BO":13024,"Ġcow":13025,"Ġble":13026,"ĠCraw":13027,"olan":13028,"irus":13029,"ipino":13030,"Ġplacing":13031,"angular":13032,"ĠCanterbury":13033,"Ġframework":13034,"ĠWagner":13035,"Ġinhabited":13036,"Hol":13037,"omber":13038,"essed":13039,"ĠChan":13040,"ĠArrang":13041,"Ġmarry":13042,"Ġlistings":13043,"Players":13044,"Late":13045,"gio":13046,"itus":13047,"Ġhect":13048,"ĠUntil":13049,"Ġbelongs":13050,"etters":13051,"ĠIraqi":13052,"ĠSomerset":13053,"elo":13054,"Ġgif":13055,"Ġcontested":13056,"Ġhandle":13057,"Ġconsequences":13058,"ĠGabriel":13059,"ĠTasman":13060,"Greek":13061,"Val":13062,"mid":13063,"tz":13064,"ilo":13065,"Ġnephew":13066,"Ġdecide":13067,"Ġ1864":13068,"ĠFinally":13069,"Ġefficiency":13070,"ĠPearl":13071,"dem":13072,"front":13073,"Ġcuisine":13074,"ĠMul":13075,"ete":13076,"ĠOz":13077,"quis":13078,"Ġexit":13079,"ĠFranÃ§":13080,"ĠChess":13081,"Ġadministrator":13082,"Ġconcentrated":13083,"FO":13084,"wind":13085,"antle":13086,"Ġdepression":13087,"ĠArchae":13088,"Ġlegislature":13089,"Population":13090,"ĠObserv":13091,"Ġmaintaining":13092,"ĠRobertson":13093,"More":13094,"Prior":13095,"eling":13096,"adier":13097,"1913":13098,"icken":13099,"Ġextinct":13100,"ĠCalgary":13101,"ĠParad":13102,"ellows":13103,"ĠTravel":13104,"Play":13105,"ĠLegion":13106,"Ġastronaut":13107,"Ġrotation":13108,"Ġrefugees":13109,"UP":13110,"Winners":13111,"Ġtag":13112,"Ġanx":13113,"ĠPlayers":13114,"Canada":13115,"Ġdelivery":13116,"ĠAdventures":13117,"Ġmargin":13118,"aude":13119,"http":13120,"Ġfasc":13121,"Ġforb":13122,"ĠRams":13123,"aku":13124,"ĠVII":13125,"Ġspecimens":13126,"aelic":13127,"Ġsitting":13128,"ĠLuke":13129,"ĠStanford":13130,"Ġproportion":13131,"atine":13132,"ĠSaw":13133,"ĠCase":13134,"ctuary":13135,"channel":13136,"Ġconfused":13137,"Ġseparation":13138,"Ġquarterback":13139,"ĠGhana":13140,"Ġvocalist":13141,"Ġaccurate":13142,"both":13143,"gart":13144,"Ġtasks":13145,"olars":13146,"Ġliv":13147,"ĠWatch":13148,"ĠStage":13149,"Ġchronic":13150,"Ġgoverning":13151,"ĠFilms":13152,"Musicians":13153,"Ġphenomenon":13154,"Ġdisplays":13155,"Final":13156,"SN":13157,"govern":13158,"irms":13159,"ĠCambodia":13160,"ĠBuddhism":13161,"ĠRange":13162,"unning":13163,"ĠGay":13164,"Ġatom":13165,"ochem":13166,"ĠColin":13167,"Ġblind":13168,"Ġcurrency":13169,"ĠPrivate":13170,"Ã¼ck":13171,"ĠHolmes":13172,"Ġdiocese":13173,"Ġrecipient":13174,"Bill":13175,"ĠAw":13176,"story":13177,"ĠGaz":13178,"Ġacademy":13179,"Ġkills":13180,"ĠConserv":13181,"ĠConservation":13182,"Ġestimates":13183,"Ġdistinguish":13184,"Ġmemor":13185,"ĠRovers":13186,"ĠJoint":13187,"Ġenroll":13188,"ĠAdvanced":13189,"Ġprogrammes":13190,"Ġdestro":13191,"Ġbombing":13192,"IDS":13193,"Ġpermanently":13194,"Protected":13195,"Ġathlete":13196,"oids":13197,"Ġsang":13198,"Ġsending":13199,"Ġpill":13200,"eston":13201,"Ġsituations":13202,"Ġintegration":13203,"ĠArmstrong":13204,"Ġsurrender":13205,"iad":13206,"ĠMarx":13207,"Ġinstructions":13208,"umbent":13209,"ĠCardiff":13210,"Ġtargets":13211,"Ġhaplogroup":13212,"ben":13213,"dimensional":13214,"hl":13215,"athered":13216,"Ġcraft":13217,"ĠIng":13218,"ĠClif":13219,"Ġguests":13220,"ĠâĪĴ":13221,"ĠStrateg":13222,"BN":13223,"base":13224,"ĠGust":13225,"Ġsteep":13226,"ĠYa":13227,"osevelt":13228,"Ġsheep":13229,"ĠJohnston":13230,"ĠAdvis":13231,"byter":13232,"Ġsurvival":13233,"Ġaccessed":13234,"ĠAdditional":13235,"ĠPotter":13236,"Fac":13237,"Sil":13238,"Ġ<":13239,"esch":13240,"ĠBanks":13241,"osals":13242,"rano":13243,"issa":13244,"liminary":13245,"Ġfocuses":13246,"tracks":13247,"Ġlawsuit":13248,"Ġprogressive":13249,"Ġmagnitude":13250,"missions":13251,"ĠPlanet":13252,"SK":13253,"city":13254,"second":13255,"ĠCoal":13256,"Ġsegments":13257,"Ġvarying":13258,"Ġgeometry":13259,"uum":13260,"ĠCrystal":13261,"ĠTall":13262,"utter":13263,"ĠLux":13264,"ĠGand":13265,"Ġenact":13266,"Ġspecimen":13267,"uncan":13268,"Ġfeelings":13269,"ĠEthiop":13270,"Ġinscription":13271,"Week":13272,"uj":13273,"Ġsav":13274,"Ġcargo":13275,"icia":13276,"ĠHerm":13277,"Ġmanual":13278,"Ġ82":13279,"Ġvaried":13280,"Ġbarrel":13281,"ĠBreak":13282,"ytic":13283,"Ġfeeling":13284,"Ġpupils":13285,"bank":13286,"four":13287,"ĠLess":13288,"Ġrational":13289,"Ġscr":13290,"Ġindeed":13291,"ĠClaud":13292,"Ġ101":13293,"ĠShep":13294,"Ġparticipating":13295,"!!":13296,"%).":13297,"Love":13298,"Common":13299,"ĠPlayStation":13300,"ĠEconomics":13301,"Four":13302,"Ġciting":13303,"ĠKem":13304,"Ġregiments":13305,"ĠShar":13306,"Ġpopulated":13307,"Ġ94":13308,"ĠAugustus":13309,"ouncill":13310,"Ġdestination":13311,"communications":13312,"ĠScientific":13313,"inyl":13314,"Ġhole":13315,"Ġoral":13316,"Ġwarning":13317,"ĠTurks":13318,"Ġphotographer":13319,"Ġsweet":13320,"ĠLah":13321,"ĠAmiga":13322,"Ġeligible":13323,"borg":13324,"ĠAndrews":13325,"Novels":13326,"Bo":13327,"VI":13328,"Ġsteal":13329,"Ġexile":13330,"ĠCha":13331,"Ġdecay":13332,"Ġfollowers":13333,"ettes":13334,"Ġinitiative":13335,"ĠPetersburg":13336,"Ġaest":13337,"ĠCIA":13338,"ĠNy":13339,"ĠNeg":13340,"umen":13341,"Ġjury":13342,"Ġtract":13343,"Ġaffair":13344,"ĠArgentine":13345,"Ġvulner":13346,"EM":13347,"hurst":13348,"alions":13349,"Ġghost":13350,"1910":13351,"Ġ98":13352,"yler":13353,"ambers":13354,"Ġputting":13355,"Conn":13356,"Ġlaboratory":13357,"Ġemotional":13358,"alog":13359,"ĠAN":13360,"ĠInsp":13361,"Ġabbre":13362,"Ġ84":13363,"ĠEmir":13364,"ĠMalay":13365,"ĠVietnamese":13366,"Eastern":13367,"Mel":13368,"Ġing":13369,"entieth":13370,"ĠJin":13371,"Ġscen":13372,"Ġattraction":13373,"Ġcommunist":13374,"Ġrulers":13375,"Ġcompleting":13376,"Ma":13377,"Ġtorn":13378,"team":13379,"ĠLegal":13380,"Ġobservations":13381,"Ġoptim":13382,"ĠAbdul":13383,"Ġshifted":13384,"dig":13385,"Ã½":13386,"lette":13387,"Ġdemanded":13388,"Ġsword":13389,"addy":13390,"ĠGibson":13391,"usa":13392,"Ġ79":13393,"Ġrevol":13394,"Ġfallen":13395,"ĠCopenhagen":13396,"Ġveteran":13397,"Mary":13398,"anas":13399,"alis":13400,"Ġdepends":13401,"sterious":13402,"ĠArtist":13403,"Ã¯":13404,"Ġstyl":13405,"Ġcompact":13406,"Ġinteractions":13407,"ennon":13408,"Ġeducator":13409,"Ġtemples":13410,"clesiast":13411,"Politics":13412,"ĠPalestine":13413,"Ġtheor":13414,"isers":13415,"ĠSey":13416,"ipel":13417,"urop":13418,"Ġ81":13419,"Ġflank":13420,"regular":13421,"Ġtravels":13422,"ĠAccount":13423,"Ġresignation":13424,"Ġrecruited":13425,"\":":13426,"Mid":13427,"Mex":13428,"Pan":13429,"Town":13430,"ĠCly":13431,"ĠMTV":13432,"Ġforty":13433,"Ġvector":13434,"Ġsharp":13435,"Ġworker":13436,"Ġbasin":13437,"Ġpresents":13438,"Ġeventual":13439,"ĠReds":13440,"Ġ1883":13441,"Ġcutting":13442,"ĠBahÃ¡":13443,"Ġmosque":13444,"Av":13445,"enos":13446,"ĠCyr":13447,"Ġeldest":13448,"Ġfriendship":13449,"Ġsummary":13450,"Ġphilosophers":13451,"Joseph":13452,"ĠTibet":13453,"ĠFlorence":13454,"DS":13455,"inced":13456,"immer":13457,"Ġthanks":13458,"Ġartwork":13459,"Ġslavery":13460,"Ġorient":13461,"ĠSalvador":13462,"eu":13463,"rox":13464,"etric":13465,"ĠKin":13466,"ĠAlpha":13467,"Ġsubstitute":13468,"Ġentity":13469,"ĠDavies":13470,"Ġ1866":13471,"Ġpotentially":13472,"Ġprinting":13473,"Ġchallenged":13474,"ĠJohannes":13475,"ĠMaurice":13476,")])":13477,"has":13478,"Ġoct":13479,"Ġsure":13480,"Ġliver":13481,"Do":13482,"ĠPy":13483,"Ġgear":13484,"ĠDanny":13485,"Ġsecular":13486,"Ġmaintains":13487,"Ġ1872":13488,"clusive":13489,"Ġcelebration":13490,"ulsion":13491,"Ġtheolog":13492,"ĠSul":13493,"Ġdisk":13494,"Ġenabled":13495,"ĠAmbass":13496,"Ġbelt":13497,"ĠAhmad":13498,"ĠKenya":13499,"Ġfluid":13500,"ĠEventually":13501,"Ġtip":13502,"ndez":13503,"omatic":13504,"urated":13505,"Ġstake":13506,"Ġretro":13507,"Ġtransformed":13508,"Ġairline":13509,"ĠHigher":13510,"Establishment":13511,"Direct":13512,"hn":13513,"stock":13514,"ardi":13515,"ĠStri":13516,"Ġdisturb":13517,"Ġcompetitors":13518,"Ġcorruption":13519,"Ġarriving":13520,"foundland":13521,"Ġexplanation":13522,"ĠShanghai":13523,"Mont":13524,"kt":13525,"Ġpy":13526,"Ġhunt":13527,"ĠBent":13528,"ĠDim":13529,"ellar":13530,"Ġdetect":13531,"Ġdeliber":13532,"Ġcivilians":13533,"Ġpilots":13534,"Ġdecrease":13535,"Ġrevolutionary":13536,"species":13537,"Ġnucleus":13538,"Ġrever":13539,"Ġresource":13540,"ĠTrump":13541,"ĠCauc":13542,"Ġlayout":13543,"ĠGrammar":13544,":#":13545,"Ġ74":13546,"Ġmatrix":13547,"ĠSimpson":13548,"ĠLot":13549,"abe":13550,"ĠYellow":13551,"ylogen":13552,"ĠHero":13553,"Ann":13554,"Ġcirculation":13555,"Ġarrive":13556,"iffs":13557,"Ġjournals":13558,"Ġvoiced":13559,"inos":13560,"idance":13561,"Ġgift":13562,"cycle":13563,"ĠHeavyweight":13564,"Green":13565,"Ice":13566,"fin":13567,"lia":13568,"ĠRut":13569,"ĠOwn":13570,"Ġchapters":13571,"Ġprovisions":13572,"ĠBlock":13573,"ĠBohem":13574,"Ġbreast":13575,"ĠPublishers":13576,"Ġculmin":13577,"Ġlooks":13578,"Ġlift":13579,"esse":13580,"ĠYouTube":13581,"Ġimprovement":13582,"Ġconvinced":13583,"holders":13584,"Ġpremiere":13585,"Blue":13586,"Results":13587,"ĠMLB":13588,")||":13589,"Ġcomments":13590,"qual":13591,"endments":13592,"Ġintense":13593,"Ġapprec":13594,"Ġoutbreak":13595,"Ã¸r":13596,"ĠPhilippine":13597,"Ġpulled":13598,"Ġtru":13599,"Ġchest":13600,"ĠAL":13601,"Ġdefine":13602,"ĠGuang":13603,"ĠHarper":13604,"ĠPalmer":13605,"Ġimprisonment":13606,"Ġunderwent":13607,"Ġtelling":13608,"Ġasking":13609,"ĠFra":13610,"Ġconson":13611,"ificate":13612,"Ġ93":13613,"Ġskill":13614,"Ġguitarists":13615,"Ġspeaker":13616,"Ġcolleagues":13617,"ĠJacques":13618,"imo":13619,"ĠĠĠĠĠĠĠ":13620,"Ġdemocracy":13621,"Ġrealized":13622,"atinate":13623,"Ġspectrum":13624,"Ġmilitia":13625,"Ġsacrifice":13626,"Rob":13627,"Ġic":13628,"oning":13629,"ĠRoche":13630,"ĠNursing":13631,"avier":13632,"Ġcommenced":13633,"ĠShir":13634,"Ġrelie":13635,"ĠManit":13636,"ĠLegend":13637,"Ġtraveling":13638,"ĠNAS":13639,"Ġaddressed":13640,"ĠCameron":13641,"Ġskiing":13642,"beat":13643,"family":13644,"ĊĠĠĠ":13645,"ĠMoz":13646,"Ġ\"[":13647,"chel":13648,"Ġ1500":13649,"otto":13650,"icester":13651,"Ġcontribute":13652,"ĠRoosevelt":13653,"ĠCabinet":13654,"human":13655,"Ġbinding":13656,"isha":13657,"ĠLevel":13658,"ĠLeft":13659,"Ġ1874":13660,"Ġapost":13661,"OT":13662,"Sur":13663,"ĠResp":13664,"Ġstability":13665,"Ext":13666,"thel":13667,"Chinese":13668,"Ġliterally":13669,"unners":13670,"ĠFormula":13671,"ĠLudwig":13672,"Ġcer":13673,"Ġbag":13674,"ĠAB":13675,"Ġresort":13676,"Ġ1830":13677,"Ġenrolled":13678,"ĠVirt":13679,"onstruct":13680,"Ġcalendar":13681,"Ġtalks":13682,"Ġdeposits":13683,"feat":13684,"nut":13685,"Ġferry":13686,"Ġseized":13687,"Ġshots":13688,"ĠDeuts":13689,"Ġintervention":13690,"ĠEdmonton":13691,"Ġattacking":13692,"ĠTransit":13693,"ĠCampus":13694,"ĠLiberty":13695,"ĠCircuit":13696,"ocaust":13697,"intendo":13698,"Because":13699,"Pe":13700,"Ġsung":13701,"ĠSep":13702,"ĠSikh":13703,"ĠGolf":13704,"ĠEt":13705,"ĠEur":13706,"ĠEve":13707,"Ġscandal":13708,"Ġreporting":13709,"Ġtaxes":13710,"Ġabstract":13711,"ĠHamburg":13712,"Ġber":13713,"ĠCert":13714,"ĠAgnes":13715,"Ġrocket":13716,"Ġprivile":13717,"ĠMahar":13718,"ĠEssex":13719,"Ġcomprising":13720,"osystem":13721,"ĠAlgeria":13722,"ĠTir":13723,"ĠLomb":13724,"ĠFiction":13725,"ĠChi":13726,"ourg":13727,"ustrated":13728,"ĠArd":13729,"azar":13730,"Ġampl":13731,"Ġcorps":13732,"ĠBasque":13733,"ĠJulius":13734,"ĠEpiscopal":13735,"ĠVarious":13736,"Rugby":13737,"lain":13738,"edo":13739,"ĠTalk":13740,"ifier":13741,"ophon":13742,"ĠWithout":13743,"Ġrequirement":13744,"Ġpackage":13745,"stanbul":13746,"Singles":13747,"Ġdiscipline":13748,"itting":13749,"char":13750,"emin":13751,"Ġunions":13752,"Ġdisorders":13753,"Ġtransformation":13754,"Ġterritorial":13755,"ĠAgainst":13756,"Er":13757,"igi":13758,"Ġrated":13759,"Ġplaywright":13760,"Ġretiring":13761,"Ġ87":13762,"Ġ97":13763,"ĠUlster":13764,"ĠWarsaw":13765,"Long":13766,"bird":13767,"built":13768,"otta":13769,"ĠAllan":13770,"Ġinvolve":13771,"Ġassociations":13772,"ĠPolitics":13773,"ĠIndonesian":13774,"Ġencountered":13775,"Due":13776,"Ġtube":13777,"ĠCyp":13778,"amas":13779,"adal":13780,"Ġtea":13781,"ĠPlate":13782,"ĠReed":13783,"Ġpreserve":13784,"Ġreceiver":13785,"Ġpredict":13786,"Ġmonthly":13787,"inemat":13788,"ĠChilean":13789,"Ġpioneer":13790,"iens":13791,"lez":13792,"Ġhol":13793,"ocity":13794,"overed":13795,"Ġprototype":13796,"Ġphotos":13797,"Ġcathedral":13798,"Po":13799,"nov":13800,"Ġtissue":13801,"Ġhttp":13802,"Ġnort":13803,"ĠIBM":13804,"Ġask":13805,"ĠShield":13806,"Ġpetition":13807,"ĠSacram":13808,"ĠVermont":13809,"si":13810,"selling":13811,"Ġbip":13812,"ĠWorth":13813,"Release":13814,"Ġindoor":13815,"ĠWestminster":13816,"1901":13817,"ĠGreeks":13818,"Ġritual":13819,"City":13820,"Ġfran":13821,"Ġna":13822,"chant":13823,"Ġgathered":13824,"ĠNatal":13825,"ĠPlanning":13826,"ĠDaw":13827,"ĠNote":13828,"Ġbutter":13829,"Ġjew":13830,"Ġlisten":13831,"archy":13832,"ĠWildlife":13833,"ĠShortly":13834,"Ġabsorbed":13835,"habilit":13836,"Ġ).":13837,"onal":13838,"ĠCand":13839,"ctica":13840,"Ġ1869":13841,"ĠHenri":13842,"Ġprobability":13843,"Ġfastest":13844,"Ġconquered":13845,"----":13846,"Ġphysicist":13847,"cal":13848,"Ġpresentation":13849,"Ġcontracts":13850,"Ġprisoner":13851,"ĠSolomon":13852,"Ġreverse":13853,"ĠFraser":13854,"utory":13855,"quarter":13856,"assis":13857,"pense":13858,"Ġsurprise":13859,"alties":13860,"Ġsacred":13861,"Rh":13862,"kan":13863,"ĠTiger":13864,"omial":13865,"Ġstabil":13866,"ĠEff":13867,"ĠShadow":13868,"ĠCalvin":13869,"Ġarrives":13870,"Ġbatting":13871,"ĠArrangements":13872,"inas":13873,"Ġsoph":13874,"Ġbare":13875,"arted":13876,"ĠComedy":13877,"Ġimposed":13878,"raeli":13879,"Ġconfiguration":13880,"gins":13881,"Ġpump":13882,"ĠHum":13883,"ĠInstit":13884,"ĠDoug":13885,"Haplogroup":13886,"Water":13887,"eras":13888,"ĠDylan":13889,"than":13890,"Ġspan":13891,"ĠAlbums":13892,"Ġabortion":13893,"Ġaudiences":13894,"Ġpsychological":13895,"iatric":13896,"Fort":13897,"Ġaster":13898,"abwe":13899,"oots":13900,"ridor":13901,"Ġwilling":13902,"Ġsilent":13903,"munition":13904,"Citations":13905,"LU":13906,"onomic":13907,"Ġhospitals":13908,"ĠBes":13909,"ĠRush":13910,"ĠKol":13911,"angered":13912,"Ġremn":13913,"Ġpresc":13914,"vironments":13915,"Ġprevented":13916,"Business":13917,"ĠAston":13918,"ĠBrom":13919,"ados":13920,"ĠRif":13921,"Ġstrings":13922,"Ġsky":13923,"Ġrenowned":13924,"Ġ1873":13925,"Ġrecognize":13926,"ĠGrove":13927,"gus":13928,"join":13929,"alism":13930,"ĠCanyon":13931,"Ġgap":13932,"ĠWells":13933,"Ġknock":13934,"Ġdefending":13935,"ĠAndrÃ©":13936,"Ġaviation":13937,"ĠMontana":13938,"iticus":13939,"Ġkilometers":13940,"ĠLithuania":13941,"ĠJamaica":13942,"imony":13943,"Ġtransit":13944,"ĠAugustine":13945,"olkata":13946,"Ġcollective":13947,"Ġallegedly":13948,"Ġsustained":13949,"Ġconsciousness":13950,"Ġcoffee":13951,".).":13952,"Ġbotan":13953,"ĠTroy":13954,"Ġnaturally":13955,"Ġextending":13956,"Ġcurve":13957,"Ġlineup":13958,"Arthur":13959,"ĠProvisions":13960,"produced":13961,"Ġ1848":13962,"imbabwe":13963,"ĠAlexandra":13964,"Ġbrigade":13965,"Ġpianist":13966,"Äĵ":13967,"enary":13968,"Ġcad":13969,"Ġbicy":13970,"chair":13971,"ewise":13972,"Ġshock":13973,"Ġboards":13974,"ĠMonten":13975,"piece":13976,"alam":13977,"ĠSweet":13978,"prises":13979,"Ġbiology":13980,"Ġfailing":13981,"ĠAgriculture":13982,"Day":13983,"Form":13984,"isen":13985,"Ġfame":13986,"leum":13987,"ishi":13988,"cling":13989,"Ġ1800":13990,"Ġoverw":13991,"Ġconsent":13992,"Ġ700":13993,"Ġpatri":13994,"boro":13995,"Ġerrors":13996,"ĠKenneth":13997,".;":13998,"ische":13999,"alks":14000,"Ġhier":14001,"ĠLok":14002,"ĠFul":14003,"ĠWinners":14004,"ecca":14005,"ĠInitially":14006,"ĠMario":14007,"Ġfreight":14008,"Ġ1877":14009,"Ġbreaks":14010,"Ġdecreased":14011,"Ġthriller":14012,"ĠWednesday":14013,"Oh":14014,"reation":14015,"chron":14016,"Ġbypass":14017,"inned":14018,"Ġguards":14019,"ĠĊĠĊĠĊ":14020,"ĠCubs":14021,"atz":14022,"aton":14023,"ĠAri":14024,"ĠNas":14025,"Ġvital":14026,"ishn":14027,"Ġmans":14028,"Ġeditors":14029,"Ġhandling":14030,"Ġargue":14031,"Ġachievements":14032,"ĠMilton":14033,"Ġgraphic":14034,"Ġearthquake":14035,"uxiliary":14036,"Great":14037,"Home":14038,"Ð»":14039,"alities":14040,"Ġmilk":14041,"avin":14042,"ĠKre":14043,"ĠStef":14044,"Ġreconstruction":14045,"ĠNewfoundland":14046,"ĠShop":14047,"Ġjudicial":14048,"Ġwithdrawal":14049,"Clim":14050,"ĠSony":14051,"ivities":14052,"Ġflour":14053,"Ġcreates":14054,"ĠAnders":14055,"Ä±r":14056,"Bro":14057,"Cor":14058,"KO":14059,"ĠSM":14060,"Ġnaming":14061,"ĠIT":14062,"Ġbeam":14063,"Ġstronger":14064,"ĠLouisville":14065,"ĠInterview":14066,"ĠAhmed":14067,"esignated":14068,"ĠDurham":14069,"Ġnomine":14070,"Liter":14071,"vas":14072,"Ġcyl":14073,"ĠSyl":14074,"ĠTang":14075,"three":14076,"sole":14077,"ĠEmmy":14078,"iffe":14079,"Ġbench":14080,"founded":14081,"Ġtum":14082,"Ġbio":14083,"Ġstolen":14084,"Ġaltered":14085,"erek":14086,"ĠHeights":14087,"iban":14088,"ahu":14089,"ĠPrinceton":14090,"Ġhanded":14091,"Ġdealing":14092,"ĠEvangelical":14093,"ĠFerr":14094,".:":14095,"Ġwish":14096,"Ġmic":14097,"ĠSold":14098,"ĠHaving":14099,"Ġforcing":14100,"onde":14101,"ĠSpencer":14102,"Ġseverely":14103,"ĠMoney":14104,"ĠArchives":14105,"Ġcuts":14106,"cies":14107,"ĠAin":14108,"ĠDoll":14109,"Ġrivals":14110,"erves":14111,"ĠGlobe":14112,"Selected":14113,"ĠGardens":14114,"Burials":14115,"olithic":14116,"aru":14117,"Ġfraud":14118,"ĠBotswana":14119,"ĠInst":14120,"Ġages":14121,"stitu":14122,"ĠArtillery":14123,"ĠMerit":14124,"brook":14125,"Ã±a":14126,"ĠMarcus":14127,"Ġinstallation":14128,"Ġinstitute":14129,"ĠSind":14130,"Ġservant":14131,"Ġrelatives":14132,"Ġquiet":14133,"forest":14134,"ĠFranco":14135,"Ġgenerations":14136,"Ġconsidering":14137,"Ġdisputed":14138,"Ġadjust":14139,"Ġsurfaces":14140,"Henry":14141,"billion":14142,"ĠPiet":14143,"ĠPresent":14144,"ĠDas":14145,"estrian":14146,"oces":14147,"ĠSteph":14148,"Ġconspiracy":14149,"Ġoccurring":14150,"Ġdeclar":14151,"ĠPublications":14152,"Ġkinds":14153,"Ġprosper":14154,"Ġruins":14155,"Host":14156,"sized":14157,"ĠJur":14158,"Ġelite":14159,"Ġdevast":14160,"Ġburial":14161,"ĠConcert":14162,"Sem":14163,"UN":14164,"building":14165,"Ġtheology":14166,"lee":14167,"ĠSuff":14168,"Ġspl":14169,"Ġperpet":14170,"Ġknee":14171,"ĠPrussia":14172,"ĠMeh":14173,"untary":14174,"Ġstretch":14175,"Broad":14176,"Off":14177,"five":14178,"tic":14179,"ĠRaw":14180,"Ġash":14181,"ĠWool":14182,"mented":14183,"Ġriding":14184,"ĠYuk":14185,"colm":14186,"ĠJulian":14187,"Ġpsychology":14188,"Ġvacc":14189,"ĠAdventure":14190,"Additional":14191,"Brazil":14192,"Ġtenth":14193,"Ġlad":14194,"ĠLac":14195,"acters":14196,"Ġentreprene":14197,"ĠResources":14198,"ĠNeo":14199,"Ġfarms":14200,"ĠSebast":14201,"DE":14202,"sim":14203,"arr":14204,"orde":14205,"Ġcancel":14206,"ĠAdmiral":14207,"ĠMurong":14208,"Ġclosest":14209,"Ġboxing":14210,"Ġpayment":14211,"Ġdialogue":14212,"Ġrelegation":14213,"Ġafternoon":14214,"Social":14215,"ĠAristot":14216,"atics":14217,"ethel":14218,"ĠScreen":14219,"Ġtrouble":14220,"ĠBurton":14221,"Ġawareness":14222,"Ġonwards":14223,"ĠKiss":14224,"Ġdisappeared":14225,"Ġenable":14226,"ologically":14227,"ĠInterstate":14228,"Ġnecessarily":14229,"Ġmessages":14230,"Swed":14231,"ĠCameroon":14232,"Ben":14233,"Mer":14234,"rene":14235,"Ġfiring":14236,"ĠSter":14237,"ĠJe":14238,"arges":14239,"Ġminimal":14240,"Ġcollaborated":14241,"Ġdoubles":14242,"Regional":14243,"Foot":14244,"áº":14245,"atem":14246,"Ġwick":14247,"olin":14248,"Ġlobby":14249,"agger":14250,"ĠKane":14251,"oko":14252,"Ġestimate":14253,"ertiary":14254,"tym":14255,"iscell":14256,"Ġsuggesting":14257,"Ġprepare":14258,"President":14259,"Ġconjunction":14260,"ĠCann":14261,"elly":14262,"ĠJen":14263,"iker":14264,"Ġ86":14265,"ĠEdmund":14266,"Ġterrain":14267,"Ġarchitects":14268,"ĠFerdin":14269,"Ġoccasional":14270,"Ġmembrane":14271,"Catholic":14272,"had":14273,"isle":14274,"aras":14275,"Ġwasn":14276,"ĠRaf":14277,"Ġwheels":14278,"Ġtransp":14279,"ĠReading":14280,"Ġ1857":14281,"Ġgrave":14282,"ĠPakistani":14283,"ĠBirth":14284,"ĠJamie":14285,"Ġtowers":14286,"mail":14287,"ĠFolk":14288,"Ġlease":14289,"inf":14290,"Ġcir":14291,"ĠSex":14292,"ĠScar":14293,"ĠAlbanian":14294,"Ġdrove":14295,"Ġcompositions":14296,"Ġbats":14297,"1911":14298,"ĠChange":14299,"ĠMarl":14300,"Ġconsc":14301,"Ġautumn":14302,"hibition":14303,"ĠRailways":14304,"Ġwrestler":14305,"Dutch":14306,"Smith":14307,"Washington":14308,"ĠDuncan":14309,"Ġseeds":14310,"Ġsyll":14311,"Ġphilanthrop":14312,"Ġtransported":14313,"ĠCardinal":14314,"Ġbulk":14315,"panic":14316,"Ġrepeatedly":14317,"Turk":14318,"Ġinsects":14319,"lean":14320,"ĠBond":14321,"ĠBene":14322,"rika":14323,"Ġstandings":14324,"Ġanticip":14325,"ĠAstron":14326,"Ġexamination":14327,"MG":14328,"him":14329,"ÅĽ":14330,"opic":14331,"ostic":14332,"Ã©r":14333,"Ġrebels":14334,"Ġaltitude":14335,"ĠManitoba":14336,"ded":14337,"Ġchoir":14338,"ĠBelgrade":14339,"Ġcommitment":14340,"Ġhoped":14341,"Ġvirtually":14342,"Ġhectares":14343,"Open":14344,"okie":14345,"ĠScouts":14346,"lining":14347,"Ġantiqu":14348,"Ġdiesel":14349,"Expatriate":14350,"Ġsurvivors":14351,"Fin":14352,"isdom":14353,"Ġinclusion":14354,
[...]
